<unk>
<s>
</s>
▁the
.
,
▁of
▁and
▁to
s
▁in
▁a
▁is
▁for
'
▁that
▁The
▁"
-
▁with
▁on
▁you
▁are
▁be
▁it
:
▁I
▁not
▁(
▁as
▁was
▁by
▁from
▁this
▁will
▁have
▁or
?
▁at
▁can
)
▁an
t
▁-
"
▁your
▁we
▁has
▁In
ing
▁which
▁all
▁
▁their
▁It
▁one
▁they
ed
▁more
▁he
▁about
▁Ukraine
▁our
▁but
▁his
▁A
;
▁also
▁people
▁do
▁were
▁who
▁time
."
▁other
▁–
d
▁its
▁This
▁We
!
▁only
▁there
▁than
▁them
▁first
▁new
▁what
▁been
▁years
▁so
▁out
▁world
▁if
▁no
▁You
▁He
▁had
ly
▁And
▁most
▁when
▁up
▁any
▁said
▁into
▁work
a
▁would
e
▁such
▁my
y
▁should
▁use
▁may
S
▁us
▁these
re
▁two
er
▁like
...
m
▁What
▁very
▁some
▁If
▁need
▁how
▁year
▁well
▁over
▁life
▁many
▁But
▁1
▁after
▁know
▁Ukrainian
▁They
▁2
▁her
▁me
▁make
/
▁information
▁3
▁For
▁just
).
▁How
▁get
▁him
▁even
th
▁system
▁where
▁God
▁day
▁used
▁want
in
al
▁now
I
▁because
▁way
▁There
▁between
▁those
,"
▁same
▁could
▁company
▁then
▁take
▁own
▁help
▁right
▁—
▁country
▁does
▁number
▁part
▁Russian
▁made
▁So
▁see
▁place
▁through
▁10
▁To
▁good
▁must
▁she
n
▁different
▁Russia
▁under
▁5
▁S
▁important
▁business
▁European
▁much
es
▁each
▁children
▁during
▁without
▁did
▁countries
▁state
▁_
▁before
▁development
▁As
o
r
i
▁All
▁4
▁high
▁/
▁international
▁best
▁three
▁No
▁New
The
▁On
▁every
▁don
▁go
),
▁order
▁long
▁think
▁data
▁find
▁'
▁support
▁always
▁city
▁here
▁International
".
▁U
▁being
▁against
▁United
2
▁At
▁When
▁That
ve
▁last
▁water
▁back
A
or
▁law
▁possible
▁Do
▁person
▁million
▁Europe
▁products
ll
▁man
▁services
▁&
▁become
▁both
▁including
▁C
▁still
▁end
▁...
▁‘
D
▁name
▁great
▁come
▁say
▁change
▁service
▁power
▁6
▁called
]
▁another
▁human
▁days
▁20
▁National
▁case
▁B
▁University
▁E
▁around
▁love
▁body
▁7
▁government
▁found
▁example
▁main
▁States
▁home
▁She
▁However
▁free
▁project
▁since
▁today
▁social
▁course
▁process
▁often
▁family
▁future
▁M
C
▁level
▁World
▁within
▁small
ers
▁while
▁P
▁able
▁too
▁8
▁15
▁already
▁never
the
▁market
▁things
▁[
▁public
▁using
▁energy
▁D
▁better
▁means
▁give
g
▁program
▁women
▁necessary
▁T
c
▁am
▁going
▁look
▁something
b
3
▁money
▁One
▁12
▁provide
",
▁fact
▁really
▁area
▁special
1
▁After
▁set
▁experience
▁form
▁large
on
▁political
▁control
▁State
▁second
▁18
▁China
▁next
▁Why
▁group
▁per
▁working
▁real
▁American
▁why
▁students
▁down
▁war
▁times
▁re
▁Our
▁production
▁economic
▁shall
▁ago
▁again
▁V
▁full
▁few
▁design
▁local
▁US
▁research
B
▁personal
▁known
▁car
▁live
▁among
▁K
▁national
▁several
▁companies
▁child
▁These
We
▁history
▁G
▁With
▁President
▁online
▁lot
▁site
▁quality
▁became
to
▁study
▁9
▁rights
en
▁open
▁result
▁start
▁military
▁team
▁until
▁create
▁de
▁least
▁months
▁modern
▁old
▁available
▁together
▁less
x
▁period
▁men
l
▁16
▁believe
k
▁According
▁17
▁30
ce
▁language
ic
▁book
▁security
▁region
G
▁based
▁others
▁O
▁«
▁following
▁English
▁price
▁later
▁four
▁Your
▁Kyiv
▁EU
h
▁health
T
▁problems
▁F
▁11
▁My
▁un
▁problem
▁legal
▁results
▁show
▁needs
▁feel
com
an
F
—
▁From
able
▁age
▁non
4
▁school
▁access
▁L
p
▁food
▁took
▁R
▁house
▁various
V
▁little
▁product
▁young
▁website
▁Now
▁whole
▁point
▁might
▁off
▁financial
▁understand
▁2018
▁His
▁situation
▁put
▁foreign
▁account
▁cannot
M
E
▁thing
▁14
man
▁Union
▁space
st
P
▁held
▁H
▁game
K
▁care
▁came
▁everything
▁An
▁natural
▁left
▁air
na
▁By
▁Jesus
▁according
▁changes
▁addition
▁systems
▁third
▁N
▁due
▁light
▁2019
▁amount
▁says
▁offer
▁death
▁type
▁technology
▁members
▁Some
W
▁increase
▁hours
▁certain
▁almost
▁created
▁May
▁field
▁War
▁management
▁education
▁five
▁Council
5
▁conditions
▁13
▁m
N
▁present
▁works
ity
▁equipment
▁First
▁Germany
▁century
▁treatment
▁side
▁pay
▁knowledge
▁early
▁away
▁professional
▁enough
▁Day
▁began
▁given
▁German
▁March
▁society
▁question
▁decision
▁done
▁list
▁Church
▁activities
▁room
▁words
▁keep
▁heart
▁global
ia
▁25
us
▁single
▁learn
▁French
▁building
▁received
▁St
▁areas
▁•
ism
ation
▁once
▁October
▁past
▁Institute
▁September
▁far
▁activity
▁100
▁Law
▁call
▁January
▁cases
ness
ist
▁common
▁particular
▁percent
▁current
▁head
▁popular
▁hand
▁started
▁friends
▁land
▁cost
▁2017
▁policy
▁making
▁play
▁choose
▁living
▁let
▁industry
▁week
▁read
▁general
(
▁risk
▁People
▁buy
▁themselves
▁50
▁plan
▁medical
▁page
▁considered
▁video
▁June
L
▁Kiev
▁got
▁protection
8
▁e
▁taken
»
▁kind
▁especially
▁Group
▁projects
▁Re
z
▁individual
▁provided
▁training
H
▁yourself
▁role
▁Center
▁further
▁July
▁told
▁makes
u
▁Can
▁sure
▁Not
▁true
▁try
▁position
▁film
▁America
▁Jehovah
7
▁line
f
▁France
▁December
▁Is
▁largest
▁music
▁itself
▁24
▁close
at
▁half
▁major
▁19
▁ever
le
▁network
▁nothing
▁Be
▁South
▁gas
▁Department
▁top
▁hard
▁Home
▁continue
▁value
▁idea
▁ready
▁key
▁media
▁issues
▁everyone
▁difficult
▁attention
ion
▁application
?"
▁meeting
▁tell
▁developed
▁population
▁Of
▁total
▁contact
▁During
▁materials
▁events
▁self
▁Internet
▁North
▁blood
▁event
▁range
▁Then
▁view
▁City
▁article
▁organization
▁effective
▁official
▁center
▁April
▁More
▁material
▁won
▁woman
▁receive
▁Most
▁share
▁opportunity
▁Bank
▁model
▁basis
▁Online
▁November
and
▁private
▁office
▁School
▁having
▁Who
▁British
▁Republic
▁size
▁nature
▁Business
▁complex
▁big
▁member
up
▁visit
▁low
▁required
▁night
▁trade
▁short
▁went
▁Let
▁construction
▁higher
▁TV
▁billion
▁reason
▁General
▁meet
▁21
▁effect
▁whether
▁Today
▁territory
▁allow
▁content
▁Company
▁strong
▁party
▁doing
▁minutes
▁month
▁lives
▁community
▁offers
▁beginning
ka
▁0
▁art
▁similar
▁oil
is
▁parents
▁Many
6
▁easy
▁W
▁clear
▁return
▁built
▁Ministry
▁taking
▁scientific
▁thought
▁provides
▁Are
▁seen
▁authorities
▁computer
▁include
▁ensure
▁yet
▁2016
▁matter
it
▁develop
▁turn
ian
▁August
▁series
▁located
▁economy
▁terms
el
▁Association
▁John
v
▁$
▁talk
▁types
▁unique
▁questions
▁word
▁doesn
▁usually
▁cause
▁Lviv
▁report
▁stop
▁rules
▁Moscow
▁version
▁allows
▁above
▁comes
▁UAH
▁simple
▁date
▁specific
▁action
▁issue
▁Bible
▁actually
▁lost
▁bring
▁potential
▁Since
▁growth
▁longer
Y
▁story
▁mean
▁hope
▁however
▁news
ne
▁culture
▁active
ar
▁near
▁upon
▁Service
▁customers
▁anything
▁Christ
▁beautiful
▁interest
▁someone
▁Earth
▁disease
▁established
▁users
▁capital
▁documents
▁technical
▁40
▁J
▁Black
▁leave
▁22
▁published
▁job
▁search
▁Chinese
▁face
▁ask
▁complete
▁six
O
▁force
▁color
▁Soviet
▁+
▁practice
▁groups
▁cooperation
▁interesting
▁though
▁added
▁looking
▁soon
▁Or
▁significant
ary
▁citizens
▁mother
▁quite
▁class
R
▁needed
▁House
▁successful
▁X
▁Poland
▁forces
▁additional
ment
▁himself
▁resources
no
▁environment
▁move
▁along
▁court
▁thousand
ty
▁Minister
▁(19
▁didn
▁Also
▁actions
▁states
▁born
▁p
▁post
▁2015
▁entire
▁build
▁physical
▁purpose
▁quickly
▁etc
▁rest
▁either
ry
▁anti
▁mind
▁completely
▁test
▁original
▁Here
▁black
▁Court
▁Committee
▁designed
▁About
▁related
▁goods
▁lead
▁York
▁Google
▁rate
▁father
▁parts
de
▁died
▁peace
▁stage
as
▁23
–
▁Party
▁property
▁co
▁stay
▁ability
▁earth
▁i
▁Free
▁software
▁choice
▁programs
▁sea
▁weight
▁success
ov
▁source
▁user
9
▁Don
▁:
▁De
▁address
▁tax
▁leading
▁Man
▁bank
▁phone
▁ways
▁parties
▁methods
▁sex
▁moment
▁»
▁February
▁features
▁answer
▁science
▁protect
ate
▁operation
▁changed
▁Article
▁remember
▁term
▁asked
less
ine
It
▁subject
▁Development
X
▁km
▁Download
▁Information
In
▁hands
▁organizations
▁takes
▁decided
▁across
▁president
▁structure
▁white
▁police
▁Hotel
▁step
▁relations
▁agreement
▁positive
▁rather
▁increased
▁skills
▁East
te
▁Federation
rs
▁exchange
year
ton
▁includes
U
▁London
▁Africa
▁average
ization
▁outside
▁happy
▁method
ting
▁standard
▁save
▁sense
▁2014
▁released
▁Other
▁respect
▁influence
▁truth
▁g
▁c
▁implementation
▁pressure
▁Christian
▁carried
▁freedom
▁wanted
▁Z
▁final
il
▁immediately
ive
▁independent
▁improve
▁standards
▁conflict
▁cities
▁run
▁Mr
▁patients
▁travel
▁consider
▁sometimes
est
▁style
▁Israel
▁Go
▁Art
▁skin
▁simply
▁written
ta
▁Sea
co
▁image
▁safe
▁requirements
▁likely
▁Her
J
▁Al
▁performance
▁serious
▁relationship
▁Therefore
▁Please
▁Japanese
▁partners
▁store
ch
▁News
▁investment
▁file
▁Japan
▁participants
▁Canada
▁fight
▁direct
▁interests
▁goal
▁nuclear
▁UK
▁Best
▁payment
▁Even
▁fire
w
▁weeks
▁creation
▁code
▁bad
▁fully
▁Central
▁wrote
▁Commission
▁leaders
▁Government
▁Only
▁worked
▁Year
▁else
▁communication
▁card
▁Where
▁safety
▁NATO
▁analysis
▁books
▁reported
▁technologies
▁cultural
▁sent
▁60
▁Lord
▁Each
▁responsible
▁institutions
▁plant
▁Co
▁India
▁eat
▁28
!"
do
▁throughout
▁Italy
▁experts
▁former
▁places
▁Great
▁therefore
▁loss
▁prices
▁device
▁Academy
▁games
▁Red
▁coming
un
▁hotel
▁happened
▁son
▁approach
▁Office
time
▁deal
▁College
▁solution
▁High
▁partner
10
▁famous
▁happen
▁gave
Z
▁included
▁status
▁stores
ant
▁trying
▁saw
_
▁White
▁Every
▁Security
▁getting
▁Museum
▁church
▁insurance
▁Because
▁Me
▁wrong
▁late
▁please
▁remain
▁26
▁pre
▁27
▁Kingdom
▁directly
▁doctor
▁degree
▁laws
▁Pro
▁processes
▁evidence
▁Live
▁s
▁ideas
▁recent
▁function
▁noted
▁employees
ized
▁follow
▁message
▁statement
▁animals
▁text
▁gives
▁town
▁UN
▁Thus
▁Trump
▁involved
▁Two
▁act
▁speed
▁forms
▁shows
▁reasons
▁OF
▁understanding
▁season
▁anyone
▁Management
▁led
▁delivery
▁allowed
▁Western
▁surface
▁summer
ling
▁lower
▁wife
▁Car
old
et
▁staff
▁transport
▁responsibility
▁attack
▁II
▁Italian
▁learning
▁front
▁While
▁check
▁whose
▁King
▁career
▁Head
▁rule
▁mobile
▁Just
▁perfect
▁faith
▁Life
▁normal
▁named
▁avoid
▁web
▁Air
▁interested
▁elements
▁presence
▁red
▁studies
▁sales
▁map
▁Research
▁brought
▁--
▁station
▁apply
▁killed
▁impact
▁Paris
▁Facebook
▁mass
▁starting
▁previous
▁request
▁Crimea
▁eyes
▁girl
▁plans
▁achieve
▁Well
▁easily
▁levels
ra
▁author
▁powerful
▁announced
ated
ko
um
▁begin
▁highest
▁West
▁Time
for
▁transfer
▁2013
▁flight
▁radio
▁wants
▁Love
▁currently
▁photo
▁write
age
▁leader
▁basic
▁sign
▁forward
▁ancient
▁kids
ak
▁useful
▁brain
▁effects
ro
▁expected
▁religious
▁contract
▁girls
▁persons
▁budget
▁customer
▁add
▁sector
one
▁wide
ie
▁devices
▁trust
▁option
▁Polish
▁procedure
▁principles
▁record
▁shipping
▁options
▁inside
▁*
▁Women
▁developing
▁accordan
▁road
▁Convention
▁ground
id
▁Windows
▁weapons
▁Paul
nd
▁competition
▁representatives
▁pain
▁presented
▁commercial
▁Next
▁huge
▁saying
▁points
▁hold
▁reform
▁nation
son
▁send
▁Will
ST
▁Have
▁digital
▁probably
land
▁regions
▁details
▁table
▁Last
▁remains
▁require
▁measures
▁Over
▁hair
▁Open
▁document
▁temperature
▁traditional
This
▁movement
▁reach
▁prevent
▁reduce
▁Science
▁theory
▁operations
0
▁daily
la
▁speak
mm
▁brand
▁machine
▁cars
▁healthy
day
▁paid
▁focus
▁29
▁tools
▁practical
▁below
▁paper
▁scientists
▁Australia
▁USA
▁ten
▁(1
▁Children
▁opened
▁hear
▁location
▁assistance
▁opportunities
);
▁supply
▁Health
▁morning
▁clients
▁lose
▁towards
▁central
me
▁Le
▁Energy
j
▁2020
▁condition
▁Such
▁mm
▁sports
▁relevant
▁Social
▁via
▁THE
▁goes
▁appropriate
▁chance
▁purchase
▁stand
▁2012
ul
da
▁whom
ies
▁behind
▁conference
▁processing
▁worth
▁forget
▁associated
▁Human
▁seems
▁fall
▁grow
▁Roman
▁System
▁signed
▁solutions
▁lack
▁reality
▁enjoy
ad
▁sold
▁educational
▁produced
▁fast
enko
▁Conference
▁civil
▁patient
▁alone
▁Education
▁enter
▁values
▁friend
▁Project
line
▁student
▁response
▁connection
▁cover
▁creating
▁instead
▁base
ur
▁hour
▁regional
▁200
▁carry
▁album
▁providing
▁platform
▁regular
by
▁Park
▁industrial
▁seven
ya
▁internal
▁section
▁collection
▁wish
term
▁bodies
▁David
▁direction
▁mission
▁La
▁costs
▁capacity
▁birth
▁sub
▁spend
ous
▁plants
▁Centre
men
▁sound
▁Get
▁Public
▁exist
▁efforts
▁growing
▁diseases
▁models
▁legislation
▁becomes
▁registration
▁Eastern
▁dead
▁object
▁demand
▁strategy
▁drink
▁individuals
▁apartment
▁campaign
▁ones
▁kitchen
▁task
▁Asia
▁concept
▁formed
▁sale
▁Another
▁cold
▁credit
▁Dr
▁hotels
▁decisions
▁Services
▁heard
ua
▁factors
▁existing
▁isn
▁planet
▁sleep
▁views
▁objects
▁Turkey
▁sources
▁met
▁drug
▁prepared
▁majority
▁Use
out
▁played
▁Foundation
▁Program
▁press
▁possibility
▁See
▁memory
▁maximum
▁highly
▁administration
▁release
▁(2
▁funds
▁fear
▁Yes
▁→
▁helps
am
▁Mar
▁advertising
▁Although
▁requires
▁marketing
ful
▁impossible
▁negative
▁Delivery
▁History
▁Their
▁variety
ma
▁d
▁caused
▁progress
▁thinking
▁continued
▁star
▁separate
▁reports
▁offered
im
▁earlier
▁generation
▁particularly
ter
▁Korea
tic
▁limited
▁Show
▁workers
▁green
▁31
▁crisis
▁difference
▁Good
▁Master
▁©
▁Code
▁turned
▁win
▁appear
▁operating
▁airport
ists
▁criminal
▁produce
▁elections
▁Holy
▁Price
▁functions
▁Greek
▁files
▁opinion
▁reading
▁aircraft
▁Army
▁Un
▁happens
▁thousands
▁Ukrainians
▁Parliament
▁border
ri
▁founded
▁Christmas
▁recently
ni
▁university
▁cells
▁bit
▁greater
▁domestic
▁sun
▁knows
▁planning
▁photos
▁1,
▁numbers
▁cut
▁flowers
▁Design
▁conducted
▁components
▁army
▁t
▁client
▁Spain
▁village
▁2010
▁joint
▁appeared
▁Economic
▁creative
▁hot
▁benefits
▁Global
▁stated
▁knew
▁character
▁latest
▁applications
go
▁described
▁exhibition
▁Policy
ance
be
os
▁serve
+
▁determine
▁Nations
▁500
▁Special
▁interior
%
▁Old
▁Peter
▁couple
▁nearly
▁master
▁floor
20
▁passed
▁moved
▁finally
▁shown
▁sites
▁although
▁talking
▁agree
ally
▁Medical
▁rooms
▁banks
▁dangerous
▁poor
▁Bar
▁baby
▁cancer
▁performed
▁desire
ca
▁winter
▁picture
▁electronic
▁exactly
▁affect
▁players
▁2011
▁principle
iv
If
▁pro
▁historical
▁Director
▁IT
▁tried
▁currency
▁drive
▁contains
▁solar
▁Read
▁expect
▁dream
▁strength
▁worldwide
▁70
▁email
li
▁England
▁purposes
▁stars
▁Data
▁trip
▁spirit
▁fish
▁review
ina
▁schools
▁independence
▁meaning
▁Spanish
▁African
▁husband
▁election
▁heat
▁Rights
▁Con
▁flights
▁director
▁behavior
▁Power
▁eight
▁symptoms
▁comfortable
ki
▁Asian
▁path
▁income
▁Make
▁train
based
▁Take
ir
▁regarding
▁Before
▁depends
▁walk
▁conduct
per
▁Men
▁letter
▁thus
▁deep
▁lived
30
▁reached
▁distance
▁networks
mo
▁spent
▁clean
▁writing
▁defense
ol
▁join
▁importance
▁applied
▁perform
ler
▁appearance
▁song
ev
ut
▁meters
▁break
▁spiritual
▁die
▁framework
▁#
▁Apple
▁languages
▁correct
▁watch
▁)
▁compared
▁street
▁context
▁images
▁nations
▁San
▁damage
18
▁units
▁families
▁El
of
▁benefit
▁extremely
▁Britain
▁looks
▁authority
▁80
▁external
▁Y
▁atmosphere
▁gold
▁Congress
▁accept
▁middle
▁Iran
▁k
▁drugs
▁Technology
▁adopted
▁Music
▁supported
▁completed
ize
▁Syria
▁90
▁constantly
▁sanctions
▁Does
▁opening
va
▁participation
▁Society
▁charge
▁bar
▁Jewish
▁steps
▁nor
di
▁teaching
▁Second
▁35
▁Forum
▁recommended
se
ru
▁note
▁wait
▁programme
▁researchers
▁electric
▁introduced
▁names
ish
▁Fund
▁Order
▁Foreign
ner
▁efficiency
▁closed
▁department
▁Q
▁threat
▁pass
▁violence
▁buildings
▁launched
▁metal
▁giving
sky
▁television
▁coffee
▁goals
▁equal
▁advice
▁Agreement
▁Games
▁clearly
▁board
▁remove
▁box
▁seem
▁Festival
▁diet
▁internet
ex
▁returned
▁Web
▁tool
▁band
▁items
sk
▁title
▁officials
▁circumstances
▁engine
▁Post
▁length
▁district
▁essential
▁connected
▁rich
▁Book
▁2008
▁expensive
▁Board
con
▁movie
▁vehicles
▁Prime
▁island
▁formation
▁served
▁causes
▁sell
▁eye
▁existence
▁myself
▁determined
▁participate
▁significantly
▁alternative
▁dark
▁gift
▁Work
▁Site
▁Main
You
▁spread
▁Catholic
▁Street
▁aid
▁format
if
▁Agency
lo
▁secret
▁marriage
▁b
▁increasing
▁strategic
▁climate
▁feature
▁academic
▁ticket
19
▁leadership
min
▁Washington
▁zone
ology
▁tasks
ley
▁corporate
▁medicine
▁unit
▁biggest
▁felt
▁alcohol
▁Like
▁successfully
▁playing
▁vehicle
é
▁door
▁IN
▁previously
▁cross
60
▁1.
▁prepare
▁maintain
▁plastic
▁owner
▁round
12
▁species
▁continues
▁critical
▁excellent
▁Those
▁dollars
ge
▁storage
▁club
▁agreed
▁guarantee
▁Trade
▁selected
▁chemical
▁beauty
▁Christians
▁channel
▁vote
▁tickets
▁Green
▁balance
▁facilities
▁fuel
▁minimum
*
▁environmental
▁recognized
▁feeling
ny
40
▁advantage
▁moving
▁Water
sh
ted
▁Organization
▁category
▁x
▁primary
▁300
▁beyond
▁Sun
Re
ER
▁blue
▁Odessa
▁colors
▁warm
ac
▁afraid
▁Under
▁thanks
▁guests
▁married
▁lines
17
▁Video
▁becoming
On
▁believed
▁v
▁Any
▁except
▁Which
▁solve
ent
▁easier
▁placed
▁Indian
▁cm
▁brother
dy
▁expert
▁Sex
50
ating
▁planned
▁screen
▁George
▁Support
ite
▁risks
▁link
▁€
▁specialists
▁Radio
▁animal
▁Father
▁Find
▁religion
▁Young
▁contain
▁innovative
▁dis
▁numerous
▁Putin
ha
▁advanced
▁artist
▁Member
▁forced
▁begins
▁exercise
▁convenient
▁helped
▁confirmed
▁female
▁running
▁launch
15
▁uses
▁hospital
▁Did
▁square
▁visitors
▁occur
▁Egypt
▁taste
▁fundamental
▁translation
▁cent
he
▁blinds
▁aspects
▁ex
▁player
▁%
▁Contact
▁fun
▁Middle
▁voice
▁firm
▁truly
▁volume
▁loved
▁selection
▁cell
▁pages
▁Jews
▁fine
▁Name
▁regime
▁Android
▁Up
▁Flower
▁Turkish
▁consequences
▁registered
▁soul
▁greatest
▁Top
▁Play
ial
▁favorite
▁Royal
▁shape
▁certainly
▁vision
rd
▁f
▁multi
▁window
▁daughter
▁Rome
▁reliable
▁Euro
▁45
▁extra
90
▁investigation
▁con
▁articles
ship
▁Administration
ga
▁Star
▁agency
▁centre
▁wedding
▁Hot
▁combination
▁Both
▁Three
▁rates
▁Space
▁figure
▁ship
▁obtain
▁bed
ster
▁discovered
▁gain
▁tree
▁learned
▁double
▁listen
▁garden
▁hundred
▁Sometimes
▁effort
▁committed
▁wall
▁sexual
▁inter
▁accepted
▁James
▁claim
ek
He
▁millions
▁enterprises
▁Saint
▁User
▁waiting
▁decide
ING
▁justice
bo
▁fighting
ska
▁milk
▁properties
▁suitable
▁Modern
-1
ah
▁distribution
80
▁professionals
▁Club
▁2009
▁corruption
▁promote
▁attacks
▁showed
▁troops
ise
▁Constitution
▁organized
▁changing
▁calls
25
▁select
AL
▁museum
▁Orthodox
For
Ukraine
▁enterprise
▁electricity
▁labor
▁transportation
▁bus
▁ourselves
▁courses
▁adults
▁tea
▁teacher
▁illegal
▁stress
▁abroad
▁soldiers
▁scale
▁Land
mail
star
▁furniture
▁View
▁signs
▁heavy
ence
▁Big
▁32
▁Media
▁display
▁experienced
▁fair
▁intelligence
▁challenges
▁democratic
▁mentioned
▁issued
Ukrainian
▁sugar
▁comfort
▁2.
▁height
▁businesses
▁Anti
▁Mary
▁al
▁multiple
▁generally
▁speech
izing
▁videos
▁wine
▁youth
pe
▁classes
▁divided
▁glass
▁Light
▁teachers
▁residents
▁Family
▁doctors
▁stories
▁Kharkiv
▁festival
▁Czech
▁Food
▁Microsoft
▁cash
▁Start
▁150
▁en
▁characteristics
▁resolution
There
&
▁tour
▁battle
▁rise
▁football
▁fields
▁establish
▁USD
▁Number
ke
▁Mark
▁consists
ping
▁Legal
ba
▁Greece
What
▁larger
11
▁Li
▁followed
▁defined
ova
▁despite
▁Among
▁crime
▁universe
▁Michael
▁fruit
▁advance
▁entered
▁[...]
16
▁armed
net
▁Thanks
▁movies
14
▁engineering
▁installation
▁track
▁procedures
▁ideal
▁intended
▁Sciences
▁Teen
▁race
▁discussed
▁discussion
▁ice
▁mainly
▁recommend
▁markets
▁acts
▁remained
▁wonderful
▁revolution
▁Sunday
▁package
▁aimed
▁Cup
70
▁managed
▁positions
▁st
▁referred
▁gets
▁fresh
▁pretty
▁dedicated
▁moral
▁Alexander
kin
▁suffering
▁traffic
▁pregnancy
▁preparation
▁park
▁Mo
▁victims
▁infrastructure
▁failed
▁approximately
▁Pre
▁visited
▁houses
▁dog
▁factor
▁Assembly
▁restaurant
▁efficient
▁Once
▁politics
Q
▁origin
▁comments
▁wind
▁attempt
▁Website
▁older
▁doubt
▁king
▁Real
▁approved
▁weather
▁River
▁seek
ical
▁universities
▁app
▁democracy
▁Buy
▁annual
-19
▁2000
▁administrative
▁assets
ets
24
▁Airport
▁evening
▁kg
den
▁driver
▁perhaps
▁leads
▁owners
▁Arab
▁happening
▁twice
▁camera
▁identify
end
▁mode
▁fat
▁holiday
▁Date
tro
▁feet
▁2007
▁obtained
▁notice
▁films
▁consumption
der
called
em
▁policies
▁investors
▁limit
▁taught
▁match
▁manage
▁recorded
▁Model
▁initial
▁kept
▁faster
off
▁secure
▁aware
▁Look
▁Despite
▁declared
▁constant
▁wood
▁Robert
▁explain
▁concerned
▁Search
ities
▁Queen
▁chosen
▁Na
▁toward
▁representative
▁server
▁Amateur
▁audience
▁Netherlands
▁spring
▁structures
▁download
▁Mother
▁Di
que
▁Long
ber
▁port
45
▁achieved
▁realize
▁evil
not
▁manufacturing
▁agencies
▁Students
▁teach
▁joined
▁Island
▁concerning
ik
▁List
▁regard
ard
▁l
▁honor
▁aim
▁permanent
▁target
▁hundreds
▁stages
▁Blue
▁humans
▁reduced
▁centuries
▁Secretary
▁hit
lin
▁enemy
▁Ireland
▁manager
▁Friday
▁destroyed
▁kill
uk
ability
▁accounts
▁Previous
ci
▁meat
▁finished
op
▁n
▁offices
▁mid
▁manufacturer
▁waste
▁communities
▁Film
▁Its
▁bright
▁Maybe
▁Latin
▁cycle
▁situations
▁combined
▁river
▁gone
▁expressed
▁intellectual
▁Personal
▁Right
▁estate
▁Help
▁Americans
▁Empire
▁fashion
▁actual
pa
▁fourth
▁wear
▁micro
▁Ne
▁reforms
▁tests
▁League
▁struggle
▁Everyone
▁instance
▁Grand
▁appears
▁innovation
▁Moreover
▁route
▁journey
▁Regional
▁discuss
▁boy
▁Oh
▁decades
▁facts
let
No
▁draft
▁imagine
▁click
▁practices
▁California
▁equipped
▁shared
▁monitoring
▁covered
▁Switzerland
▁Flowers
▁proper
▁block
▁repair
▁meetings
▁proposed
▁automatically
ok
▁minister
▁absolutely
▁Inter
▁institution
▁entry
▁000
▁core
▁steel
▁capable
▁command
▁certificate
ron
io
led
▁publication
▁export
▁1990
▁2006
▁composition
▁raised
▁LLC
vo
we
▁opposition
▁walls
▁sq
▁deliver
▁Federal
▁prison
▁nice
▁Hall
▁depending
▁Check
▁detailed
ab
▁Police
▁Mature
▁testing
▁clothes
▁button
▁flow
▁(1)
▁Should
▁actively
▁cards
▁jobs
▁maybe
▁symbol
▁agricultural
om
vi
▁relationships
▁holding
▁recognize
▁brothers
▁Word
▁journalists
▁topic
▁studio
gen
▁payments
▁trading
▁collect
▁Ha
▁shop
▁magazine
▁Am
▁Justice
▁draw
▁En
▁o
▁raise
▁Total
▁bought
▁implement
▁Monday
▁provisions
ors
▁explained
▁stock
ze
▁proud
▁residence
▁songs
▁manner
▁prior
▁Without
▁reaction
▁AND
▁implemented
▁artists
▁Forces
ator
▁foundation
▁Product
▁element
▁Ivan
tor
▁Financial
▁Yet
▁super
01
▁Act
▁assessment
▁Professional
▁Sh
▁Network
▁effectively
▁occurred
▁fell
▁background
▁Technical
▁Call
▁Ro
her
▁Canadian
▁(18
▁copy
▁mental
▁Wi
▁ahead
▁Control
▁occupied
▁destroy
▁counter
▁Part
▁matters
▁closer
▁manufacturers
▁arrived
ana
▁passengers
▁Thank
so
ti
▁Civil
▁Ko
▁literature
▁affected
▁Berlin
▁shot
▁channels
▁thank
▁starts
ho
▁Products
▁north
▁Game
▁treat
▁stone
▁failure
▁Studies
▁competitive
▁Ar
▁claims
▁eventually
▁removed
▁increases
red
▁nine
▁Belarus
99
▁Back
▁dance
way
▁identity
▁officers
quality
▁tons
75
▁Georgia
▁Australian
▁Watch
▁Mexico
▁feelings
▁100%
▁Culture
▁confidence
▁comprehensive
▁respond
▁touch
▁technological
▁license
▁Review
▁joy
▁south
▁Local
▁protected
▁Bo
▁survey
ative
sa
▁rock
▁studied
EC
▁Lo
▁Affairs
ig
▁personnel
over
▁Son
▁Add
▁Out
▁tradition
▁medium
▁measure
▁pictures
free
▁DELIVERY
▁36
▁psychological
@
▁("
▁customs
▁architecture
▁machines
▁Road
")
▁di
▁rating
95
▁mostly
▁saved
IC
▁Sweden
▁dry
ons
▁regularly
▁Scientific
35
▁thoughts
▁links
▁menu
▁chief
▁ordinary
▁tomorrow
▁33
▁advantages
▁stopped
▁interview
▁visa
▁profile
▁smaller
▁observed
▁Peace
▁widely
▁bill
▁identified
▁introduction
▁fill
▁=
▁Has
▁orders
▁territories
▁paragraph
▁Dutch
istic
▁kinds
▁plane
pi
▁Protection
▁3.
23
32
▁session
ide
room
▁recommendations
▁IP
▁installed
▁Come
ries
ious
▁Su
▁looked
ring
▁Lu
▁Press
ach
▁Military
▁Ma
▁Ex
▁therapy
▁description
▁characters
ble
▁sphere
▁Mi
▁Revolution
▁receiving
▁Ask
ky
▁Da
▁categories
▁degrees
▁sides
▁Award
▁Type
▁Za
IT
▁valuable
▁Sa
▁Ho
▁prayer
▁Try
▁candidates
▁attitude
▁severe
$
car
▁otherwise
▁centers
▁authors
▁harm
▁library
▁teeth
zh
▁Ben
▁danger
▁agreements
▁leaving
▁2018,
▁engaged
▁2017,
▁wasn
▁provision
▁maintenance
▁tourists
▁Austria
▁messages
▁victory
▁mountain
28
▁Korean
▁officially
▁reviews
▁PC
▁Dis
▁Set
▁initiative
▁(4
▁extent
49
38
29
▁overall
po
▁FLOWER
▁stable
▁cookies
▁eating
▁happiness
▁classic
▁reference
▁solid
can
▁ended
▁Super
To
▁Him
▁sport
▁quick
▁Donetsk
▁amazing
▁transactions
▁la
▁worse
▁websites
▁Engineering
kov
▁unknown
▁employment
▁Summer
▁·
▁trees
▁2004
▁replace
▁represent
▁Select
26
▁error
▁welcome
▁ONLINE
13
known
▁Instead
▁resource
pro
▁conclusion
▁teams
▁Brazil
▁controlled
▁Photo
▁Travel
▁Mac
):
і
▁eastern
mer
▁h
fi
▁install
09
all
▁partnership
▁helping
▁400
▁Ka
▁Ad
▁Per
▁trends
▁collected
▁suffer
▁piece
au
▁specified
65
▁FLORI
▁combat
▁motor
▁$1
▁recognition
▁Night
ised
▁Team
ot
▁replaced
▁loan
▁lies
ow
▁Remember
▁Cross
▁iron
▁register
▁aggression
our
▁flower
▁signal
ium
▁satellite
▁transition
▁phase
▁virtual
39
▁Se
▁Market
▁?
▁speaking
Fi
▁Category
▁Machine
ey
▁2005
▁01
ray
ES
▁arms
▁carefully
▁revealed
▁absence
34
ck
▁objective
▁establishment
▁theme
▁Girl
▁heating
▁enable
▁occurs
86
▁concern
▁parliament
▁dress
▁Community
▁Chamber
▁Due
▁presentation
▁dialogue
ification
▁Defense
Do
▁Gold
▁award
▁techniques
tra
▁driving
▁destruction
▁slow
▁leaves
▁(3
ger
▁Jerusalem
▁fit
▁aren
mar
▁anniversary
ja
▁sort
ang
▁buying
▁Prize
▁component
▁awarded
▁Spirit
▁Obama
za
▁Training
▁debt
▁male
▁banking
les
ino
▁pleasure
▁delivered
ap
bar
▁recovery
▁spoke
▁soil
▁doors
21
▁violation
ag
And
▁Prince
▁operate
▁stations
▁definitely
▁Exhibition
▁specialized
My
03
fer
▁express
▁studying
▁painting
▁fly
22
▁parent
▁1998
▁forever
▁coast
ning
▁resistance
▁carbon
▁ships
▁Swiss
▁setting
▁lawyer
du
▁contest
▁Third
▁rare
▁Phone
▁seriously
:00
▁Change
▁cheap
▁valid
▁conversation
▁represented
▁properly
▁finding
▁connect
85
▁exists
▁Finance
ten
eg
▁Supreme
▁Flights
▁refused
▁Choose
▁figures
▁Plan
▁college
▁treated
04
oc
▁Mars
▁estimated
ological
▁clothing
▁Working
▁consent
▁tourism
▁worry
ure
qui
▁Arts
▁depend
▁judge
▁Duration
US
▁Language
27
▁Iraq
▁Anal
▁peaceful
▁database
▁Digital
▁challenge
▁cream
▁factory
▁improvement
▁Small
▁updated
▁48
▁Line
▁Charles
▁focused
▁mechanism
▁contribute
▁Views
▁regulations
▁guy
▁era
▁Witnesses
▁prove
▁Was
SA
▁expand
▁offering
▁foot
▁parameters
▁Building
▁Week
▁false
▁emotional
▁understood
▁accident
▁promotion
▁37
▁colleagues
▁iPhone
▁accounting
like
▁salt
▁records
▁privacy
▁Mobile
▁Donbas
▁increasingly
▁1980
chenko
house
▁Lake
yl
▁letters
art
▁prefer
▁emergency
▁Sports
▁Unfortunately
board
▁relatively
including
33
▁pick
side
▁Keep
▁promise
isation
▁entirely
▁fixed
▁filled
▁passenger
▁fans
▁Besides
▁neither
▁transferred
▁enforcement
▁friendly
▁apartments
▁hurt
▁smart
▁Bi
▁pieces
-2
▁Systems
▁citizen
▁sit
▁host
▁urban
▁permission
▁examination
▁answers
▁sufficient
my
▁survive
tion
▁everywhere
▁Software
▁consideration
48
▁Could
▁unusual
▁filter
▁instructions
▁forest
▁Color
▁Force
They
36
▁Wood
▁III
▁camp
▁writer
▁Vladimir
▁Saturday
▁presidential
64
▁worship
▁trend
▁Using
▁strengthen
▁Page
▁Key
▁priority
▁38
▁appeal
▁appointed
▁bottom
▁newspaper
▁brings
▁acid
▁Learn
▁primarily
06
▁plays
▁housing
▁adult
▁experiences
▁LED
▁murder
but
▁follows
▁quarter
chi
▁native
▁Would
▁Note
▁soft
▁taxes
▁communicate
use
tin
▁End
▁temporary
▁candidate
▁emotions
00
▁Everything
▁remote
▁sky
▁differences
▁Doctor
▁Ra
▁cat
▁powers
▁temple
▁Cor
▁southern
▁cleaning
▁compliance
▁east
mi
▁obvious
▁beach
▁Auto
▁moon
▁count
▁traditions
▁massive
▁abuse
▁Twitter
▁battery
▁Natural
▁4.
lic
▁lawyers
▁streets
▁worst
▁selling
▁Times
▁panel
▁1970
▁rid
▁arrested
▁42
ud
▁unless
▁introduce
▁interface
▁profit
▁Vi
▁crimes
ee
▁usual
▁expression
▁pregnant
▁negotiations
av
▁domain
▁ban
▁chain
▁Tags
▁District
▁talks
▁remaining
▁detail
55
▁Four
▁Tu
▁whatever
▁shopping
▁Wall
▁agent
▁defend
▁alive
▁notes
▁tourist
▁Official
▁2014,
▁Volodymyr
▁Battle
▁rapid
When
dis
▁Crimean
▁shoes
ED
▁2,
ding
▁dreams
▁statistics
bit
▁Jan
▁reputation
▁territorial
▁Youth
▁sick
▁contrast
▁politicians
▁mark
▁mom
▁calendar
▁r
▁perspective
ez
▁snow
▁submitted
▁invited
▁substances
▁willing
▁trial
▁opposite
▁Having
▁oldest
41
ong
05
ible
▁communications
▁tells
▁TO
As
08
▁elected
▁association
▁William
▁comment
▁depression
▁federal
▁closely
sen
yn
▁reduction
▁guide
▁sweet
IN
▁Ni
▁settings
▁Northern
▁functional
▁2015,
▁fee
lan
▁pattern
▁visible
▁Gallery
▁Swedish
hi
▁mention
96
02
▁Future
▁homes
▁finance
▁Very
OR
▁obligations
▁concert
▁fabric
mp
▁missing
▁Pi
▁Perhaps
▁Industrial
▁load
tech
44
▁couldn
▁laboratory
▁lie
▁threats
▁consumers
▁experiment
ier
▁34
bi
▁Region
▁comparison
▁infection
▁familiar
▁restore
SE
▁Partners
46
▁crew
od
back
▁trouble
▁75
▁browser
ub
▁Tuesday
▁deposit
67
▁Manager
yan
▁schedule
▁executive
▁HD
▁concerns
▁concrete
▁Hungary
69
▁radiation
▁supporting
How
▁kingdom
▁Standard
▁Production
▁gifts
▁monitor
▁improving
▁grew
▁Democratic
▁Kazakhstan
▁Ministers
ver
tu
▁investments
▁Videos
▁bear
66
▁auto
▁sounds
▁calling
▁sister
ery
▁Martin
▁hidden
▁250
▁restrictions
▁gun
▁commitment
scale
▁Full
▁grown
▁rental
▁55
▁05
▁Mom
▁minute
▁integration
▁stability
from
▁Sam
07
▁specifically
▁occupation
▁heaven
▁humanity
▁Islands
▁courts
▁frame
▁contemporary
▁Professor
ably
▁bio
▁Ta
▁Fire
▁Deputy
with
▁fund
▁virus
▁USSR
▁seconds
▁clinical
▁output
▁unity
▁suggest
▁2016,
▁carrying
▁expansion
▁surprise
▁cool
▁integrated
AS
▁anywhere
▁technique
▁Beach
fe
▁concentration
▁Age
▁Industry
▁chocolate
▁1000
▁120
▁holy
▁everyday
▁northern
▁unable
▁instruments
▁supports
▁integrity
▁Palace
▁Later
▁ordered
▁vital
▁capabilities
▁miles
▁Table
▁Olympic
▁liquid
▁attempts
▁65
▁EUR
▁Us
▁ethnic
▁regardless
▁w
▁Economics
`
▁drop
▁stressed
▁statements
▁attractive
▁musical
▁Norway
▁hide
▁granted
▁exclusive
▁Size
▁ball
▁extreme
▁Islamic
RE
▁exact
▁achievements
cha
▁frequently
▁hate
▁scheme
▁purchased
▁interaction
▁vast
▁foods
▁improved
▁examples
▁Ltd
▁feed
▁allowing
▁senior
▁wonder
▁proved
▁novel
▁managers
▁mankind
De
▁Station
▁mountains
37
▁coal
▁Rada
▁inform
▁universal
42
▁suffered
gi
▁gained
▁Mu
▁Cabinet
▁44
▁Ver
▁invest
see
▁(2)
▁sets
port
▁Bill
▁asking
▁FOR
79
▁drinking
▁Te
▁preparing
▁careful
▁Syrian
▁Ku
class
AR
▁accurate
:30
▁Po
▁Golden
▁Programme
▁roof
98
▁sustainable
▁turns
▁encourage
▁stored
▁entity
▁losing
▁update
▁seeing
▁rent
▁Port
▁rapidly
▁describe
▁relation
▁vertical
▁western
▁rain
▁39
▁Amazon
▁Poroshenko
▁Area
▁wild
▁consumer
▁mouth
▁formal
▁Tax
▁%1
ash
▁gradually
▁Winter
▁Spring
▁twenty
88
▁diplomatic
▁Meeting
▁Privacy
▁Action
▁Du
ph
▁Author
▁Tom
▁Computer
▁2003
▁Room
▁Russians
▁transmission
▁borders
▁scene
▁discover
▁Within
▁represents
▁permit
▁believes
▁claimed
▁Thomas
▁automatic
▁earn
56
▁indeed
▁Welcome
▁overcome
▁favor
47
▁lighting
▁spending
▁Freedom
▁choosing
▁directed
▁funding
▁Private
▁stands
▁passport
Our
▁mistakes
▁weak
▁submit
▁Corporation
▁creates
▁engines
▁membership
▁personally
▁strange
▁upper
▁meant
MA
▁versions
▁resort
▁officer
▁contracts
▁missile
▁seeking
▁Card
▁item
fa
▁discount
▁hearing
▁regulation
▁visiting
▁arrival
TA
▁mutual
▁Report
▁marked
All
▁Library
▁listed
▁compare
▁Credit
▁Los
▁organic
▁limits
▁gender
▁biological
▁empty
ran
▁cutting
▁till
▁broken
▁Israeli
▁password
▁print
▁promised
ns
▁reasonable
▁guess
▁computers
▁telephone
▁Want
▁walking
▁surgery
▁flat
▁employee
▁windows
▁Political
▁extensive
work
▁guys
▁entitled
ven
▁Copyright
▁Armed
97
▁settlement
ip
ham
▁handle
wi
▁railway
which
▁decade
ions
▁wealth
ped
▁dogs
▁Journal
▁subjects
▁none
▁collaboration
▁Afghanistan
▁slightly
▁indicate
ware
▁cheaper
-4
▁branch
▁desired
▁committee
▁effectiveness
▁pool
▁Equipment
▁Non
▁Money
ura
▁assist
▁Solar
ius
▁root
68
▁bridge
▁pray
▁Wednesday
▁shares
▁Finally
▁Brand
▁birds
▁owned
▁division
▁reserved
89
▁realized
ward
▁applicant
74
▁logo
▁evolution
▁childhood
▁visual
▁str
▁raw
▁execution
▁specialist
▁ocean
▁CO
▁aims
▁brands
▁Lithuania
▁linked
▁functioning
light
ct
▁allies
▁Alliance
://
▁concluded
▁contribution
100
-3
▁2002
▁duty
▁horse
king
▁losses
▁covers
Me
▁corresponding
▁complicated
▁Pacific
und
▁Marketing
▁Test
▁Medicine
▁Fashion
▁stronger
si
▁Ca
▁sin
chuk
field
▁Parties
▁Navy
▁operator
▁Blonde
▁latter
▁journal
cy
ep
▁Ya
▁keeping
▁serving
van
▁blog
87
▁Country
▁definition
▁Kremlin
▁eliminate
▁Richard
▁Barcelona
▁winner
▁Section
72
▁Warsaw
▁App
▁Chief
▁massage
▁Scientists
▁Care
▁Romania
▁tend
▁ensuring
▁yellow
▁Pope
▁Pay
▁Oil
▁stick
▁Bulgaria
▁Joseph
▁Kong
CA
▁perfectly
▁instrument
▁Hong
air
▁07
▁cast
▁cloud
▁entities
org
▁broad
▁informed
▁attended
ants
▁finish
▁haven
84
▁fellow
▁Save
iz
▁bread
gar
▁organize
▁acting
▁organs
▁Give
che
▁birthday
76
▁organisations
▁Access
▁dishes
▁collective
Co
▁Safety
▁Moon
▁restaurants
▁amounts
▁appreciate
▁Through
▁Quality
▁Plus
▁Tickets
▁relatives
▁Casino
▁CEO
OS
▁Capital
▁beer
▁churches
▁directions
▁poverty
▁violations
▁predict
▁incident
▁younger
▁bag
▁Especially
▁defence
▁2001
ich
ski
▁parking
▁Hi
▁Ten
▁editor
▁duration
▁holds
▁1960
▁Azerbaijan
▁absolute
.[1]
kh
▁Anna
▁laid
▁50%
nt
▁applicable
▁mini
▁Construction
57
▁immediate
▁personality
cent
▁Roses
▁grain
▁escape
don
▁Thursday
▁frequency
▁10%
service
▁invite
▁Zealand
▁enemies
▁Shevchenko
▁Death
▁mood
а
▁hits
▁contacts
▁Southern
▁standing
ou
q
▁expenses
▁Adam
▁succeed
▁index
▁Oleksandr
е
▁Heart
▁judges
▁Sport
▁explore
▁killing
▁phenomenon
▁boys
▁ministry
▁Create
и
▁paying
▁Belgium
▁wouldn
94
▁Gi
▁import
▁showing
▁watching
▁Faculty
ec
▁attend
mon
▁extended
▁islands
▁mechanisms
93
▁transformation
more
▁acquire
▁600
▁Ri
31
▁forum
▁uah
▁equivalent
▁lay
bb
▁union
▁belief
▁09
77
▁totally
°
▁calm
▁Never
▁stuff
▁producer
▁miss
▁agents
▁Far
▁pure
á
▁prize
LE
ins
▁inner
▁mine
vy
▁Hospital
▁herself
▁04
▁confirm
▁copies
▁acquired
▁Child
▁saving
ade
▁electrical
▁transaction
▁wake
NA
▁08
▁(6
▁06
▁dust
▁greatly
law
▁Hungarian
▁inspired
▁behalf
▁proceedings
▁philosophy
▁indicated
▁Series
ID
▁farm
ris
▁dose
▁Baby
But
▁Minsk
▁originally
▁mechanical
▁Cha
▁vegetables
▁demands
▁qualified
▁participated
▁wave
▁wisdom
▁humanitarian
62
▁(5
▁Need
Russian
ps
78
▁Terms
IA
▁popularity
▁net
▁decrease
▁plus
▁approval
▁Maria
▁shooting
▁Think
ens
▁contained
▁engage
▁Tell
▁holidays
▁resulting
%)
IS
▁straight
▁Ja
▁chapter
63
43
▁optimal
ug
▁Five
▁Mon
▁prisoners
▁smile
▁injured
▁tank
▁theoretical
▁difficulties
▁Pe
▁2019,
▁entrance
▁strike
▁layer
▁Hard
▁Bio
▁43
nic
▁designer
▁historic
▁audio
▁Way
▁hall
zo
rate
gan
▁completion
▁Petersburg
▁affects
▁secondary
ile
▁Bur
volving
83
▁applies
▁terrorist
▁referendum
mb
▁Max
IP
▁packaging
▁everybody
▁artificial
sha
▁roads
▁accommodation
▁terrible
▁Square
▁possibilities
TS
osis
▁exception
ung
▁adding
▁Still
uch
▁sp
▁Daniel
MP
▁proof
book
▁Muslim
▁suggested
ks
▁surprised
▁sharing
▁pleasant
▁sending
▁lifestyle
▁Mor
-10
▁Executive
▁bringing
▁NASA
▁terrorism
▁Articles
▁graduates
▁mistake
▁exciting
▁silver
well
54
▁Place
▁actor
▁involves
▁accompanied
▁Exchange
▁contrary
▁Tri
▁inhabitants
▁Know
▁colour
ft
▁cargo
▁outcome
59
▁correctly
▁diverse
▁Double
▁strongly
▁ends
▁drivers
▁Football
ji
▁Har
▁celebrate
part
▁Ge
▁comply
▁Pa
▁attract
▁03
▁differ
making
▁Irish
▁Brussels
▁5.
ever
53
▁Town
▁traveling
▁clock
▁Self
EN
▁caught
▁duties
▁prime
▁Little
▁YouTube
▁prohibited
▁refugees
▁Division
IL
uff
▁Gas
▁Visit
▁rose
▁defeat
®
▁Short
itis
▁WEB
▁dynamic
92
▁aspect
level
▁illness
▁Par
▁Ocean
▁documentation
ai
▁SE
So
berg
RO
▁MA
▁fifth
▁expertise
AC
▁governments
58
▁Inc
▁approaches
▁yes
▁tested
▁46
▁Express
▁Transport
▁considering
▁powder
▁Communist
▁diagnosis
▁broadcast
▁blind
era
▁Ba
▁Map
▁accessible
▁seemed
lia
▁percentage
▁observe
▁fruits
▁commission
▁reserves
▁entertainment
▁resolve
▁patterns
ika
▁suggests
▁mix
▁breakfast
▁parliamentary
▁sand
tal
▁Multi
▁sum
cr
▁eggs
▁publications
▁coverage
▁shops
▁exercises
▁Step
61
right
▁grant
▁affairs
▁liability
▁occasion
▁Sale
ala
с
▁Guide
▁conflicts
iya
▁producers
▁tournament
▁Customer
▁Large
▁Yeah
▁Being
▁800
▁organisation
▁Theatre
▁audit
▁Gar
pl
▁possibly
▁preserve
▁programming
▁radical
▁Things
▁convinced
▁noise
▁warning
▁compensation
▁Mission
▁Ke
▁Treaty
▁professor
▁topics
▁combine
PA
TM
ken
▁united
ea
▁theater
▁glad
▁heads
▁developers
▁Currently
▁typical
▁demonstrate
▁Version
▁Body
lu
ini
▁locations
▁necessarily
▁fix
▁Nature
▁celebrated
▁edition
han
▁tips
vin
dom
▁journalist
▁strategies
▁protest
▁Petro
▁flag
▁°
▁weapon
eva
▁smoke
▁Following
▁formula
▁paint
Be
▁Austrian
▁belong
▁portal
▁proposal
▁4,
▁profession
▁indicators
▁DNA
▁faithful
▁Plant
▁Bitcoin
▁Channel
▁Pan
х
▁parallel
gu
▁Cat
▁transit
val
▁Singapore
lar
▁loans
▁cable
▁reducing
▁Together
har
▁financing
▁lessons
▁debate
▁Chi
▁bacteria
▁Investment
▁sc
-12
▁49
▁honest
6%
▁reflect
▁cheese
▁Smart
▁drawing
▁zero
▁seats
▁spot
ii
ice
▁departure
▁judicial
▁folder
▁aged
BA
▁tube
▁Strategy
▁largely
▁residential
▁Sever
▁VPN
▁Rock
▁beneficial
▁industries
▁Jo
▁adoption
sp
▁41
▁enhance
▁1997
▁configuration
▁dinner
▁labour
oma
▁Bay
▁ratio
▁1:
▁02
▁Verkhovna
▁decline
▁castle
▁Atlantic
▁faced
▁1.5
▁Economy
▁normally
▁objectives
Pro
▁knowing
▁producing
▁$2
▁chronic
box
▁1996
▁suicide
▁banned
▁www
ric
▁competent
▁chat
▁Che
▁sovereignty
ney
wa
▁obtaining
▁prevention
bra
ay
ada
▁household
▁С
▁dealing
▁incredible
▁constitutional
▁landscape
▁hole
▁pleased
ff
▁namely
▁Dec
▁Ivano
▁harmful
▁Sub
▁GDP
▁Saudi
▁facilitate
▁programmes
▁evaluation
▁Andrew
▁genetic
▁discovery
▁Cultural
▁1995
▁dispute
▁manufacture
zi
▁Lady
top
▁physics
▁removal
RA
▁ownership
▁mixed
▁module
▁cup
▁bathroom
▁votes
▁Low
ari
▁vi
▁lands
▁Electric
▁Scotland
LA
ose
▁ISO
▁legislative
▁citizenship
▁refer
▁20%
rk
▁quiet
▁kilometers
▁Criminal
▁Vice
▁minor
▁winning
▁confident
▁remind
list
ju
▁ceremony
▁slowly
▁Address
500
▁functionality
▁accused
▁Jean
ob
state
ix
▁Sha
▁classical
82
act
pre
▁fees
▁devoted
▁Sign
▁concepts
related
▁relative
ned
▁simultaneously
▁assess
▁Studio
▁Tour
▁Ly
-5
▁sciences
▁containing
made
ified
▁smell
▁ha
▁belongs
▁coach
pt
▁damaged
play
▁Train
▁Ch
▁Independence
▁platforms
▁Enter
▁IS
▁nobody
▁tough
▁(8
CH
▁Str
▁depth
▁Denmark
▁legs
ians
▁Store
▁Bal
▁Van
ON
▁Nothing
▁AI
RI
▁restoration
▁ran
▁arrest
AP
CE
▁entering
ü
▁supplies
▁Weight
▁Hitler
▁firms
▁Baltic
▁suddenly
vis
▁ring
▁smartphone
▁awards
▁typically
▁drinks
▁Often
▁sight
73
▁delay
▁Garden
▁crucial
▁Description
▁Donald
▁scheduled
▁respectively
▁Application
aries
▁Mount
▁romantic
▁branches
gg
▁phones
▁gathered
▁Finland
▁(15
ory
ME
▁analyze
rov
▁Chairman
▁artistic
▁Awards
▁anymore
▁lift
▁exclusively
▁chair
▁recording
▁Cooperation
▁usage
▁Moldova
ane
▁consciousness
▁hearts
▁Hair
▁ingredients
▁continuing
▁nervous
▁singer
ng
▁feels
▁sensitive
▁deaths
ient
▁Wedding
▁begun
hr
▁destination
ovich
▁appointment
▁bi
▁west
▁1999
ush
▁broke
▁guarantees
▁plot
▁vacation
zy
▁adopt
▁fail
▁sectors
200
▁judgment
▁Partner
▁Ford
▁Between
▁Johnson
у
▁Opera
▁Cold
▁File
▁CD
▁principal
▁wise
▁promises
▁Satan
▁smooth
▁Yu
▁OS
mit
▁faculty
▁copyright
▁PRO
▁Rules
▁operational
▁capture
▁vessels
▁proven
▁dates
▁volunteers
▁euros
▁Usually
▁sitting
▁outstanding
▁Dead
wing
▁seat
▁Va
ku
▁shower
▁renewable
▁civilization
AM
▁regulatory
91
▁repeat
iy
▁catch
▁Ki
▁ill
▁certification
tri
▁eternal
▁wooden
▁requests
▁ID
▁Years
OL
▁fought
SC
71
▁info
jo
▁designers
▁Pink
▁readers
mat
cher
▁Stop
▁Factory
▁pop
▁split
▁Furthermore
▁bigger
▁scope
▁mail
▁sections
▁Directive
▁52
▁nearby
▁talked
ita
▁premises
▁Ti
▁characterized
▁distributed
▁supposed
▁activists
new
▁SA
▁Embassy
ama
▁smoking
▁motion
ani
▁lots
▁IV
▁cooperate
▁apart
▁explains
▁subsequent
▁magic
▁edge
▁1950
▁legitimate
▁witness
▁Dress
▁rely
▁Thailand
▁sad
▁gr
▁sharp
cing
MS
▁satisfied
▁Bureau
MO
▁withdrawal
▁expectations
▁fleet
▁Sky
Ro
▁exceed
su
▁Motor
▁Metal
▁ongoing
▁quantity
▁Partnership
▁excessive
▁Cost
▁Early
▁spoken
▁fan
▁passing
▁afford
▁catalog
▁prospects
▁injury
▁Collection
▁generate
lon
▁Henry
▁interpretation
▁collapse
▁Trans
are
▁Pakistan
▁sorry
▁putting
▁roller
▁Angeles
▁boat
ators
▁printing
▁rarely
▁reserve
▁47
▁chose
▁Ve
▁motivation
▁grateful
▁Championship
▁declaration
▁vitamin
▁merely
▁arrive
ular
800
▁HIV
▁180
▁friendship
▁pilot
▁extend
▁Jack
▁productive
ments
▁cinema
-20
▁Dnipro
▁serves
▁guaranteed
▁replacement
▁Higher
▁define
▁aggressive
▁Bra
▁shift
▁Hotels
[
▁Chicago
▁yesterday
▁rational
▁Dan
▁generations
head
gin
nik
▁Almost
ker
An
600
▁Angel
EL
▁Bre
▁Stone
▁Iranian
▁Insurance
▁Portugal
SP
▁awareness
▁runs
some
▁booking
▁movements
▁errors
▁pollution
▁clinic
▁Ball
▁orbit
▁refers
war
▁accessories
ATION
▁Click
▁initially
▁wishes
PO
▁arm
▁strict
▁independently
hu
▁criteria
▁script
▁Frank
▁bound
ations
▁weekend
ria
▁strengthening
ville
Ma
▁mg
▁mo
▁translated
▁True
▁deeply
ola
▁Living
▁hero
▁Fair
ging
▁demonstrated
▁founder
▁Corporate
▁sought
▁Enterprise
gy
▁winners
▁du
▁AD
▁cultures
2)
▁availability
▁immune
▁Resolution
▁Registration
▁reporting
▁victim
▁commonly
▁qualities
▁fault
▁precisely
▁maintaining
par
▁portfolio
▁1992
▁protective
▁charged
▁mineral
▁refuse
uring
▁th
▁Mal
▁Taras
py
Bo
▁Student
▁Results
▁abilities
▁bath
AD
▁SP
▁lake
▁relax
▁uniform
▁conducting
ect
▁Kids
▁constructed
▁retail
ox
▁Plastic
▁substance
fo
▁(7
down
pp
▁tissue
Al
▁Si
lov
▁Dubai
▁literally
uc
▁adapt
▁trained
▁corner
▁Competition
▁Samsung
PE
▁hybrid
ition
▁indicates
▁monthly
▁competitors
▁behaviour
▁psychology
▁assembly
▁(10
▁circle
51
▁operates
▁Until
▁ca
▁loves
▁Members
▁existed
-18
▁meal
▁1993
▁Paper
▁intense
▁2)
▁tired
▁displayed
▁lock
▁disaster
▁Latvia
81
wood
TO
▁default
▁pursue
▁Class
▁2013,
▁repeated
▁Fast
▁1994
▁pair
cl
▁pan
"?
▁proposals
▁7.
▁2:
▁MP
▁engineers
▁constitution
▁assume
▁dollar
▁cuisine
▁glory
▁Mini
born
▁mis
▁healthcare
▁Mc
▁2011,
ica
▁congregation
▁drawn
▁tattoo
▁blocks
▁extraordinary
▁Whether
▁Much
▁Estonia
▁giant
app
▁trans
▁experiments
qu
▁Based
▁IMF
▁1)
VI
▁fulfill
▁mirror
▁icon
▁creativity
▁significance
▁Weather
▁forth
▁helpful
▁Off
▁onto
▁bomb
▁Study
▁label
bank
▁voted
▁extension
▁engineer
▁admit
▁teen
▁outdoor
▁enables
▁planets
▁province
▁posted
▁carrier
▁characteristic
▁›
sis
▁Joint
3%
point
▁heritage
▁establishing
▁1,000
▁asset
▁adequate
▁extract
▁2015.
▁DO
▁exports
ture
▁pe
▁Micro
▁Others
▁flying
▁fairly
▁(17
▁operators
▁Dream
▁Jordan
▁Commercial
▁guidance
▁voting
▁Happy
▁surrounding
▁filling
ros
▁facility
▁identification
▁reliability
▁min
row
▁ads
▁manual
▁Sir
cho
▁ruling
▁Portuguese
▁solving
▁continuous
▁beat
AT
fully
▁Command
▁swimming
sia
▁Min
▁64
▁Environmental
▁Serbia
▁discipline
▁Always
▁Babe
▁cooking
▁turning
▁log
▁Ru
▁causing
▁Soon
▁Story
▁Box
▁servers
▁answered
▁semi
▁covering
▁boost
▁Santa
▁describes
▁dating
▁juice
▁specify
▁somewhere
:10
life
▁magnetic
▁Girls
▁essence
▁propaganda
▁falls
▁amateur
▁fate
TH
▁actors
▁Indeed
▁Trust
▁mature
▁produces
▁oxygen
▁Unlike
▁civilian
▁sons
▁Hu
form
she
▁Relations
▁Universe
▁cry
▁seeds
▁examine
ath
hy
▁Internal
▁Intel
▁Bag
▁treaty
▁revenue
▁jurisdiction
cal
▁Lee
▁disorders
▁Dark
▁Win
▁Sales
▁row
▁argument
▁guest
▁performing
▁brief
▁Snow
▁Tower
▁VI
▁Visa
▁wars
▁providers
▁sh
▁Declaration
▁punishment
▁routes
▁Rus
▁affordable
▁norms
▁Kar
▁listening
▁returning
▁PM
▁grade
▁competence
▁Vietnam
▁segment
▁loving
ates
▁switch
ites
▁AC
▁falling
▁2014.
▁Boy
▁Christianity
▁noticed
▁Tim
▁Tube
▁Treatment
▁certified
▁Castle
▁Stock
set
▁unto
▁Ab
▁faces
▁receipt
▁harmony
▁moments
▁requested
▁airline
nov
▁repeatedly
med
▁2012,
▁flash
▁regret
▁talent
▁Job
▁discrimination
▁guard
▁farmers
ren
▁graduate
▁implementing
tel
▁liked
▁amendments
▁Innovation
LI
▁input
▁RE
des
▁Francis
▁invitation
▁Content
▁stream
▁AS
▁3-
▁Fe
▁Nevertheless
▁Texas
TV
▁Join
▁disputes
▁lesson
Why
▁Companies
▁agriculture
▁widespread
▁busy
▁portion
▁applying
▁Islam
▁Protocol
▁Location
▁Regulation
ming
▁panels
▁expanded
▁manufactured
▁Smith
tz
▁Sp
..."
▁protecting
▁ride
▁tender
▁Direct
-8
Con
▁assigned
▁headquarters
▁alliance
▁Cap
▁reactions
▁sins
▁Send
▁differently
▁premium
▁telling
▁Val
▁processed
▁pharmaceutical
▁dimensions
▁Woman
▁Wife
▁Viktor
▁Marine
▁y
▁(9
▁enormous
▁diversity
▁narrow
az
▁salary
▁strive
▁Again
▁continent
▁Talk
▁bottle
▁lowest
52
ovsky
▁suppliers
▁conventional
▁700
▁51
▁exposure
▁Six
▁imp
▁sample
▁newly
▁Gen
▁complexity
▁TM
▁(16
▁mixture
▁Nobel
400
▁requirement
▁react
▁delegation
▁plate
▁compete
▁Strategic
▁Bridge
▁provider
▁facing
▁protein
ising
▁flu
▁Return
▁Coffee
sion
▁achievement
cat
▁TNT
▁captured
▁Further
▁promoting
▁(3)
▁rescue
PC
▁Experience
▁anal
▁Front
▁Beauty
▁Mat
▁ease
▁choices
del
▁royal
▁suit
▁god
▁Events
nia
▁medicines
▁Hand
▁Argentina
▁autumn
▁Valley
▁admitted
▁Beautiful
▁connections
▁roles
▁arrangement
hour
▁custom
AN
rin
▁dignity
▁theories
▁Sal
▁72
▁roots
▁53
sch
▁Consider
▁temperatures
▁toys
▁Odesa
▁plenty
▁permitted
▁associations
▁periods
met
▁Guard
▁8,
▁respondents
▁shoot
bin
▁cope
▁sing
▁Face
▁resulted
▁Mass
▁minimal
▁Forest
▁Fa
▁Ambassador
len
300
▁survived
▁arise
long
▁courage
▁precious
skaya
ill
▁considerable
UA
that
▁2009,
▁Constitutional
▁structural
mor
▁wash
▁po
Laughter
▁signing
▁Steel
▁Close
▁clubs
▁Earlier
ms
▁85
nes
▁Sch
▁Gu
▁imposed
▁Vol
▁vary
▁Brown
2%
▁reveal
Le
oo
▁liver
▁delete
▁roll
▁grand
▁departments
hn
▁score
▁tanks
▁navigation
▁Tourism
▁UA
▁viewed
▁attached
▁grounds
▁crash
▁Account
▁Vienna
▁Rose
▁feedback
▁intelligent
▁cu
▁disk
▁thin
cur
▁presents
▁tragedy
▁architectural
▁Platform
▁honey
▁Transfer
▁Down
▁NOT
Pa
▁develops
New
▁bird
▁2-
Frankivsk
▁Dar
▁empire
▁lunch
▁br
▁Shop
▁involvement
▁dear
bu
▁printed
▁athletes
▁Books
That
▁survival
▁actress
▁Learning
▁announcement
▁council
▁BC
bed
▁transform
▁accuracy
▁NA
▁Norwegian
▁Share
▁Basic
▁00
▁push
▁Though
▁celebration
▁patent
▁Nuclear
ister
▁waves
▁Getting
▁distinguish
▁dependent
▁explanation
name
▁thick
▁6.
sta
▁stood
▁Single
▁transparent
▁landing
site
▁participant
▁disappear
DA
▁desert
▁literary
▁hardware
PS
non
ara
▁pull
card
▁theatre
oz
▁warned
.[
▁blow
▁scientist
▁particles
TER
▁Egyptian
▁buried
▁innovations
▁fishing
▁sentence
▁hosting
▁grave
▁se
▁operated
▁impression
▁Developer
▁intention
▁Analysis
EA
ENT
▁equality
▁sizes
▁foreigners
▁diabetes
▁Prosecutor
▁productivity
▁folk
ick
▁habits
▁Muslims
▁Posted
▁emphasis
▁Venice
bus
▁organ
▁Listen
▁threatened
▁discussions
▁2010,
▁missiles
▁doctrine
▁prominent
▁wheel
▁Sta
▁opposed
").
▁54
▁ho
▁pet
ym
▁na
▁entrepreneurs
▁FM
▁rejected
▁forgotten
▁representation
American
▁emissions
nit
▁addresses
▁roses
▁divine
▁Ju
▁laser
▁56
▁visits
skiy
mark
ction
▁burn
▁30%
▁Ph
▁£
▁casino
▁Major
▁diameter
▁←
▁Mediterranean
▁logic
vert
▁Philip
▁passion
-11
▁priest
▁disorder
▁reception
▁relating
▁Popular
▁generated
▁restored
▁Interior
▁throw
mann
▁Expert
▁Meanwhile
▁criticism
▁Defence
▁managing
ene
▁Additionally
▁Pen
▁flexible
▁Unit
▁virtually
▁Days
=
▁addressed
RC
▁Additional
▁equally
ute
Picture
▁detect
▁aviation
▁waters
▁findings
late
▁neighbors
Russia
▁1991
▁ending
▁paintings
▁Certificate
▁Op
▁ST
▁authorized
▁inflation
▁Flight
▁intervention
▁Translation
▁arts
▁Blog
▁importantly
▁Ye
:1
▁Communication
▁Ber
▁chicken
▁da
IR
▁recover
▁peak
▁bonus
▁muscle
▁Fat
▁YOU
▁necessity
▁injuries
▁invasion
▁charges
▁consultation
▁Moses
▁towns
▁Reviews
pers
▁Gal
pan
▁Academic
▁gambling
▁Poltava
▁migration
▁participating
▁headed
▁moves
▁66
▁gather
▁volunteer
▁cook
▁mathematics
▁detained
▁potentially
▁estimates
▁calculated
▁Victoria
▁Mel
▁organizational
▁distant
▁lists
▁coalition
▁Ram
▁Airlines
▁Tar
▁Georgian
▁commit
▁delicious
▁breast
ella
▁evaluate
▁Independent
▁emphasized
low
▁excess
▁cyber
▁satisfaction
▁apps
▁obligation
▁Bor
▁symbols
▁(12
▁CE
▁wage
IM
economic
▁tobacco
▁shock
▁ties
▁forming
▁searching
-6
▁egg
▁annually
▁meets
▁Complex
▁DC
▁Electronic
▁healing
▁Bad
▁Beijing
▁syndrome
ew
▁rural
▁rising
St
uz
▁consulting
cu
▁deserve
▁ultimately
CC
▁MBA
▁cr
▁probability
▁denied
▁Property
mir
▁Register
oli
▁thermal
matic
:15
las
▁Mag
gue
▁ml
▁bike
▁modified
▁dropped
▁USB
▁skill
▁truck
▁divorce
▁tablets
▁95
▁58
▁pension
▁composed
yk
▁euro
TION
SS
ged
▁acquisition
▁mathematical
▁protests
dic
mes
▁Ukr
ata
xi
▁tracks
▁Firm
▁Laboratory
▁vulnerable
▁initiatives
type
▁zones
▁assistant
▁ethical
▁frequent
ford
logy
world
even
▁Technologies
▁Daily
▁violent
▁naturally
▁machinery
▁passage
▁fewer
▁pump
▁sa
▁Source
At
▁finds
▁considers
▁varieties
▁Luhansk
▁Annual
▁hardly
▁recipe
▁exit
▁reward
cut
ole
▁Current
▁bedroom
▁writes
tes
-7
▁underground
▁Ser
▁sheet
▁withdraw
▁Kor
▁urgent
▁Indonesia
illa
▁Louis
▁Harry
▁Iron
▁invented
tr
▁BE
▁secrets
▁http
▁Slovakia
▁storm
take
▁Depend
▁abortion
▁Stalin
▁Blood
▁dated
▁Level
▁expanding
▁Leave
▁witnesses
▁!
▁receives
▁(14
▁sl
▁Kharkov
▁Questions
▁1989
pin
▁Ros
uck
▁deals
grad
▁phrase
▁involve
▁Ice
▁7,
▁obviously
▁memories
▁societies
▁supplement
▁meals
▁estimate
UM
▁ski
▁lifetime
▁Universal
▁conferences
cul
▁earned
ette
▁liberal
rus
ration
▁opens
af
▁decorated
▁hang
-15
LO
▁salvation
▁globe
▁classified
–19
▁vice
▁5,
▁bags
▁servants
▁z
▁anyway
▁exposed
▁2008,
▁coins
EU
▁Payment
▁Shi
▁perception
▁tutorial
▁impressive
ivka
Ex
▁blame
":
ef
▁Wa
▁Arabia
gor
▁Mexican
▁inspiration
▁le
▁raising
▁Rent
▁Kitchen
▁marks
▁Brazilian
lay
▁economics
▁strictly
▁sisters
▁deposits
▁complaints
▁certificates
▁Follow
▁angry
ual
dar
▁Camp
▁crops
▁attacked
▁Magic
▁Features
▁59
▁2.5
▁conversion
CO
▁Bus
eu
▁Comments
т
▁Nazi
▁Temple
▁Cuba
▁mono
OC
▁cameras
▁rehabilitation
▁Field
▁Mis
▁beliefs
▁Upon
1%
▁modules
▁Er
▁Seven
▁mysterious
▁charity
▁Something
▁Filter
▁analytical
▁returns
bel
▁sat
о
▁difficulty
▁disciples
▁PR
hand
▁rocket
▁11,
such
▁Hollywood
▁publishing
▁painful
▁logical
ties
▁Client
table
og
▁Bu
▁Tag
responsibilities
▁acceptable
▁MO
▁regarded
▁Nobody
».
hal
▁settled
▁Croatia
▁leg
▁Image
European
▁Heaven
▁County
▁connecting
▁BA
▁@
nie
▁experimental
▁consistent
▁1988
2,
▁signals
▁terminal
▁socio
els
ulation
▁incredibly
▁Export
From
log
▁favorable
▁Server
▁para
▁representing
▁genuine
▁Cam
▁thread
▁expense
▁pointed
▁crowd
▁Wild
▁wire
▁110
▁130
▁PJSC
▁Season
▁interference
▁wounded
ther
▁+38
▁observation
▁crazy
▁Categories
▁Chapter
▁4:
ign
▁compromise
▁divide
.[2]
▁Kim
▁Dance
lt
▁shut
▁Madrid
SI
▁Educational
▁ecological
▁buyers
▁Pet
rich
▁MS
▁Ze
▁Lev
▁2018.
▁maintained
One
▁influenced
▁burden
▁championship
▁packages
OM
▁logistics
▁neutral
▁Bed
PP
party
▁Sk
▁sacred
▁Advanced
▁calculation
Mo
▁medication
tan
▁hopes
▁profitable
▁freely
▁Igor
▁Hor
▁ear
je
▁nose
▁boundaries
▁Avoid
▁texts
▁reply
▁1940
OP
ona
Matthew
www
▁Edward
▁Bob
▁speakers
▁funny
▁gallery
▁hunger
▁hospitals
▁buyer
▁nutrition
▁luxury
eo
▁Oleg
▁reaching
▁Ali
▁Taiwan
▁Andriy
▁Stream
▁reign
▁opinions
▁Silver
▁automated
▁gay
▁OK
ula
▁instruction
▁Abraham
nu
▁employed
▁2007,
being
▁holes
▁kid
DI
.5%
▁jump
zer
▁toxic
▁resist
▁Emperor
▁advise
▁Experts
ION
▁Romanian
▁revolutionary
▁et
▁CH
▁taxi
▁spare
▁Iceland
▁integral
▁Index
▁priorities
Today
▁savings
▁Tro
▁oral
▁lucky
▁protocol
▁explosion
▁stones
▁Ancient
▁Tel
▁1930
▁CA
▁burning
▁forgive
▁chances
▁mining
▁profits
▁substantial
▁Arabic
▁scenario
▁signature
▁cap
arch
▁40%
▁FUIB
▁balanced
km
▁somewhat
▁Gor
▁initiated
▁gods
DS
▁pen
5,000
▁pack
▁forecast
▁situated
▁Senate
▁acquainted
▁Geneva
▁reaches
▁papers
▁anger
▁Princess
GA
1,
▁Physical
▁Yanukovych
▁dying
▁Coast
▁neighboring
▁steam
▁ages
▁watched
▁Victor
▁Say
▁unlike
▁Bel
▁supervision
▁Round
▁heroes
▁contributed
cc
▁6,
▁Users
Ba
▁geo
▁AM
€
▁utility
▁Kherson
▁preserved
▁circulation
▁Deep
▁1920
ography
▁1986
▁Allah
▁sessions
▁respective
▁luck
▁monetary
▁Florida
▁rear
▁encounter
GO
▁neck
▁acknowledge
▁Fo
▁cake
▁controls
▁glasses
▁Song
mel
▁abandoned
▁poll
▁im
▁competitions
▁tubes
skyi
▁Dear
▁timely
▁conclusions
▁UNESCO
▁Railway
▁marry
▁Vintage
TE
▁featured
Let
▁filed
oy
▁keeps
▁sequence
‘
▁pride
▁sake
▁Restaurant
▁Run
▁Ger
▁cure
▁Commerce
▁prescribed
ire
▁voters
▁terrorists
MI
▁supplier
▁Brunette
▁guilty
3)
dia
lation
▁del
ib
▁15,
▁alarm
▁worried
▁mercy
▁Democracy
▁BBC
▁80%
▁suspect
sized
▁guitar
▁targets
▁samples
int
▁Ak
▁relief
izer
▁Otherwise
▁Theater
▁volumes
▁writers
▁lasted
▁minds
▁prestigious
▁Resources
ano
▁tariffs
:11
▁calculate
▁executed
▁hell
▁Title
▁Mike
ena
▁focuses
▁par
▁Latest
▁lights
▁NGO
▁yield
▁recognised
▁declare
ult
▁Lead
▁collections
▁enjoyed
▁tower
dra
▁decorative
▁physically
lock
▁22,
▁rec
eth
▁63
▁sleeping
▁legally
▁Ga
mal
▁Nu
▁palace
▁iOS
▁pace
Teen
▁determination
▁documentary
▁innocent
▁Tesla
▁Customs
▁Danish
▁embroidery
▁Truth
▁19,
▁Kra
▁14,
▁Archives
▁unlikely
▁Lot
▁Reform
you
▁57
▁Ham
▁License
▁anxiety
▁silence
▁reject
▁procurement
▁Sw
▁Virgin
▁unexpected
▁Stay
▁argue
▁trains
▁99
▁Milan
government
reg
▁(20
BS
▁fantastic
active
▁exhibitions
▁Eco
▁achieving
▁Countries
John
▁practically
▁5%
▁column
▁~
vit
▁algorithm
date
▁Hill
power
▁PDF
▁workplace
▁Material
▁Spa
lit
▁ultimate
к
▁Nov
vor
▁drama
▁coordination
▁priests
▁vegetable
▁ignore
▁measured
▁Hence
rim
0.00
▁imagination
▁bilateral
▁Prague
▁Friends
▁seed
▁Around
▁Germans
LY
▁arrangements
Ho
▁compact
rn
▁canvas
▁Historical
:14
▁shouldn
▁Better
▁encouraged
▁90%
▁Course
▁indicator
She
▁Making
▁Alex
▁routine
▁statistical
vers
▁followers
▁Wind
cker
▁(13
▁silent
▁Architecture
▁hyper
▁1979
SU
▁reduces
▁museums
▁designated
▁passes
▁vitamins
och
▁Mikhail
month
group
▁NO
▁pink
MC
▁solely
▁wearing
load
▁Heat
▁abandon
lot
ue
▁painted
▁DE
▁grace
▁4-
yr
▁bone
▁GPS
»,
Man
▁acceptance
▁Massage
▁tiny
▁somebody
▁dozens
rt
▁Bulgarian
▁belonging
▁matches
▁Galaxy
▁Agro
▁Aviation
▁admission
▁obliged
▁carries
▁Hey
style
cle
pil
▁separately
-16
▁Different
▁deputy
▁Taking
Mar
▁Too
700
ball
▁Ac
▁essentially
its
▁slave
ax
▁Cyprus
▁acute
▁2005,
ovych
▁Gre
▁consume
var
ell
▁medications
▁investigate
▁fake
▁inspection
▁angel
▁Tor
▁posts
▁Looking
▁updates
▁mandatory
▁afternoon
▁bulk
▁decree
▁breath
▁marine
▁ports
▁grows
▁2017.
lam
▁DVD
▁agenda
▁prosperity
▁Creating
▁targeted
▁van
▁Nor
▁1985
▁resume
1)
FA
yuk
▁thereby
how
▁sacrifice
▁infections
▁transmitted
▁Matthew
▁Ol
▁debut
▁consequence
▁auction
▁Hol
▁Initiative
▁anonymous
▁mothers
▁2016.
▁Put
▁complications
▁10,000
▁villages
▁precise
▁Ban
▁Block
ologist
(1
pen
▁tongue
▁Chemical
▁sole
▁arrange
cm
▁Really
▁lo
▁9.
▁separated
▁Point
▁cubic
▁reconstruction
С
ase
▁Ed
▁wireless
р
▁grams
▁sheep
▁neighbor
▁Officer
▁decoration
▁Amsterdam
▁Intelligence
▁Remove
▁Movement
▁160
▁manifest
bol
▁PhD
▁roughly
▁Mas
▁workshop
▁tri
▁Individual
▁1939
▁container
▁Final
NO
▁galaxy
▁Average
▁joining
▁Active
▁confirmation
▁venture
▁tries
rum
ami
▁Pop
▁prayers
▁publish
▁Risk
▁Kh
▁140
hen
▁organism
ude
La
▁washing
▁convert
▁21,
pol
▁styles
▁intensity
▁retirement
▁lady
▁fluid
▁mill
▁Charter
-17
▁1944
▁cats
▁TR
▁CON
▁sovereign
▁ambassador
▁thirty
▁poetry
▁summit
▁bars
▁69
ple
▁photography
▁nearest
rie
▁Core
▁flows
▁Miss
▁Bro
(2
▁Case
▁8.
kar
▁transfers
▁honour
▁Tea
IV
▁width
▁Planet
post
▁tape
eng
▁batteries
▁talented
▁graphics
▁toilet
ans
▁enabled
▁crossing
▁missions
▁purchasing
▁ON
▁brown
rick
▁Contacts
▁Dragon
hor
eb
▁developments
ett
ept
▁Someone
▁1982
▁1984
▁mu
▁Common
▁Donbass
ö
▁automation
▁loyalty
▁Easy
Kyiv
▁solved
▁stake
▁Projects
▁grid
▁Text
▁limitations
▁Lithuanian
▁rail
▁angle
▁commander
▁publicly
▁Pass
▁persecution
▁spectrum
▁Easter
▁Zone
▁1987
▁Hal
lor
key
▁hunting
▁Cur
▁Hope
▁elite
▁ro
▁Shanghai
▁stroke
nal
sco
▁partially
▁assured
▁dynamics
▁Venezuela
ass
ese
▁3:
▁arguments
▁conservative
General
dan
▁12,
▁SMM
▁dad
qua
▁campaigns
▁distinct
water
▁smallest
▁Physics
▁convenience
▁flesh
▁Creative
▁assault
▁responded
▁Francisco
▁JSC
ify
▁Border
NS
▁Bell
▁random
▁correction
▁bo
▁Geo
▁behave
▁checked
Ra
▁forests
ava
put
rat
▁tariff
▁62
▁twelve
▁Creator
▁Os
▁Sin
▁ne
phy
Name
ement
▁ra
▁ranked
▁fired
▁politician
ency
▁shutters
▁Communications
▁17,
▁Bear
▁harder
gr
▁interfere
atic
DO
▁bouquet
▁Sony
▁Form
▁albums
▁ambitious
pu
▁reflected
▁Churches
CI
▁stayed
press
ET
God
▁61
▁promising
▁ought
▁jail
▁Bat
▁ALL
▁autonomous
▁greenhouse
lip
▁investor
▁cease
▁intend
▁ruled
UN
▁Turn
▁hire
▁opt
▁roman
▁gonna
▁adaptation
▁Cloud
▁Pu
▁sees
▁Fall
375
▁Operation
▁upgrade
ero
▁soldier
▁galaxies
▁identical
▁stomach
▁decreased
▁civilians
fire
▁Maidan
ban
▁praise
pri
▁Tra
▁Hello
▁density
▁Budget
▁forbidden
▁Jim
▁Band
▁13,
▁Hack
▁supporters
atory
▁Village
EP
range
▁shortly
ense
▁Bush
▁Gift
▁cooling
▁Instagram
▁Taylor
▁governor
ram
▁ma
▁impose
▁desires
ibility
▁[+
nar
read
get
▁Flash
▁bouquets
▁Perfect
▁rubles
▁PA
▁realization
tar
▁Cambridge
▁beloved
▁Oblast
▁Kan
▁Knowledge
▁interact
▁adjust
▁Original
▁worthy
▁chemicals
▁apparently
▁Kal
▁asks
ele
▁demanded
▁1.2
▁preferences
▁phenomena
▁temporarily
▁Question
▁pot
▁Sergey
▁poly
▁subsequently
▁acids
str
▁unemployment
▁2006,
▁blocked
▁regulate
▁SO
ras
ima
▁Je
▁guns
▁Cathedral
▁Terminal
▁Arctic
▁Left
▁Pol
▁whereas
▁announce
▁recall
▁Works
▁pounds
▁abstract
win
ERS
▁Eve
rop
▁champion
▁Urban
▁Labour
▁grass
AU
▁Panel
nya
▁neuro
▁dual
▁justified
rant
▁Classic
▁Wars
▁tables
▁detected
▁vector
▁Cancer
▁prophet
▁fastest
▁designs
▁settlements
▁retain
▁genes
ony
▁determining
▁Gospel
▁sauce
▁submission
▁elsewhere
▁wholesale
▁tracking
▁elderly
▁Col
▁68
▁traditionally
▁27,
▁fighters
▁wages
▁Parents
▁reads
▁surveillance
▁Planning
▁Dnipropetrovsk
▁Yellow
▁interactive
▁rank
▁steal
▁combines
▁gene
▁Sorry
▁observations
▁Belarusian
▁convey
▁wheat
▁satisfy
▁horses
▁beings
▁31,
▁Authority
▁driven
▁adds
▁Reserve
▁Sand
-9
▁spaces
tus
▁burned
▁expedition
▁developer
▁struck
▁Success
under
▁terror
▁derived
▁employer
this
▁1945
▁mask
ert
ore
▁Published
▁excited
▁apostle
NI
▁counsel
action
GB
rated
:13
dle
bot
▁geographical
▁Cash
▁fraud
▁Mountain
▁infected
phon
▁1981
▁warming
▁23,
▁Captain
▁mystery
▁refrigerator
▁Bachelor
din
▁complaint
▁Tech
▁Carpathians
▁Clinic
ale
▁AT
▁67
uri
▁Write
▁Cell
▁2012.
▁Elizabeth
▁Records
▁Print
▁attracted
▁efficiently
▁Fu
▁torture
▁broadcasting
▁intensive
▁detention
▁orientation
▁classification
▁religions
▁surprising
ye
▁Anton
▁Researchers
▁assumed
▁monument
▁Patriarch
▁loyal
▁Screen
▁challenging
▁preliminary
owned
▁remarkable
▁Imagine
▁Process
▁gathering
▁Recently
▁gap
▁internationally
FI
▁Net
▁handling
▁arranged
iff
▁Made
▁5:
▁funeral
▁dental
▁Summit
▁alongside
▁BMW
▁detection
▁layers
▁ceiling
evich
▁mandate
▁tension
ily
los
▁fallen
▁boxes
▁consisting
▁$3
cus
▁Chocolate
human
▁stolen
tch
▁Republican
▁lovers
Or
▁ju
▁placement
ych
▁resolved
▁Magazine
▁Organisation
▁governance
▁keys
▁Duke
▁possess
OD
cia
▁Joe
aging
▁teaches
▁CIS
▁\
▁Cal
:12
▁Television
▁Jones
rid
sex
▁musicians
▁crown
▁Pri
▁EC
RS
▁trials
▁conscience
path
▁obstacles
í
▁heading
▁proportion
▁thoroughly
▁episode
▁Past
▁1941
▁coating
▁gratitude
▁Important
▁sword
▁fulfilled
▁laugh
▁applicants
▁vs
nny
TR
PR
▁Vatican
▁monastery
▁Enjoy
▁breach
▁Brexit
▁Editor
▁ears
KO
▁plain
▁Less
▁controller
▁CS
▁superior
ls
OT
▁undermine
▁25,
▁tablet
▁Albert
▁calories
nom
▁ancestors
▁Metropolitan
▁replied
▁closing
▁hydrogen
▁Actually
▁organizers
▁gear
▁republic
▁darkness
akh
▁cart
▁Kon
▁reader
stone
▁Materials
▁HR
▁disappeared
▁ye
▁babies
▁valley
ila
▁Rating
▁Furniture
eh
▁unfortunately
▁Photos
dor
▁Zh
print
osh
▁laptop
▁archive
▁Drive
▁Kur
▁shadow
▁tab
▁transparency
▁emergence
▁automobile
▁distinguished
▁layout
▁sixth
DR
▁muscles
▁breaking
▁surrounded
▁speaks
м
▁Gun
▁Practice
▁reverse
▁2013.
▁protects
▁Ever
IF
▁authentic
▁hat
▁Icon
▁notion
▁25%
chen
▁#1
▁Yo
arm
▁2019.
▁fl
▁lectures
▁basically
link
▁disabled
Po
▁legend
▁9,
ida
▁Staff
ending
green
FC
▁Mid
▁Senior
▁libraries
Vi
▁Alfa
▁disciplines
NG
▁imported
▁Problems
▁Secret
▁28,
▁satellites
▁pcs
▁LA
▁Meet
▁SMS
▁Vo
▁supplied
▁vacuum
▁Arbitration
▁Rather
▁wider
These
▁contributions
▁corporations
▁missed
▁SC
▁Tools
▁Ray
vision
▁Present
▁conclude
▁Ah
▁medieval
▁loud
BC
▁Ship
▁surely
▁hiding
any
▁attempted
DC
▁Comp
▁circuit
▁Philippines
▁trucks
н
▁ta
▁solidarity
▁грн
▁parks
▁Sector
▁disappointed
▁Limited
▁realistic
▁exceptional
▁Had
▁tooth
▁16,
000
▁Mail
▁Glass
▁Virtual
▁floors
▁External
▁corn
rr
▁respected
▁Side
▁Dy
CU
▁Rental
▁calculations
TC
▁viruses
▁exam
▁ranking
▁Must
";
▁Zelensky
▁Marriage
▁tunnel
▁shelter
▁Skype
▁focusing
▁secretary
▁anybody
real
▁speaker
▁continuously
▁Changes
▁tours
▁Deposit
▁newspapers
▁Finnish
▁methodology
▁Participants
/1
▁А
▁qualification
▁Simon
▁mouse
▁arbitration
▁campus
Porn
▁Es
▁bond
HA
corruption
▁Theory
lly
▁worker
▁progressive
▁moisture
▁desktop
Who
via
ech
▁trusted
▁titles
▁upcoming
▁newest
д
vol
▁vaccine
▁Manufacturers
▁converted
▁ordering
▁Fi
▁transformed
▁heavily
▁Corinthians
UL
▁viewing
▁preventing
▁corrupt
dent
▁Speed
teen
▁mi
run
▁closest
EX
▁alert
iuk
rac
▁foundations
▁fled
▁Java
▁Chris
ving
most
▁Imperial
▁Ternopil
▁emperor
▁Concept
▁okay
▁staying
kova
▁Archive
▁decent
▁arch
building
▁2011.
ress
▁quit
▁safely
▁conscious
▁Constantinople
▁frozen
▁horizontal
▁Jackson
▁Sound
▁craft
▁Kara
-14
▁poet
▁specially
phone
:20
rad
▁recipes
▁mar
▁Cl
▁orange
profit
LS
ses
iti
▁systematic
▁Oct
▁70%
▁chemistry
TI
▁Update
▁Honor
▁Quick
▁pipeline
nce
▁Continue
▁rhythm
×
▁photographs
:9
▁meter
▁Email
mis
▁refund
▁Safe
GE
00,000
▁Century
▁Boston
olo
▁festivals
▁favourite
▁18,
▁Labor
▁moderate
▁1969
▁AG
▁SS
▁permits
▁crop
▁Fish
mate
▁cancel
▁Dollar
▁noble
▁outer
city
▁fitness
▁Half
▁Iraqi
▁AL
ld
▁Doctors
▁institutional
▁Whatever
▁advised
▁regulated
now
▁stops
▁Valentine
▁Statistics
▁electoral
▁drunk
▁xHamster
▁Creation
▁communist
▁seeks
▁Environment
▁edit
ato
chan
amp
▁graduated
▁camps
▁Th
▁trips
▁concerts
▁deputies
▁Vasyl
▁Contest
▁Dog
▁lying
▁minority
ender
▁rice
▁pipe
▁MB
▁ph
▁globally
▁Inside
▁hosted
▁fiber
▁processor
▁Sim
▁cottage
▁penalty
▁obey
vent
▁opera
▁emphasize
▁deeper
▁concentrate
▁tight
▁pm
▁alcoholic
char
▁Mykola
▁Ty
▁Event
▁complain
▁1974
▁investigations
▁Given
tter
tract
▁Lin
ico
▁Scott
▁chairman
▁gaining
Go
trans
▁decorate
▁86
▁Hell
▁Lost
▁psycho
▁Lab
▁Toronto
▁organizing
rod
▁FREE
▁1.1
cer
▁Lion
speed
▁tech
▁robot
▁1983
▁1975
▁tissues
▁blonde
gate
▁0.5
▁buses
▁adhere
▁tens
▁Automatic
▁minimize
▁Along
▁quantum
▁Stephen
PL
▁voluntary
▁Player
▁Columbia
▁partial
▁march
▁Socialist
▁2010.
▁vessel
▁Grant
▁Governor
▁cryptocurrency
▁OSCE
\
▁singing
ira
▁None
vel
2000
eur
▁Representatives
▁string
insky
▁variable
▁Sur
▁Advertising
▁unprecedented
Car
▁Pump
▁resident
▁jet
▁Voice
▁thy
▁Lesbian
nan
ske
▁(0
▁350
▁influential
▁captain
▁japanese
People
▁openly
SD
▁Wine
▁Villa
▁freedoms
mu
▁scared
ffer
▁throne
▁Leadership
▁Birthday
150
▁URL
yi
▁defeated
mus
▁Eye
▁remembered
ack
itch
Now
▁Em
Com
▁1968
▁modernization
▁76
lets
▁Chat
▁0.0
▁(11
▁determines
▁Heritage
▁Timothy
▁Banking
▁adapted
ically
▁examined
-30
yna
▁harvest
▁LI
▁Dating
▁accomplished
▁consult
▁controlling
▁j
▁96
▁creatures
▁chamber
▁prototype
aj
▁diesel
▁factories
▁unite
fold
▁Apart
Di
▁Boris
▁Soft
wer
▁Premier
▁exploration
▁stylish
▁125
▁consultations
▁tennis
▁gross
▁Solutions
▁purchases
▁Sexy
wear
▁Ross
▁Reading
▁Zo
▁plates
▁contents
bro
▁elegant
▁mobility
▁unnecessary
▁dramatic
▁undertake
▁Wales
▁perceived
▁graphic
mun
▁Ready
▁Month
▁scholars
▁opponents
▁3)
▁specialty
▁Available
▁Value
▁77
:18
▁robots
▁schemes
ters
▁Clean
▁Prior
▁Mer
▁Custom
▁codes
cycl
▁Malaysia
▁Den
▁solo
▁cave
▁dairy
▁leather
▁breathing
▁Novo
ches
▁medal
▁ethics
▁26,
▁intake
▁Rich
▁Hairy
gh
▁Method
iev
▁ministers
▁Del
bor
▁1976
▁emerging
▁gaming
▁Han
▁tolerance
▁Package
test
▁Everybody
▁Opening
▁bearing
▁accomplish
▁motivated
▁formally
ied
vid
▁bills
ents
ean
rous
onic
▁feeding
▁aluminum
▁blockchain
▁Las
▁Chile
▁possession
.[3]
▁Teacher
▁reflection
inch
▁argued
▁demanding
▁Mill
▁Phen
▁Rest
▁Clinton
▁employers
▁mild
▁optimization
ened
▁ME
▁absorb
ei
▁Anyone
▁somehow
town
▁beaches
oon
▁invested
▁Yar
▁u
wel
mas
cin
▁souls
▁Error
▁Ken
▁Olga
▁Holiday
▁(4)
▁Message
▁keyboard
▁weekly
▁30,
▁settle
▁1967
▁1918
lat
▁Log
▁PS
▁construct
▁Memorial
▁Psychology
▁Jacob
▁UKRAINE
▁preservation
▁nerve
iness
▁Dad
▁shell
zu
▁supplements
▁Move
▁instant
▁Poly
vir
ä
UK
▁Budapest
▁economies
▁Harvard
▁placing
▁Cinema
▁Faith
▁alien
▁Orange
stan
▁BR
▁golden
lie
▁analyzed
▁MI
▁conservation
▁Munich
ctor
▁drives
▁beds
FS
rian
about
▁Display
▁qua
▁migrants
▁integrate
▁angels
▁15%
▁strip
▁blend
tive
▁cute
▁Vinnytsia
▁Oxford
ges
meter
▁earthquake
With
▁Accounting
▁Pra
▁alter
br
▁Teaching
roll
▁1971
serv
▁Psalm
▁translate
▁quote
▁finishing
cit
NC
▁patience
▁hungry
▁100,000
▁Gay
▁Resort
▁em
▁Apartment
▁dish
▁violated
"),
igh
mos
▁Release
▁masters
▁outcomes
▁propose
▁Eight
▁Natalia
▁Details
▁individually
shi
shirt
▁crying
▁trigger
▁Sar
▁spheres
▁Fill
▁reflects
▁separation
▁Artist
▁Corps
century
operation
▁1973
▁imports
▁lab
.'"
▁exclude
▁Fort
▁1972
▁Kry
▁stupid
RT
▁hatred
▁Arthur
▁Linux
▁classroom
▁symbolic
▁swelling
▁sink
▁Fox
▁Crime
ear
▁stem
fin
imp
▁FA
▁Kir
▁brilliant
▁districts
▁legendary
RY
duct
hole
▁Parts
▁succeeded
ides
▁Expo
ching
▁(24
▁IC
▁scan
▁Rule
▁tragic
▁Prophet
ovo
▁constructive
▁Holland
▁Against
▁adventure
▁architect
▁accelerate
▁photographer
sur
▁2.0
▁consist
▁puts
lis
▁2-3
▁Webcam
▁ob
:17
MB
acy
▁consumed
▁fiction
▁fingers
▁neighborhood
▁guidelines
▁naval
▁readiness
bert
▁Notice
▁tap
Ha
▁emerged
▁Base
▁reveals
▁Matt
▁breed
cast
▁GB
▁airlines
▁hydro
▁drawings
▁unpleasant
▁Driver
▁Settings
▁Solomon
▁Ur
▁Reasons
▁hormone
▁73
▁Armenian
ways
▁measurement
▁crack
mber
▁treatments
▁blessing
cap
▁swim
▁Istanbul
▁Promotion
▁(25
▁tonnes
▁Cover
▁Representative
bre
AA
▁seal
far
title
▁Ob
▁funded
▁fur
[1]
▁Disney
aid
▁Performance
▁Own
burg
▁pa
DP
▁associate
tens
▁wallet
▁Mercury
▁rubber
▁Scottish
▁brick
▁NBU
▁thickness
core
▁attorney
900
▁Allow
Ch
▁suggestions
▁Diamond
,500
▁Kosovo
▁fortress
▁Subject
▁currencies
▁Manufacturer
▁strain
▁Lenin
▁2004,
▁hasn
▁Branch
▁900
rc
ination
▁wealthy
▁bones
▁EX
lands
▁Conditions
aya
▁unacceptable
▁stadium
▁Boeing
▁subscription
▁Reg
▁verify
▁guided
ivity
Art
▁Ring
dies
gn
▁24,
▁Farm
▁Born
EST
▁convention
bal
▁deleted
▁Mode
▁weakness
▁Degree
▁Luxembourg
▁Thai
▁Sat
berry
▁carriers
▁gate
▁fears
▁Serbian
▁thinks
▁Democrats
▁Gulf
▁Commissioner
▁profound
▁scenes
▁1965
▁..
▁jointly
yu
▁Belgian
▁league
▁Upload
▁spray
▁confrontation
▁Sweet
▁ratings
EE
▁Okay
▁isolated
▁composer
▁blessed
▁warehouse
cell
▁invention
▁notification
▁TOP
ake
▁collecting
▁Eat
▁88
▁Dmitry
▁Tokyo
▁Qatar
▁constitute
who
code
▁Pat
▁lasting
▁Audio
▁Tur
▁metals
page
▁WE
tte
▁habit
▁Slovenia
-01
▁ranks
▁Yaroslav
▁cognitive
▁embassy
▁experiencing
▁proceed
▁humidity
▁Malta
▁Style
▁Nord
▁condemn
▁smartphones
▁tomb
▁170
▁1978
▁Rain
▁Mountains
sar
▁Survey
▁font
▁addiction
▁Preparation
▁Patriarchate
▁Persian
▁Bonus
▁//
▁allocated
▁Metro
▁Load
▁preaching
▁Tab
▁2020.
▁Decision
▁resurrection
▁fool
▁shareholders
▁rotation
▁360
▁Kit
▁Kat
.[1
▁hectares
phi
▁dense
▁Procedure
:16
cor
▁stimulate
face
▁airports
▁84
▁formats
▁Pick
▁Apartments
▁quantities
▁antibiotics
▁Repair
▁Volvo
mission
▁Shipping
▁compatible
there
▁engagement
▁Wolf
▁98
▁seized
▁consistently
▁Got
jan
▁Azov
rry
▁tr
▁investing
▁Politics
▁spacecraft
▁Bri
▁Para
▁wheels
▁Stand
▁chart
▁disclose
▁Palestinian
▁restricted
▁belt
▁cord
tation
▁trillion
▁orchestra
▁scandal
▁piano
▁Zhytomyr
▁AN
▁critics
▁Sy
▁workshops
▁Hebrew
▁pocket
▁lease
ati
▁directors
▁Link
▁Rad
▁Khan
UC
▁spots
▁sincere
-25
▁awesome
▁Simple
▁5-
▁gray
▁accord
▁deemed
▁accidents
▁magazines
▁Nearly
▁suspended
▁Connect
▁ignored
▁employ
▁Fun
▁conversations
▁Info
▁accurately
▁Administrative
▁Climate
▁decisive
▁rifle
▁dozen
ique
etic
▁Guy
▁hoping
▁Movie
▁beads
▁algorithms
▁Macedonia
▁containers
bul
▁EN
ó
▁20,
▁Huawei
▁Les
▁surgical
▁loading
▁Olena
▁billions
▁Found
ado
▁bases
▁60%
▁Horse
▁Launch
-2018
▁acted
pped
▁Clear
elle
▁pin
▁purely
▁monuments
▁deny
▁suspected
▁municipal
▁boats
▁autonomy
▁Agricultural
▁Assistance
▁desirable
▁Hardcore
TOR
▁Tool
-13
▁Monitoring
▁photograph
▁affiliate
▁directory
nate
▁seminar
▁apparent
▁1500
▁Cho
pon
▁Province
▁unlimited
▁Testament
▁harsh
▁capability
cra
tics
▁forgiveness
▁Interesting
gra
5%
▁rod
▁minerals
▁Contracting
▁whenever
nyk
▁brush
▁Cu
▁removing
▁Samuel
▁Edit
▁cabin
▁prohibit
▁partly
▁Practical
▁urged
▁besides
▁delivering
▁coup
stra
▁occurrence
▁welfare
▁Emergency
▁earliest
▁doses
▁2003,
▁cheapest
▁brunette
▁insight
▁Suppliers
▁intentions
▁admin
ifying
high
▁Wo
▁trace
ature
▁printer
▁youngest
▁Answer
▁sudden
▁Picture
▁101
nk
▁Universities
▁breathe
▁Rod
aki
▁socially
minute
▁bite
14)
▁concentrated
▁farms
4)
▁prosecutor
▁Albania
▁oblast
▁Clinical
▁recreation
▁macro
▁Ry
▁tropical
▁plasma
▁Apply
▁annexation
▁Height
▁Profile
▁cigarettes
▁preferred
▁Nice
▁Fruit
▁walked
owner
ern
ars
bil
▁socialist
▁electro
fish
▁Carpathian
▁demonstration
▁desk
▁Excel
▁Cro
▁declined
ologists
▁disposal
▁metabolism
▁Tattoo
▁Outlook
ien
▁charging
▁predicted
▁RO
▁1%
lad
chin
▁Eric
unt
▁paragraphs
▁correspond
▁upload
▁flour
▁Probably
▁urge
▁Strong
▁Become
▁Import
▁Operations
▁titled
▁strongest
uit
▁wins
▁Luke
▁discounts
▁3.5
в
ttle
▁treasure
▁regards
self
▁Steve
ovka
▁Ash
▁decides
▁Cute
â
▁Rivne
▁Install
turn
▁ferry
▁editorial
▁seller
▁girlfriend
▁epi
▁diagnosed
▁impressed
▁warranty
▁complement
aw
▁2,000
▁Nine
ups
▁slaves
▁panic
▁garage
▁Contemporary
▁Chair
▁Forex
9%
▁Ci
▁Prices
▁coin
▁modify
▁Com
#
author
▁grants
▁1977
▁illegally
▁AR
▁installing
▁Guests
▁prompt
▁VAT
▁centres
FE
▁Dust
▁bottles
cip
▁Regulations
▁Stage
KA
CS
AB
▁Cheap
▁Sydney
▁grandmother
▁Choice
▁boss
ggy
▁Added
EM
▁sha
logical
▁Cool
▁graph
▁Fine
▁SEO
▁organisms
political
friendly
▁1963
▁Engine
▁Gates
▁::
hard
▁PO
▁1961
▁maps
yo
▁Album
▁drew
ali
▁Diploma
▁Transportation
12)
after
▁colony
2014
▁Il
▁backup
▁wherever
gal
▁climb
▁Mad
▁Hero
:6
▁1946
fall
USA
where
lum
▁artillery
▁Provide
▁cholesterol
▁82
nor
▁observers
▁researcher
▁1914
▁Champions
▁29,
▁believers
▁Mind
▁quoted
▁Career
▁Near
▁Armenia
lib
▁invisible
▁animation
▁Athens
▁FBI
2015
:19
▁hardcore
▁instantly
▁relate
▁unions
▁tele
dimensional
▁Painting
▁Maxim
▁defines
pet
▁Kenya
▁Literature
▁bankruptcy
▁yoga
▁Oscar
▁Throughout
▁Floor
▁Former
▁handed
▁Edition
32)
▁electronics
▁restrict
▁Role
▁1943
▁wings
▁Tagged
▁Tomorrow
▁Statement
▁salon
English
ml
▁Nation
▁alleged
▁seasons
wide
▁miracle
▁Mrs
▁attraction
▁Emirates
▁fifty
▁memorial
▁disclosure
▁Status
▁salad
▁substitute
▁corporation
▁surgeon
▁norm
▁aesthetic
▁Der
▁apple
mic
▁shoulder
▁Audit
▁spy
л
▁confidential
▁Mirror
▁Related
▁offensive
▁refusal
▁Wikipedia
▁pricing
NY
▁slavery
▁voltage
▁Audi
▁longest
▁spin
▁visitor
▁1947
▁Milk
▁Karl
▁Carl
▁performances
▁highlight
▁Uni
▁absent
▁Maximum
ural
kg
▁Gro
▁dirty
mine
▁Letter
▁bra
ander
Open
ND
▁trailer
▁Aug
gas
▁favour
▁couples
▁emails
▁Avenue
▁HTML
▁liberty
ock
▁dependence
▁therapeutic
gon
▁permanently
▁travelling
▁cycles
▁plugin
▁Bring
▁(23
▁firmly
▁convince
▁spreading
SO
▁Memory
▁traveled
-2016
▁passive
aria
250
▁Gra
▁safer
▁meaningful
pir
▁Consulting
▁Mont
▁Traditional
▁cloth
▁homeland
gun
▁Obviously
rem
zen
▁Medal
▁credits
▁1949
▁Cook
sti
kan
place
▁governing
TT
CR
▁rivers
▁Bon
▁specialization
san
▁revenues
▁Artists
▁TA
▁Pot
▁tall
▁promptly
▁li
▁evolved
care
fu
bur
▁HP
▁criminals
▁spa
VA
nish
▁71
▁promoted
▁cabinet
▁dialog
▁explosive
▁compounds
▁successor
▁portrait
▁(0)
▁Consult
▁hub
▁EA
▁Nova
▁Record
▁promotes
other
rit
▁tears
▁defects
▁lecture
▁cha
▁physician
▁consensus
▁genocide
▁prejudice
▁implies
▁verification
▁zoo
▁metres
▁Religion
▁Ste
/2
▁Fear
▁appliances
▁Ker
▁FC
▁continents
▁recognise
will
▁hormones
ora
▁Mil
▁devil
▁si
▁prince
▁Caribbean
▁introducing
▁warfare
▁performs
aba
▁referring
▁metro
▁SD
▁Bang
▁colonial
▁cruise
▁trail
▁Cars
▁kiss
▁exploit
▁Presidential
RU
▁Alternative
pit
▁heavenly
hin
▁Compare
▁prospect
sum
▁inflammation
▁tremendous
▁combining
DE
▁Regular
▁petition
▁Overall
▁modeling
▁finger
▁Copy
speaking
ographic
▁Mos
▁circles
▁79
▁improvements
▁Mari
▁mat
ught
▁(30
▁plug
ess
š
▁Battery
▁cardiovascular
▁Female
verse
▁$5
▁institute
▁RA
▁conquer
▁Formula
▁78
▁6:
▁1942
▁Nigeria
▁populations
▁guards
▁sensor
20)
space
▁Var
▁Palestine
▁fantasy
▁2008.
▁chaos
▁skilled
▁unified
▁affecting
▁Met
center
▁Chu
national
pha
▁Tan
▁clouds
▁1966
▁checking
▁bother
BU
▁adverse
▁HE
7%
wan
▁Williams
por
▁completing
▁Reuters
▁Stockholm
▁74
▁recipient
▁loop
inter
ough
▁translations
▁recommendation
til
▁bitter
▁allegedly
▁fares
▁resemble
big
▁trap
▁Stra
▁modes
lig
▁approaching
▁Autonomous
▁Supply
▁appetite
▁essay
-21
▁swear
▁flavor
▁§
▁molecular
▁Eu
bet
▁divisions
oe
▁contributes
▁Wil
▁Tatars
▁taxation
cover
▁aside
ache
▁exceeds
Mi
▁curriculum
▁fossil
▁Manchester
▁tendency
▁YOUR
▁barriers
▁Latvian
▁reside
▁eco
station
rel
44)
▁Mixed
▁oppose
▁stretch
organ
▁92
col
bri
▁shame
open
DU
▁farming
.[4]
▁PCB
▁measuring
▁peninsula
ics
▁Outdoor
▁ba
▁weren
▁Ap
:21
▁launching
▁welcomed
▁Bla
▁Dmytro
13)
▁Prayer
exp
▁Race
▁pressing
▁thorough
▁Des
▁tribes
▁sooner
▁IBM
▁bid
▁accepting
▁coat
17)
▁Renaissance
▁CR
▁spite
▁adjustment
▁avoided
▁optical
▁Pal
HO
ved
▁complexes
▁XX
▁Firefox
▁Managing
▁Aid
▁Period
▁fulfillment
iko
FT
▁Previously
▁occasions
▁Wal
▁holder
▁span
▁1917
▁magical
▁magnet
PRO
▁proteins
▁Cut
▁Saving
▁sofa
▁telecommunicati
▁Purchase
▁flexibility
▁pursuit
▁summary
▁geography
▁Draft
▁Effective
▁varies
lash
▁servant
▁Animal
stein
Acts
Ca
▁insist
▁Hub
Don
▁Orchestra
▁Mercedes
▁Recall
▁Figure
▁Morning
▁Ottoman
▁conformity
▁mega
▁Bishop
▁politically
▁trademark
▁licenses
control
▁Path
▁450
slav
▁1948
NE
▁brave
▁Libya
▁rub
▁tied
▁Diet
▁Mur
▁Build
▁controversial
▁enabling
kon
▁Breakfast
▁ladies
step
▁Pain
▁improves
Ad
▁Yuri
hold
▁liters
sson
▁Reality
▁refugee
▁neo
▁Bern
▁Sri
▁1964
▁fighter
▁careers
PT
10)
ener
▁rush
▁specifications
21)
▁Afghan
▁baggage
▁elimination
▁laboratories
▁testimony
▁dominant
bid
▁Agent
▁confused
▁prizes
▁Yugoslavia
▁destinations
Bank
▁sustain
▁resistant
▁Were
16)
▁Romans
▁Tatar
▁2009.
ington
▁Apps
▁accredited
!!!
▁molecules
▁flood
č
▁carriage
▁requiring
▁Focus
▁Ce
▁Florist
MAN
▁Transcarpathian
▁corresponds
А
▁displays
▁Nick
▁К
4%
▁alternatives
▁Imp
▁Wide
▁Spy
▁Scriptures
rest
▁Nicholas
▁Nowadays
▁simulation
▁Already
raw
▁Count
▁Parliamentary
▁Stars
▁genre
▁Anne
▁folks
▁approve
▁Similar
▁influences
▁insufficient
▁Length
▁Structure
▁dancing
▁termination
▁chest
▁Solo
▁lamp
▁fe
ivska
▁Fer
BI
▁helicopter
▁numeral
▁tip
▁patents
▁slide
body
media
mil
▁painter
▁sentenced
▁93
15)
▁Jane
▁(22
try
▁sensors
NET
▁Napoleon
▁jewelry
▁cozy
▁Installation
awa
person
▁telescope
ello
oriented
Un
▁Slovak
▁perfection
▁Suite
▁hood
▁Theme
▁hip
bat
▁soup
▁Applied
▁Einstein
▁gravity
▁knife
▁copper
▁oven
▁facial
:22
:25
▁Tips
▁Similarly
BO
Psalm
▁Speaking
▁Alice
▁WHO
▁ES
▁bull
▁tract
CP
ser
▁economically
▁filters
▁continuation
▁inevitable
▁inexpensive
▁shield
▁queen
:28
▁Cape
▁tonight
▁Arm
▁negotiate
RP
▁epidemic
▁medicinal
▁Merkel
▁Bathroom
Time
▁Interview
▁Prison
▁3000
anti
▁Created
▁Initially
bound
Li
ste
working
size
nn
▁inspire
▁Activities
▁Tymoshenko
▁grandfather
▁pepper
▁Population
▁bitcoin
▁$4
▁uncertainty
▁stuck
▁MW
▁sensitivity
▁chess
SM
▁inclusive
28)
▁^
oh
▁Ages
▁educated
▁statue
iva
▁Feb
pal
▁Coca
▁Pla
▁transmit
▁wing
▁talents
▁apparatus
▁automotive
▁immigration
▁BO
pass
▁Tony
anov
▁appreciated
▁righteous
▁ranging
▁Polytechnic
▁protesters
▁Vegas
▁fer
▁scholarship
▁designing
-2017
die
▁crystal
only
:4
▁Holding
▁immigrants
▁Eli
▁Comment
▁Pages
▁Certification
▁accommodate
▁scratch
▁illusion
▁Mix
▁Maritime
▁Ter
EF
▁masses
▁organised
▁1.3
▁Arch
▁Isaiah
▁disc
:45
▁OR
Mon
▁SPA
▁Standards
ome
hl
▁220
▁accreditation
з
▁Schedule
▁prevented
▁Below
▁Goods
▁PE
eller
nc
tur
▁pigs
▁lovely
▁themes
▁perceive
▁reportedly
▁assure
mut
▁Protect
▁butter
▁Investigation
▁Mariupol
▁hurry
▁maritime
▁LORD
▁disabilities
▁dried
▁Vitamin
▁Synod
duction
PU
▁fitting
▁biology
▁administrator
▁insert
▁Kos
▁1959
▁acknowledged
▁Flu
▁2002,
▁2007.
four
iest
▁Recent
▁Rub
▁professionalism
▁87
▁Montenegro
▁glance
▁knock
▁Amazing
▁unlawful
▁Entertainment
▁WordPress
▁intimate
▁Colour
▁unfair
▁jury
▁Greeks
girl
▁dosage
▁extraction
▁attractions
ori
▁bonds
▁assert
▁transported
▁excluded
shop
▁capitalism
▁Ren
▁diploma
▁hunt
▁1955
▁attending
▁guilt
▁discussing
▁lion
1000
▁joke
▁Types
▁Accessories
▁Morocco
▁allergic
▁Session
▁Generation
ATE
▁fr
▁liberation
▁exceeded
sol
HS
▁insulation
▁Abu
ike
▁Ana
▁Olympics
▁Bit
fur
sey
▁Devil
▁psychologist
▁Roll
▁Ok
▁loose
!!
▁Track
▁м
▁Pr
▁strikes
▁fascinating
▁immunity
▁suspension
▁suspicion
▁fame
▁famine
▁rough
sel
▁Camera
▁undergo
▁accession
riv
22)
▁preparations
▁Contract
▁Qua
Bi
33)
nation
▁lu
▁Workers
▁elders
▁distribute
▁Slav
▁loses
▁atomic
FM
uda
▁bleeding
▁ideology
▁paradise
▁cotton
▁inherent
▁infectious
▁naked
▁Dia
▁catalogue
▁Sudan
▁́
▁distinctive
▁drill
HD
pat
▁variant
▁ceased
▁receiver
mash
▁Cy
▁evident
shed
▁Rio
▁heal
good
-22
▁Infrastructure
▁commodity
▁durable
▁synthesis
▁console
▁array
▁beginners
▁Shopping
also
▁modest
-24
▁ge
▁SI
IVE
▁networking
▁Toy
▁consultant
▁buttons
▁binding
▁mess
▁picked
▁Toys
▁Discover
▁pioneer
▁Programs
▁rocks
ł
▁Consumer
▁Observatory
▁spokesman
▁Congratulations
▁Hyper
▁astronomers
▁Gazprom
▁Robot
▁Golf
lle
▁Roma
▁Facts
▁forgot
▁attach
kiv
China
▁tail
elli
▁Phil
▁Same
▁searches
▁lifting
▁bowl
view
▁cosmetics
▁crossed
▁shades
▁fabrics
▁Premium
▁assurance
▁geopolitical
ben
▁cl
▁CPU
▁1962
commerce
▁Estonian
▁Than
ux
▁spouse
last
ule
▁commented
▁Volyn
▁manipulation
▁Florence
▁Storage
▁Participation
(4
▁lemon
▁Marie
▁Monte
maker
▁Cart
-2019
▁travelers
▁seminars
▁charts
▁arises
▁auditor
▁basket
▁treating
▁beverages
VE
▁traders
IST
ston
mov
▁Territory
▁unchanged
▁varied
▁fraction
▁patrol
▁Request
▁Successful
▁alloy
▁armies
▁deployment
▁synthetic
front
tis
▁Fri
▁fo
42)
▁beam
▁delight
▁Male
sign
74)
standing
:23
gia
▁lamps
▁Permanent
▁leisure
▁virtue
▁365
▁Trading
word
edge
▁distinction
▁reviewed
ugh
8)
screen
▁checks
▁Sumy
position
itor
▁myth
▁Virginia
▁swing
▁Guest
nova
▁blessings
oid
▁Julia
chy
▁advisor
ident
▁clicking
▁chains
burn
▁render
map
▁Lincoln
▁fiscal
▁Beginning
▁Liberty
▁Assistant
▁Leader
▁Believe
fit
hol
they
▁Vision
rot
▁Guardian
▁Sav
▁Estate
▁References
cultural
▁Hat
2013
ema
▁advocate
▁commitments
▁fi
TU
▁trauma
▁pizza
▁genius
▁altitude
market
▁testosterone
▁potatoes
▁references
▁Brian
ifie
▁Croatian
▁($
AZ
▁musician
ifier
▁poisoning
▁cluster
▁consisted
▁suck
▁Mir
▁Acts
▁tactics
▁Prepare
▁informal
▁doubts
▁83
▁Jupiter
▁delicate
▁kindergarten
▁puzzle
▁righteousness
▁instances
▁validity
▁demo
SK
▁1933
hood
▁Principles
▁CV
pr
▁login
▁Crown
▁М
▁comedy
▁1956
▁emerge
▁shapes
▁pose
▁Sep
ddle
note
▁Municipal
▁Chrome
▁Hidden
▁Smoking
▁mortgage
▁fatigue
▁Agriculture
eli
▁serial
lev
ids
▁Recovery
makers
23)
▁Beer
▁ch
Star
▁Med
▁steroids
▁kW
▁Peru
▁(5)
tia
▁planes
▁promotional
▁translator
▁drops
▁McC
▁94
▁interviews
yp
▁dentist
eri
ched
▁Lebanon
▁Serhiy
▁luggage
▁semester
▁freight
▁WITH
▁chip
▁Lewis
gie
▁Tam
band
▁fatty
▁thou
ulator
▁nationality
▁foster
Hamster
ille
oil
aged
▁ruler
▁hill
▁Menu
▁4)
▁Alcohol
▁brutal
▁identifying
▁Crisis
▁ventilation
▁Sofia
▁terrace
▁Workshop
▁dramatically
▁Wilson
▁Horizon
▁Domain
▁eliminated
▁81
▁NAS
п
week
lio
▁Sen
eta
hon
tom
▁Bet
lut
▁conf
▁NEW
▁reminder
▁deserves
▁wicked
PG
▁throat
▁Visual
▁Toyota
▁underlying
▁occurring
▁undertaking
▁shorter
▁competitiveness
▁Hits
▁viewers
NR
▁Electrical
▁violate
generation
▁Applications
anna
35)
▁kit
▁Organic
▁bears
▁planting
▁2020,
▁embrace
▁repairs
▁fence
▁dare
OK
urs
▁threaten
▁Attorney
▁Consequently
▁responses
▁wa
▁Options
his
dem
▁tag
German
▁powered
lish
anda
akov
second
▁punish
yard
chrom
▁raid
▁boards
18)
eni
▁LE
▁2000,
lim
▁Window
▁activate
▁disagree
▁expects
▁aging
▁Conflict
▁displaced
▁Charlie
▁touched
▁considerably
▁confirms
▁reporters
▁Judge
▁Ms
phe
▁CC
▁deployed
▁105
▁Increase
▁badly
▁barrier
5)
▁rep
▁Pur
▁notable
▁(29
▁appreciation
▁computing
▁slogan
▁Porsche
▁Guinea
▁isolation
▁newsletter
▁Activity
▁Skin
▁correspondence
▁RF
▁pulse
▁retired
▁(21
▁Selection
▁seventh
controlled
▁exceeding
▁startup
Up
▁Soul
▁infinite
got
bl
▁diamond
▁reservation
▁breaks
morph
38)
▁Oksana
▁Packaging
esteem
▁gases
▁vol
▁detective
▁Evolution
▁gym
AND
▁Explorer
kha
weight
See
▁bal
▁activated
▁Complete
After
▁Tre
▁governed
▁с
II
è
▁1919
cz
▁safeguard
▁kings
hem
▁fifteen
▁sophisticated
▁Uzbekistan
▁Delete
▁Alan
▁op
▁Fla
▁tags
▁Nar
▁upset
▁pit
▁2030
▁https
abi
ked
▁venue
19)
CT
▁segments
▁Currency
▁Response
▁charitable
▁iPad
▁meditation
▁steady
▁lens
▁Chernobyl
▁continually
uni
63)
▁Lock
▁Lan
▁Cher
▁goodness
▁mad
▁nutrients
ota
udi
▁Gate
using
▁teenagers
dec
26)
▁dies
▁bold
▁bow
▁Foot
▁Cherkasy
▁membrane
▁striking
▁Divine
▁sauna
▁radar
▁prescription
▁dining
By
east
▁89
▁casinos
▁interactions
▁journals
LT
▁Char
▁coordinated
▁proclaimed
▁Sad
IO
▁daughters
▁passports
▁Jen
avi
▁Philosophy
▁Possible
▁calcium
▁destructive
▁revenge
▁●
▁knitting
▁Ferries
▁hosts
▁Lower
▁confidentiality
29)
▁Brothers
mont
▁understands
▁Pavlo
logists
▁attributed
▁Indonesian
craft
▁Sel
▁occupy
▁surfaces
▁prevents
▁aroma
▁optimize
▁sends
▁Vy
▁secured
▁Tele
case
aro
easing
nis
▁Introduction
▁comparable
▁excellence
▁ideological
▁threshold
▁Appeal
▁excuse
▁Pizza
▁Sustainable
▁Cer
▁Honey
▁deadly
▁sunlight
▁Truck
▁Funny
▁Sergei
▁lesbian
▁Shu
▁polar
▁substantially
▁invites
▁presentations
kovsky
▁Koz
▁coastal
▁commands
▁bicycle
▁diagnostic
▁fare
▁1958
▁Hay
aire
▁worn
▁Rev
▁„
▁Neither
▁conceptual
▁Documents
▁philosophical
▁olive
▁Protestant
▁charter
rag
▁Heroes
una
▁chips
▁linguistic
bad
▁1953
▁renewed
Ta
Trans
36)
▁ruin
▁colours
▁3%
▁justify
▁discharge
aff
%),
except
▁agro
▁2%
▁Extra
▁creator
▁editing
▁hack
ral
▁Denis
▁prosecution
▁eligible
▁respiratory
▁renamed
SH
▁exploitation
▁revision
▁exported
▁tone
▁rape
lya
▁thrown
25)
▁Used
two
▁Led
▁Cities
▁briefly
▁Laser
▁Ag
governmental
away
▁coloring
▁gains
▁households
▁Tree
▁mounted
г
Fa
▁Babylon
11)
nel
▁contradict
▁Brother
▁pulled
▁Difference
▁Peninsula
▁Writing
▁unforgettable
▁overseas
IGHT
▁beast
▁bride
▁recalled
▁Presentation
sure
▁mount
▁impressions
▁boring
▁Revelation
hot
Where
leg
▁founding
▁Dur
▁Benefits
▁condemned
▁curve
TP
▁eaten
▁Jul
▁ver
84)
▁conception
esh
eau
▁Host
▁Sto
dal
▁Hold
▁Anywayanyday
▁Built
▁nevertheless
▁Prevention
▁Cre
▁OOO
▁Venus
▁cult
▁Birth
▁environments
24)
▁seasonal
Pre
▁nano
▁Ideas
Luke
▁nights
▁socialism
▁Topic
▁incidents
▁hired
▁1957
▁Pad
▁hence
▁bl
COM
▁sufficiently
30)
▁Kings
▁hi
▁lawn
▁injection
▁Speaker
▁Caucasus
▁Junior
▁Manufacturing
▁Pretty
▁inclusion
▁entrepreneur
▁motorcycle
▁Marina
▁fu
▁persistent
▁Poles
dress
▁Fuel
▁outbreak
▁afterwards
▁mere
▁AIDS
▁Steven
▁indoor
▁Movies
black
▁10:00
aver
hel
▁enhanced
was
▁Caesar
▁Distance
aud
user
▁fever
▁offense
bas
▁Mol
what
▁dimension
Soviet
▁MPs
▁yard
▁Associate
▁broader
▁murdered
86)
AF
▁Extreme
▁endless
IES
▁battles
▁tiles
▁Pack
UP
lem
▁arriving
▁magnitude
▁antenna
▁mines
▁cleaner
▁Fabric
▁eager
▁Fitness
▁foam
▁Switch
▁4.5
▁Crazy
▁Task
▁precision
▁Belt
▁journalism
▁Cyber
▁surveys
▁Factor
▁VIP
master
▁notify
▁1954
▁Yulia
TY
7)
▁loaded
Fe
rib
▁profiles
▁recovered
▁sculpture
▁subscribers
▁Sevastopol
▁ammunition
▁indicating
▁FIFA
▁Primary
▁exotic
▁hook
▁stainless
▁Fleet
▁analog
▁insects
▁overwhelming
▁Resource
▁bands
▁DS
▁delayed
def
spec
ART
▁MD
▁defended
▁Route
▁Bird
ril
▁Owner
▁Blinds
▁inches
rol
▁dioxide
▁remedy
▁accent
▁arising
▁FI
pad
▁demonstrates
▁Upper
pack
sub
Na
eration
▁arrow
▁1-2
▁colorful
MU
▁Fan
▁Noah
▁GA
wall
Ukr
▁pushed
▁Pregnant
▁pursuing
▁pursuan
▁internship
▁peculiarities
▁assignment
!)
▁Anglo
▁riding
▁Apr
▁Ky
ANT
tail
Corruption
yev
first
▁3,000
▁boot
▁intent
▁failures
ARD
▁laying
▁Tourist
▁blocking
▁EP
▁militants
ela
▁enjoying
27)
▁Pharmaceutical
▁Religious
▁bubble
▁Attack
▁Position
▁sperm
▁Nokia
▁unclear
▁wet
▁preference
▁decor
▁Patent
▁budgets
▁carpet
▁cited
▁Designer
▁deprived
▁accumulated
Yes
mod
▁Costa
▁1-
57)
▁Fourth
▁absorbed
▁91
▁el
▁Psycho
▁Bosnia
▁fires
▁Monetary
▁hypothesis
▁featuring
▁foremost
▁Conduct
▁equip
▁Fur
▁counting
▁occasionally
▁dec
▁accordingly
▁novels
▁Dub
▁hanging
▁Twin
▁thereof
▁rebels
▁dominated
▁Victory
▁kick
OV
DM
LL
pel
▁Volume
▁gentle
▁BY
▁anywayanyday
▁ultra
▁investigating
▁gardens
▁banner
8%
▁intends
▁Assad
▁outlets
▁clearance
▁bin
AGE
▁Showing
▁bell
▁Catholics
social
stock
:24
▁Offer
info
▁temples
▁execute
▁Pictures
(5
▁coordinate
▁Thor
▁su
mple
▁Rooms
▁12:
PORT
▁shit
▁positively
▁oceans
▁97
▁Anthony
▁horror
▁prophecy
▁spectacular
▁stakeholders
▁Iryna
▁ceasefire
▁scrap
▁Favorite
▁colonies
▁Teachers
79)
▁Intellectual
eon
▁Issue
▁tie
mates
▁Coach
▁researches
▁pipes
▁UV
▁API
▁thesis
GI
▁frames
iah
chev
▁newborn
▁Patients
gel
▁margin
▁Healthy
▁ti
▁congress
▁Passenger
▁balcony
▁encouraging
▁securities
dam
▁demographic
▁Late
▁offshore
▁Antarctica
▁tile
▁pets
.[5]
▁earnings
▁11:
▁sal
International
▁Genesis
cil
▁Counter
▁Drink
▁Bond
▁wound
▁Yan
▁Secondly
▁gu
rey
Tech
▁lakes
▁Mathematics
▁compulsory
▁corridor
▁invalid
▁Cast
▁nomination
▁defending
▁Banks
▁Prof
▁Burn
▁3.0
UB
▁Pipe
▁inherited
ost
hil
▁incorporated
Not
▁Sleep
▁Strip
▁shade
▁1929
oni
▁ISIS
hir
▁poster
▁Antarctic
▁TE
39)
▁fuck
.4%
▁Chernihiv
▁Paradise
▁Volkswagen
▁subsidies
▁wives
▁Decree
▁breakthrough
ón
▁mortality
▁2005.
▁voices
▁Elena
▁Christopher
▁Election
▁Liberal
▁Doll
▁stamp
▁reminded
▁Posts
held
mond
▁Going
Best
white
▁databases
▁1936
▁Dev
▁evolve
▁Mega
▁deck
▁strengthened
▁incorrect
▁premiere
▁breeding
para
ici
anta
ope
▁Pentagon
▁easiest
▁twentieth
▁Jersey
▁Overview
▁Miami
▁Sarah
-35
▁marking
▁glue
▁Scripture
▁Bull
▁coral
▁sorts
▁Reply
SL
▁(+
piece
▁differs
▁Schools
▁screening
1.1
pay
55)
founder
CD
lac
▁Concert
▁2001,
▁warrant
▁LG
▁Processing
▁implications
▁companion
▁ashamed
▁discoveries
▁creature
ESS
TF
▁provinces
▁Pin
Your
▁dragon
▁Eng
sil
▁lobby
▁Yuriy
ao
▁damages
▁comp
б
▁scored
May
▁pie
78)
door
▁Cuban
▁Au
▁replacing
▁coincide
▁5,000
▁SH
▁trainer
Can
▁packing
▁Marx
▁112
▁diagnostics
▁Ability
▁comprise
▁restriction
▁Lanka
▁Masters
.99
▁coupon
lex
▁traces
▁Poor
logist
▁Understanding
▁Т
rab
vas
▁Hans
▁releases
▁0.1
▁diplomats
▁clinics
▁Dry
▁implant
▁Zi
five
▁Bouquet
▁Exercise
▁Satellite
▁subsidiary
▁Adventure
lian
tsi
▁attributes
67)
▁selecting
vic
▁threatens
▁arose
▁Fr
▁Spec
▁Reports
ui
▁licensed
▁lasts
▁relieve
▁admire
▁240
tas
▁ATO
▁measurements
gram
▁Flag
bie
▁shortage
▁Chemistry
▁franchise
▁magnificent
▁nowadays
▁Therapy
▁kilometres
▁cultivation
▁Excellent
▁spacious
▁Fresh
pur
zar
evsky
▁renowned
▁Autumn
▁exert
change
▁Cas
▁parade
▁Million
▁1.0
OUN
oke
VPN
80)
▁twin
▁fats
▁AP
60)
ame
▁Regions
color
▁ft
▁Analytics
▁penetration
▁vaccination
▁Stories
76)
▁asleep
▁exile
▁opponent
▁ecosystem
▁Vin
▁Roger
▁combinations
▁Miller
▁Match
48)
64)
▁particle
has
▁1938
▁resorts
▁corners
Read
▁mod
▁columns
▁confirming
▁HA
▁pills
-23
95)
▁pitch
▁pad
▁dressed
▁holders
▁Drug
▁Die
▁privilege
▁trick
Applause
▁Efficiency
▁Holocaust
▁Kennedy
▁Philadelphia
▁baptized
▁exploring
▁mosque
▁deficit
6)
▁Patrick
ality
▁lawsuit
ij
▁barely
▁porn
▁activist
▁balls
▁greeting
▁pushing
▁"...
PI
▁max
than
foot
CL
wind
Ka
SON
▁leaf
120
lli
rom
▁triumph
▁Jaluzi
▁penalties
▁24-
▁Av
▁salaries
▁premature
▁racing
▁oath
11.
▁Ground
▁Commander
▁scenarios
▁suite
NU
▁dev
▁Homemade
▁Kom
▁cosmetic
oth
▁Deal
90)
▁Loss
45)
▁Origin
▁dwell
Every
▁Coll
▁Updated
73)
▁Hour
:01
▁businessman
▁Ant
▁scar
News
ssel
▁rises
▁1991,
▁sew
▁sheets
▁tear
▁compound
En
▁needle
▁Fortunately
▁obesity
▁edema
1.5
▁undoubtedly
▁reproduction
▁flee
▁Congo
▁renewal
▁debts
▁hoped
▁donor
▁fails
tone
▁linear
zz
▁nail
▁originated
▁Cookies
▁practitioners
▁shaped
▁Leaders
▁rated
▁sponsor
▁oils
▁DJ
UE
▁0.2
▁1900
▁covenant
▁yourselves
▁Respect
▁cooperative
▁radioactive
▁insulin
▁locked
▁retreat
heim
photo
▁willingness
▁Yoga
ode
▁ingredient
▁poem
▁capitalist
lea
▁Sil
proof
people
▁professors
dding
▁provoke
▁Persons
gio
blo
2012
▁Files
▁wounds
▁manifestations
/10
▁curious
▁Couple
▁uncle
▁Buying
rub
▁planted
tim
▁rays
adi
▁Leg
uf
▁va
▁portable
rio
▁modification
▁analysts
grade
.[6]
soft
MENT
especially
▁variants
▁Corruption
bn
▁GT
.9%
▁1934
:27
▁(26
▁Antonio
ο
▁Depression
▁hygiene
▁struggling
▁gasoline
▁geological
▁Masturbating
97)
▁nurse
▁template
▁financially
▁stating
▁Bak
ees
standard
49)
▁shipment
ALL
68)
▁surrender
ancy
▁deploy
cient
▁commerce
34)
▁fortune
▁theft
vat
▁Animals
▁Kind
▁Newton
▁Bru
tag
▁Calendar
▁stunning
▁feast
▁reproductive
▁Ev
▁Walk
▁(28
Some
▁claiming
47)
▁1937
▁]
▁valve
▁Mario
▁paths
▁highlighted
▁respects
▁granting
▁Leo
▁Ski
▁shore
▁approached
▁atoms
▁Mine
AV
▁mayor
▁Kin
▁govern
▁freeze
▁Buddhist
▁Campaign
▁UEFA
▁nickname
hereinafter
▁Unique
▁Charity
▁Busty
▁1999,
91)
▁Jobs
▁sm
sport
▁fatal
▁meta
▁Languages
▁Person
▁tent
▁RT
MM
▁Founded
▁Vote
▁tram
▁suppose
▁valued
▁CU
▁forums
▁launches
ific
mini
block
nut
Box
▁teachings
▁comprises
▁exhibit
lab
▁coordinates
▁cemetery
▁civic
▁unsuccessful
▁LTD
▁alphabet
▁wallpaper
▁Allies
▁ga
▁Portrait
▁golf
▁Gender
▁ruins
▁broker
▁pays
▁Petr
▁Logistics
▁heated
▁tactical
▁prisoner
depth
▁withstand
▁systemic
▁agrees
iki
rm
▁Trip
▁kindness
▁Syn
▁variations
▁Bomb
▁Pennsylvania
▁relevance
▁supreme
▁diplomacy
31)
▁minorities
▁convicted
▁Naval
▁persist
▁Cop
▁commissioned
▁shed
▁Gran
▁Allen
▁Plate
▁Challenge
ison
wheel
▁indication
▁TB
▁attracts
▁attracting
▁SM
▁Generally
▁lit
/15
▁[1]
fulness
EG
▁Electronics
▁mold
▁Trinity
▁capacities
▁decreases
▁Az
▁Fly
▁pal
▁von
▁Paint
▁colored
▁proves
▁knee
▁advertisement
▁asian
▁Graduate
▁unread
75)
▁appoint
І
▁investigated
just
▁basin
▁Dal
▁tensions
án
▁Ways
▁Responsibility
▁allegations
▁clarify
▁drum
▁documented
IG
69)
▁Bin
▁expecting
nch
▁shirt
▁deeds
▁CF
Pi
▁Ole
▁Pool
Pe
language
▁Franco
connect
▁lean
▁mounting
▁episodes
dio
member
▁mainland
▁nails
unch
▁exceptions
▁prepares
▁poison
▁collision
▁physicist
▁Manual
▁physiological
electric
▁outlook
▁Senator
▁Hostel
▁pour
▁CIA
ili
▁Touch
▁cor
▁speeds
▁shoulders
▁2004.
▁advances
▁tu
ONE
three
▁Grade
▁dealt
imi
▁economical
▁Fig
99)
▁Dnieper
▁Migration
▁Password
▁flew
▁edges
▁Alaska
▁↑
▁₴
▁prohibition
▁shine
▁overview
▁belonged
▁Range
▁Sol
▁downloaded
worth
▁Mayor
▁Feed
▁subjected
▁Dimensions
▁prosecutors
▁Ul
▁equation
70)
▁dresses
▁cookie
▁manually
▁Guarantee
▁SU
▁Provider
shin
▁appeals
▁praying
▁Kol
Sh
▁lacking
▁arena
▁Wheel
▁unauthorized
▁aggregate
▁matrix
▁basketball
▁Database
▁treaties
▁Strait
▁Hydro
▁bias
order
▁Cable
▁chairs
▁monopoly
source
▁750
▁Wait
▁athlete
▁doctoral
▁destroying
▁Buyer
▁Thousands
▁slot
▁retained
▁ART
▁extends
ometer
Sha
▁Issues
▁transplant
Gen
▁AB
▁caution
▁pharmacy
▁Simply
▁lottery
▁confusion
▁cancellation
minded
▁plaster
▁jazz
▁Scene
▁humor
▁Jazz
▁pathology
43)
▁Interest
▁attachment
▁Connection
▁RC
▁rings
▁prolonged
FO
▁1932
SB
▁candy
▁conviction
▁hackers
▁mechanics
0°
base
▁archives
▁teens
▁1935
cial
2009
▁threatening
▁environmentally
▁loads
▁predictions
▁Luc
very
▁Confederation
▁Eventually
▁diagram
▁addressing
▁killer
▁conditioning
pic
City
▁passionate
▁enters
▁drove
▁gang
ered
▁inhabited
▁dealer
▁icons
▁dangers
▁Sho
▁utilize
version
▁delays
▁Zoo
87)
▁Pas
▁heavens
▁UP
own
rog
dict
▁Dun
▁limitation
▁charm
▁injustice
41)
▁accumulation
▁clergy
▁comparing
▁dessert
▁nitrogen
▁observing
▁endure
▁electromagnetic
▁Assessment
▁DTEK
▁Various
enberg
▁disappointment
MD
▁liable
▁Myth
▁realm
ines
▁(6)
▁presenting
▁Neo
▁texture
▁Clients
▁Stan
giving
▁Volunteer
▁historian
▁generator
ae
▁Fin
▁13:
Germany
▁helicopters
glass
▁EM
main
▁Sites
▁Minimum
▁believing
▁competing
▁defensive
▁penetrate
▁eleven
▁Temp
▁attain
▁niche
-02
37)
▁cow
▁weaknesses
LC
fan
▁dreamed
▁Romantic
▁fits
▁Maps
▁О
▁dig
52)
hotel
▁В
К
rig
▁Ticket
▁cal
▁constitutes
▁affection
osphere
▁palm
▁processors
▁CL
▁indirect
▁jam
night
▁embedded
▁McDonald
▁distress
show
▁Remote
writer
▁hypo
▁spark
▁Steam
▁:)
▁Prix
▁generating
▁Growth
101
▁Riga
40)
▁cylinder
▁Drop
itz
culture
▁Kate
Am
▁amino
NT
72)
▁races
▁screens
▁Problem
lus
▁costume
▁Wave
▁peer
lf
▁1952
▁Disc
▁sir
▁Championships
▁UC
Cola
President
▁adjacent
▁aggressor
▁analyzing
▁wardrobe
▁contributing
▁Warm
▁Darwin
▁dawn
46)
▁undergraduate
▁activation
▁115
▁verse
▁overnight
lv
sus
▁dietary
specific
▁Kri
▁95%
▁dismissed
▁tan
▁pig
▁realities
▁pairs
World
▁manuscript
▁bishop
love
▁veterans
83)
onia
▁Aqua
▁Meta
▁AV
▁Chancellor
▁catastrophe
▁Clothing
▁elaborate
▁martyr
▁asylum
▁snake
▁Ultra
▁Marvel
▁highway
▁Publishing
▁Fight
▁Grace
▁stocks
▁perspectives
Oh
▁PVC
▁bombs
nz
▁viewer
▁Ron
▁Xiaomi
▁2.2
rite
▁punished
93)
▁ni
▁saint
▁3-4
▁shoe
▁Doing
▁pilots
-27
UT
▁encourages
▁origins
▁Choosing
▁Ethics
▁deceased
▁immense
▁entries
▁inquiry
▁racial
▁secular
▁humble
▁Hopefully
[12]
▁DA
▁Stepan
▁caring
-50
▁distances
▁pp
▁math
▁prop
▁optimistic
game
▁Ryan
▁Playing
KE
ssa
kor
school
▁5000
oci
-40
▁bullet
ggle
▁1200
▁poems
▁Tours
▁Kid
home
encies
▁melt
▁conform
▁escort
▁rejoice
▁tackle
▁microwave
▁pork
▁Bedroom
▁Cream
▁Adrian
Lo
chu
nikov
–20
▁forty
▁Directorate
▁1.6
pot
GS
kol
▁Customers
wise
▁Salt
▁Ven
▁beans
▁successes
▁peasants
58)
▁hryvnia
▁myths
▁Device
FF
▁Hunter
▁evaluated
-0
▁poorly
▁0.3
▁medals
▁drain
▁Agrarian
▁remedies
▁restructuring
▁Wholesale
▁orgasm
▁Folk
▁Stefan
▁impacts
▁Saturn
▁Sugar
▁ko
▁Arsenal
shchenko
▁nominated
▁Certainly
▁fairy
▁128
▁Baker
▁Albanian
▁Rover
▁1.4
▁cuts
▁Michel
public
▁Cossacks
Japanese
▁Gray
Old
▁IQ
▁mate
tile
▁leak
▁ser
▁honestly
▁weigh
▁(27
▁2006.
▁reactor
▁encountered
▁mag
▁Except
▁nuts
▁owe
▁Jar
▁atmospheric
▁discretion
▁hepatitis
▁imprisonment
▁Carolina
▁trafficking
▁Lutsk
rb
▁Lighting
mag
▁Feel
▁rolling
stru
▁celebrations
71)
▁retro
Col
▁historians
▁incorporate
guard
▁Turks
▁spoil
▁cups
▁Vit
56)
▁qualitative
▁(32
ree
tern
nat
▁partition
ā
▁Located
▁Secretariat
▁seizure
▁tune
▁Purpose
IE
tha
▁tomatoes
oop
▁herbs
▁Macron
▁Models
▁Huge
▁Keywords
▁П
▁bridges
round
WA
▁Causes
~
▁Romance
▁earning
tina
ink
store
lod
clock
▁kidney
▁chi
gov
▁geographic
/8
▁landed
▁engaging
▁Supervisor
▁Renault
1.2
▁breakdown
▁Balance
▁intuitive
▁Yesterday
▁gravitational
▁variables
syn
▁lifted
▁raises
▁Enable
EV
▁attitudes
▁pupils
▁expressions
stead
arrow
without
▁Mit
▁Birds
grant
job
-00
▁cruel
▁sentiment
▁discomfort
▁elect
▁allocation
▁paste
▁Spiritual
[13]
▁polymer
tov
▁Specialized
▁qui
▁morality
▁PU
une
▁suited
▁fed
▁dough
GP
-03
▁cons
▁doll
rob
keeping
▁Sure
▁partnerships
▁professionally
fr
▁Slot
▁Def
▁Constant
GR
▁licensing
▁likelihood
▁procedural
▁Yobt
▁Heavy
▁ratified
▁Dublin
▁Housing
▁Clo
▁stack
3,000
▁Worldwide
aka
▁makers
▁Manage
dro
hai
shko
.7%
▁disrupt
▁founders
ease
▁Bot
▁probe
▁notably
Genesis
Т
▁kde
vil
▁Palm
▁advertisements
Ru
▁lets
▁notified
▁makeup
▁Reference
▁landscapes
▁UAE
▁fold
▁Break
▁Testing
tron
▁abundance
▁indispensable
▁repression
▁Cambodia
▁Neuro
▁triangle
▁provocation
▁Opposition
▁Discount
▁encryption
▁attempting
fra
▁sunflower
▁Joy
▁Annex
▁turnover
zel
▁assessed
▁Spin
▁quest
▁viral
rail
▁Boys
▁Juan
▁PP
AI
▁disasters
▁critic
present
ured
▁Bug
▁prevail
kes
▁ballet
▁Carol
▁additionally
▁horizon
▁hunter
mol
BR
▁Shoes
▁$10
9)
lk
▁Luxury
▁donors
▁Provision
▁washed
▁gel
▁Rep
udge
▁ka
65)
▁publishers
▁criticized
▁Advantages
hur
may
▁SW
▁Blu
▁defenders
▁fa
▁75%
First
▁monitored
▁Bol
ages
▁Sleeping
TING
▁fragment
▁manifested
82)
▁Friend
▁NGOs
yer
▁Hawaii
▁incomplete
▁spec
▁wrap
▁Anniversary
▁Capacity
ч
▁Shakespeare
▁Netflix
▁defining
▁preserving
▁yeah
▁ghost
▁consequently
▁Leon
▁Morgan
lessness
▁therapist
▁apples
++
▁Native
▁wi
▁backed
54)
App
▁richest
USD
▁Tank
▁continental
▁4.0
▁Scr
▁illustrate
▁rebel
▁colon
▁steroid
▁elevator
▁Irina
▁SCP
▁Cleaning
▁detector
tit
▁ur
▁Arena
▁Messenger
▁abundant
▁destiny
▁restoring
▁casualties
lines
▁Healthcare
▁motto
▁Reduce
▁Oriental
▁(18+)
▁bot
ago
iel
▁stopping
▁relates
▁VR
RN
89)
▁berries
▁Extract
iro
park
gro
KS
▁surprises
product
▁Ari
▁Porn
▁fathers
▁disadvantages
▁colleges
▁certainty
kom
live
ios
▁2.1
▁asteroid
▁Detail
amo
▁arrives
unk
▁shocked
▁Attention
▁Catherine
▁Copenhagen
▁hormonal
▁Muhammad
▁WhatsApp
▁flame
▁pretend
▁Regardless
▁Collect
▁boundary
▁structured
▁unlock
▁deliberately
▁Organizations
say
▁undertaken
▁damn
third
▁bishops
▁attribute
pper
▁scales
М
dri
▁farmer
Free
▁1951
▁spirits
▁jacket
8,000
gul
▁Indians
▁Chernivtsi
▁JavaScript
▁ribbon
▁Kho
tell
▁Yemen
▁Operating
▁analytics
▁Grandma
50)
▁tale
▁babe
▁Chess
▁Bright
lift
▁EL
▁qualifications
▁midst
technical
▁compositions
Cha
▁simplest
▁static
▁tractor
▁Normal
98)
▁absurd
▁privatization
▁Cotton
▁biography
▁unconscious
▁totalitarian
▁physicians
[14]
nyi
▁revised
▁rejection
▁Warning
▁urine
▁..."
▁preventive
ICE
▁noticeable
ault
▁Cruise
▁Images
▁$100
51)
▁sexy
▁proclaim
▁listened
ito
▁tolerate
▁harmonious
▁draws
▁rival
Even
▁halls
anka
▁wipe
▁textile
ering
▁MH
▁Mah
▁UGCC
▁conjunction
▁horrible
▁manipulate
▁messenger
▁cousin
▁Template
▁Dental
61)
▁Davis
▁Breath
▁Monster
▁dedication
Well
▁lenses
▁Jam
cid
▁Egg
▁Storm
otic
▁outlined
▁Judges
▁boom
▁Jun
:29
Article
▁avoiding
▁pi
chemical
▁gum
▁tire
▁apostles
usa
▁30-
have
erie
▁dirt
▁visas
▁Naturally
een
▁Leather
▁Twenty
▁dwarf
▁fountain
à
▁gesture
▁grasp
▁nightmare
▁sailors
▁ambitions
▁forecasts
▁cement
▁severely
0000
▁Israelites
66)
▁Neu
▁eighth
Ne
LAND
▁Gall
emon
50,000
2.5
script
▁fundamentally
▁Rud
shev
ete
▁Mik
MG
▁habitat
▁investigators
▁sn
charge
▁Format
▁pla
▁Rob
▁Effects
fla
▁volcano
▁des
▁warmth
85)
▁compassion
▁reservoir
▁simplicity
▁absorption
▁ultrasonic
▁Douglas
▁Framework
▁Integration
▁Hy
▁lonely
▁earthly
▁creators
▁Advisory
▁shelf
bach
▁anabolic
▁dressing
▁Methods
▁Brain
▁Ann
host
▁Hel
still
books
pos
Black
▁shots
▁reminds
▁phrases
62)
▁Koh
▁Hours
▁mutually
▁ATM
▁renew
▁blast
▁Solution
▁warn
9.00
▁Renewable
▁Tournament
▁Venetian
▁Monument
▁soccer
▁tasty
▁storing
▁LGBT
▁24/7
:26
▁bind
▁inappropriate
▁hostile
▁simplify
▁%2
pm
▁Justin
▁20,000
tiv
▁Panama
▁Eyes
boy
▁amended
▁technically
Ga
RM
ido
▁suspend
▁Receive
▁dominate
9.99
▁Gene
▁Valve
▁MY
59)
sent
▁Massachusetts
▁Raspberry
▁Tobacco
▁deficiency
▁graduation
▁Frankfurt
▁Erotic
▁altogether
▁balloon
▁binary
▁ru
▁Potter
▁Fab
▁relaxation
vian
▁foreigner
▁underwater
▁Jon
Pri
etta
PM
▁outline
▁Colombia
value
▁Minor
production
▁phases
▁Dogs
lyn
▁accumulate
▁initiate
amine
▁Bud
zing
▁architects
▁executives
▁gradual
▁Kam
▁Hole
▁Jay
▁suspects
mg
▁cafe
▁Adult
▁interpret
▁Dol
▁Fantasy
▁lunar
▁plague
cco
▁vivid
▁describing
▁Barack
ected
▁princess
▁com
▁Mod
▁organizer
▁publisher
▁Giant
▁sincerely
▁Artem
▁Tru
▁eve
▁disclosed
mia
▁wondered
/5
▁Hum
▁Bul
▁Cab
▁sells
evo
tent
brand
▁Southeast
mid
▁assign
BE
▁Citizens
▁Sum
▁sw
▁amendment
BER
▁Accordingly
▁Alfred
▁Dildo
▁refrain
▁shelves
▁audiences
▁virgin
▁Desktop
▁Montreal
▁useless
▁weird
▁Kevin
▁flock
53)
▁disappearance
▁billionaire
lee
▁Embroidery
▁deadline
▁Phase
zan
design
stick
rating
▁labels
▁joints
▁Titan
▁bunch
▁lending
▁startups
▁bombing
▁tin
uli
▁Cancel
▁prayed
▁Shell
▁TH
▁inscription
ground
:31
▁advancement
natural
Atlantic
▁insisted
▁informational
▁Sheet
stat
▁privileges
▁generous
rine
rator
▁Zu
▁facade
▁Document
▁adapter
west
▁aquarium
▁robust
▁celebrating
▁guides
▁frost
▁Buddha
▁suspicious
▁Impact
▁equity
▁wool
▁protocols
graph
yne
88)
▁administered
cake
race
▁Ang
▁Europeans
▁Develop
▁rabbits
roid
▁Corn
▁grains
osi
2011
written
▁confront
▁spam
▁refuses
git
▁rulers
Lviv
▁boots
▁fulfil
▁bachelor
▁mathematician
▁practicing
▁Crystal
▁neural
▁Rescue
.8%
crypt
▁Chan
3/
▁rally
▁cigarette
▁Laws
cycle
Commun
RD
▁accountable
▁editors
▁assembled
▁sentences
road
▁missionary
AG
▁Hit
▁Slots
▁bass
▁recognizes
Gra
▁interpreted
▁Chain
▁1,5
▁Finding
temp
▁vent
FR
▁Directory
▁Scan
Th
▁Played
77)
▁expose
▁Wonder
81)
▁Affiliate
▁Brigade
▁Conservative
▁Schengen
▁Treasury
▁spiral
▁Condition
▁Colonel
▁Franklin
▁soap
▁dye
▁clay
▁fitted
▁RS
▁Winner
▁relaxed
Inter
▁witnessed
▁elementary
▁pronounced
▁Allied
▁closure
▁fashionable
▁tick
2,000
▁Grey
▁Signs
▁Fre
IAN
▁sup
▁Bil
▁risen
▁104
▁te
cost
▁Draw
▁Xi
▁1997,
▁beta
eno
▁rack
▁Either
▁Klitschko
▁Mechanical
▁embryo
terdisciplinary
▁welding
▁Kuwait
▁glucose
▁ratification
▁tumor
▁screenshot
▁Nepal
bird
▁resolving
▁Medium
▁Innovative
▁infant
uv
stop
TB
mur
▁HO
▁Recommended
▁Reich
▁batch
AH
Ko
▁females
CM
therapy
▁190
▁Meat
lau
94)
uma
▁motives
▁den
lies
▁triple
-100
▁Seller
force
▁connects
▁Norman
▁modifications
izz
▁sealed
5.00
▁Millions
▁monarch
▁adjusted
▁Unity
▁tribunal
▁swallow
decentralization
▁coordinator
▁parcel
▁Above
▁timing
▁philosopher
▁rows
▁Lip
▁burst
▁fruitful
Romans
▁10-
▁authorization
tum
▁hospitality
▁mentor
▁Vas
▁handled
▁arc
▁Pl
sight
▁failing
▁Seed
dging
stage
▁fertilizers
INT
▁suppress
▁Jet
▁inch
▁2003.
▁counted
▁pixels
▁sights
▁tar
▁Qu
▁Coal
▁OP
▁Door
mobil
Day
▁Kerch
▁Character
▁Ecumenical
▁Happiness
▁caffeine
▁evacuation
▁indigenous
▁luxurious
▁narrative
▁preceding
ы
▁thematic
▁Delta
▁profitability
▁dictatorship
▁barrel
:59
▁accountant
▁Begin
▁Uniform
▁openness
▁carbohydrates
▁heir
▁Cave
▁armored
▁Walter
More
▁$6
Love
corn
▁nest
French
▁terminate
▁kills
▁formerly
▁Advisor
▁Fit
▁(50
aternity
fri
▁Erdogan
▁Jonathan
▁Stainless
▁Surgery
▁Symphony
▁anointed
▁cathedral
▁communicating
▁Replacement
▁competitor
Tube
▁evolutionary
▁countless
dium
▁wolf
▁Tiger
▁manifestation
▁governmental
▁hills
▁Portable
▁Ferry
▁lawful
▁WI
▁Musk
Business
▁Plato
▁conquered
▁exhaust
IX
▁locally
▁drag
▁reg
▁5)
walk
▁Clark
ecu
▁bored
▁MT
pac
lain
▁Shin
▁Covenant
▁instinct
▁presidency
▁Sophia
▁Husband
▁Forecast
▁subordinate
▁Fred
▁monster
▁Unknown
▁neighbours
▁Leonid
RR
▁miracles
▁minus
▁mln
▁merger
▁Lawyers
▁Que
▁Downloads
tta
▁travels
▁confession
▁winds
▁strangers
▁Bath
▁MAR
▁Grow
sided
▁Journalists
hill
▁sustained
▁mixing
Other
▁Kot
▁Tale
▁drilling
▁XXX
great
ool
▁regimes
▁clause
▁bronze
▁Stadium
▁Hamburg
▁Pension
▁Exam
▁Yandex
▁Disease
▁Kelly
▁Greenland
▁106
gus
▁honored
▁Few
▁Fed
▁lips
▁Cake
▁projection
▁commissions
trial
▁fulfilling
4,000
urge
▁DR
titude
Ar
▁Reserved
Are
▁Lind
ка
system
▁pensions
flu
▁Secure
▁shake
▁Comfort
shire
▁Aluminum
▁Apparently
▁Monastery
▁Watchtower
▁vocabulary
▁widow
▁Married
▁Anything
▁—1
▁Exclusive
▁rigid
▁issuing
▁Mai
▁peacekeeping
▁Liberation
▁floral
▁correspondent
▁Actor
▁problematic
RG
itt
160
▁Thought
mmer
rah
▁PER
▁sec
AK
normal
East
▁exhibits
▁justification
▁2.3
ridge
▁ornament
tti
ois
▁Coming
▁slight
ncy
08)
▁Ref
▁hazard
‐
▁Charitable
▁Halloween
▁Judah
▁Maintenance
▁Shadow
▁umbrella
▁Lugansk
▁threw
[15]
▁professions
▁inventor
zov
▁Franko
▁enforce
▁cardboard
▁methodological
lessly
▁commanded
logic
▁varying
▁defect
▁explanations
▁vaccines
▁appearing
install
About
through
rav
▁ally
▁Mykolaiv
▁Ihor
▁Ukrain
fest
max
▁NY
agan
▁Employment
▁shepherd
▁animated
▁Apollo
▁firing
▁leap
▁Approximately
▁spatial
▁thermo
▁ritual
▁102
▁depicted
▁Legend
▁likewise
▁UOC
Book
▁emphasizes
▁mor
▁prediction
naya
▁Dam
▁LO
▁CAN
▁Forward
cade
Work
when
Good
▁Andy
▁Multiple
▁devote
▁pledge
guide
09)
▁specification
▁Gri
▁maintains
▁1994,
(6
RAN
▁Amnesty
▁Liverpool
▁Stanislav
▁negotiating
▁simplified
▁quantitative
▁cartridge
▁slaughter
▁Brief
▁Algeria
▁everlasting
▁nominal
▁Wireless
▁Alpha
▁Discussion
Saxon
▁keen
▁refined
rock
▁1992,
arian
cel
▁shortest
▁1931
BM
▁Authors
▁accompany
fashion
uga
modern
special
▁Expect
▁configure
▁bloc
▁blank
96)
quire
▁casting
▁Reforms
▁objection
NP
▁compartment
▁eliminating
▁fortunate
▁obligatory
▁primitive
▁Adobe
▁queue
▁domination
▁Scholarship
▁Retail
▁circular
oso
▁3.1
bla
▁debtor
ption
▁indirectly
Red
flow
bia
▁Mali
▁Words
nin
▁sporting
▁keywords
▁Zen
▁hinder
noy
▁qualify
▁suits
▁dwelling
cas
Kiev
▁bat
▁lane
keeper
▁gates
▁ineffective
▁2.4
▁Ny
▁Mun
▁congratulate
▁Songs
▁cooked
▁prophets
▁wondering
▁Lie
▁finances
▁Jamaica
▁Symptoms
▁composite
▁festive
▁multiply
▁stipulated
▁ugly
▁Danube
▁bulb
▁1912
▁multinational
▁Moving
/12
▁NI
▁XIX
frame
▁realise
▁exchanges
▁Marshall
▁insult
rain
▁Semi
▁understandable
▁tribe
▁Gam
▁imperial
▁der
▁Nazis
MT
[2]
▁Term
▁outlet
6,000
▁rope
▁exams
▁Monitor
▁1995,
▁proceeds
▁economists
▁+380
loss
▁Login
▁appealed
ots
▁Electro
▁Gla
sheet
▁Combat
▁delegates
▁casual
▁Bangkok
▁Damascus
▁Statute
▁garbage
▁perfume
▁severity
▁deciding
▁Module
▁verified
▁Himself
▁systematically
Te
▁contractual
▁seas
▁disability
▁canonical
▁nodes
▁surround
gli
▁Vehicle
▁colleague
▁Cra
▁handful
kra
▁clip
Р
▁setup
▁globalization
gers
▁Pic
В
▁responding
▁optional
▁tweet
▁Players
raz
both
▁thankful
oi
uro
001
▁boarding
▁Howard
RL
▁CP
▁negatively
▁Holodomor
▁Puerto
▁Temperature
▁dictionary
▁glorious
▁Quebec
▁Regiment
▁pencil
HT
wash
▁Progress
▁businessmen
▁Implementation
▁Shower
▁editions
▁romance
-09
▁dump
▁Dave
▁bonuses
▁axis
▁stereotypes
ILL
▁Machines
iza
left
▁rendered
▁bud
Sc
▁troubles
famous
shaped
gle
▁oriented
▁delivers
▁quietly
▁rewards
▁sta
lav
thirds
▁Glu
million
kal
▁aliens
nge
▁announces
▁digest
▁Lawrence
▁baptism
▁fierce
▁tuberculosis
▁uncomfortable
▁Melbourne
▁stairs
▁voluntarily
▁Uzhgorod
▁grey
▁Fetish
▁escalation
Footnote
▁Dreams
▁armor
bury
gard
▁Maya
▁Hills
ager
▁Flat
▁Eating
▁committees
virus
▁floating
▁nowhere
▁Reader
▁Item
▁establishments
▁onset
▁installations
RED
▁175
▁2021
▁apologize
▁PLA
quin
▁performers
▁Useful
ML
Per
prom
VO
▁Saints
▁postal
:50
▁grades
▁grip
▁crypto
▁Vancouver
▁arsenal
▁biblical
▁communism
▁deterioration
▁energetic
▁reconciliation
▁Soccer
▁visibility
▁decay
▁hazardous
versus
▁emotion
omy
▁Canal
▁Anyway
motion
ove
▁Kost
▁Evening
▁directive
▁Dean
LD
▁excursions
▁pill
eti
▁thereafter
▁Grain
▁Gau
outs
▁Cent
▁designation
▁legends
▁Lines
▁Pig
Look
▁Julian
▁mice
▁asthma
▁Uber
▁maximize
uka
Bu
▁Certain
▁×
▁packed
▁loops
▁sour
▁uncertain
▁Row
▁Positive
▁worries
▁Telescope
▁Lisbon
▁gloves
▁Blessed
▁Summary
▁Immediately
▁Jeff
▁readily
▁Naftogaz
▁stance
▁Carbon
sko
92)
viv
▁customized
Str
▁diamonds
▁Changing
▁hint
track
▁depart
▁1905
▁surprisingly
▁suggestion
-2020
▁accompanying
▁Coin
▁Brit
▁acquiring
Of
▁monitors
ADE
▁divorced
▁compensate
▁motivate
▁Romeo
ere
▁streams
▁defendant
▁masks
ime
▁examinations
▁Tehran
▁inevitably
▁memorable
▁temptation
▁yacht
▁Phoenix
▁Ilyashev
▁deviation
▁Tunisia
▁Catalogue
▁inheritance
▁Honda
▁Geography
roy
▁depressed
▁switched
▁Repeat
▁filing
▁bug
▁Ohio
▁Orgy
▁accepts
▁Threesome
▁Pala
▁beaten
▁cro
-29
▁anchor
▁Surely
▁Ost
▁inspector
entrepreneurship
▁diplomat
▁Bruce
erge
▁judged
▁Subscribe
▁Designed
▁inadequate
dog
▁scores
▁MC
▁separatists
▁Vel
INA
▁comparative
▁Fest
▁Mono
▁Bluetooth
▁Commonwealth
▁Distribution
▁census
▁Tanzania
▁geometry
▁tendencies
▁Cluster
▁ballistic
▁picturesque
ebr
▁dys
▁compiled
▁1925
shan
reach
▁Kha
▁Ballet
▁COM
▁symptom
▁teenager
▁Solid
HR
▁Carter
dz
▁Musical
▁Via
lysis
cream
ITY
EK
▁hadn
paid
▁curtains
▁router
▁Object
▁Witness
HE
▁Administrator
▁Bangladesh
▁Vegetable
▁junior
▁observance
▁unwanted
▁Nissan
▁stabilize
▁expelled
▁□
▁dictate
▁650
▁Pure
▁banana
▁Vid
▁Scheme
▁cellular
wo
▁Institution
tral
▁archaeological
▁adolescents
▁domains
rise
ider
tsev
▁Portal
hra
▁spell
▁honesty
Proverbs
Thank
▁Marc
▁neglect
alia
medi
▁collaborate
lah
2.1
stal
▁county
▁Corp
▁280
▁targeting
▁resolutions
▁cho
static
▁Rate
▁Swimming
▁consecutive
▁devastating
▁intermediate
▁recognizing
▁vegetarian
▁volcanic
▁Vincent
▁postgraduate
▁multimedia
▁chef
▁Pavel
▁Visitors
iga
▁Directors
▁courageous
▁deformation
▁toxins
▁cleansing
rg
ер
▁Gets
▁Printer
▁Wire
▁1996,
▁fragments
-60
plan
▁BS
flex
▁1922
HI
▁boiler
▁Cooper
▁1800
▁charming
rina
▁empower
▁Shortly
▁Lack
▁collector
▁Gru
▁whil
:05
▁Tradition
▁Pie
7,000
vari
rush
▁paradigm
▁proximity
▁Telegram
▁Coalition
▁wander
▁Regard
▁eruption
▁Ghost
▁spine
▁fights
model
▁civilizations
▁Anderson
-80
▁Evil
▁bacterial
▁Dom
atis
▁GM
cos
▁traits
▁guardian
▁elephant
▁idol
▁assumption
▁3.2
▁exhausted
/6
had
byte
▁headline
ovska
▁grill
▁fucking
▁workout
▁lighter
dication
Just
etsky
:32
video
▁Spi
nica
▁offset
CHE
▁Holidays
▁Pole
▁preach
▁GP
▁Journey
▁exercising
▁militia
▁surviving
▁widget
▁statute
▁Pattern
▁legacy
section
▁Diego
▁Mask
:35
hero
▁evacuated
▁BANK
War
▁disadvantage
▁Drugs
▁beating
▁І
▁Canon
-04
▁$7
▁Kre
.[8]
ummer
▁intra
▁complained
▁retire
▁Courses
due
▁wanting
lent
00)
▁Firstly
▁simultaneous
▁RAM
▁Parking
▁Byzantine
▁Ecuador
▁Illinois
▁Rehabilitation
▁Residence
▁drought
▁endeavor
▁garlic
▁hydraulic
▁judiciary
▁renovation
▁Bogdan
-05
▁Wear
▁Aleksandr
▁shipped
▁Liability
▁Electricity
▁Amber
▁specialties
hom
ACK
▁civilized
▁dysfunction
ogram
▁Bun
text
▁Eva
▁Examples
▁terminals
▁boast
▁economist
▁screw
▁1911
▁interval
china
▁Developing
wen
▁psychologists
▁underway
rage
ail
fy
▁offence
uation
tem
holder
:33
Comment
Matt
▁Employees
▁donations
▁mushrooms
▁needles
industrial
ACE
each
▁explaining
▁limiting
▁Admiral
▁infants
Ephesians
▁Fifth
▁exterior
▁cocoa
▁Ankara
▁licence
▁dispatch
▁Desert
▁subtle
▁Monaco
▁microphone
▁exchanged
▁Basically
mix
▁Rosa
▁grab
▁Biology
▁Gifts
▁1990,
ovy
▁evolving
▁Bah
▁donated
▁Baku
fort
hip
Min
El
▁Walker
▁Label
▁Knight
▁50,000
▁Kro
▁affirm
▁rob
▁attacking
▁Casting
"[
coming
▁mon
▁Studios
▁altered
omi
▁canceled
:34
▁AMD
kel
▁Invest
hib
▁Seminar
▁tricks
▁pound
import
FTA
/3
▁hairy
▁IF
▁dictator
▁Domestic
▁GmbH
▁compliment
▁custody
▁rebellion
▁conquest
▁Ecology
iation
▁Dancing
▁recruitment
layer
▁extinction
▁contamination
▁Pierre
▁Berg
tour
▁pl
▁maker
▁restart
▁nationalism
▁accidentally
▁gotten
▁elder
▁regulator
▁switching
▁108
▁Motors
mper
▁dive
▁sail
▁Sort
▁1910
▁Alien
▁withdrawn
▁invoice
▁imply
gam
▁mall
▁practiced
ders
▁Direction
liv
▁quotes
sec
oper
▁VA
▁Lang
▁Archbishop
▁galleries
▁infrared
▁solemn
▁unstable
▁seemingly
▁geometric
▁Explain
▁clever
▁Reconstruction
▁Gordon
▁Jerry
▁nationwide
▁XVI
▁Sexual
hro
▁informative
▁Raw
▁Alps
▁transferring
▁homeless
▁reef
cam
▁gut
fat
▁streaming
TRA
▁mut
▁subscribe
▁sexually
▁1923
▁Pearl
▁Separate
▁frontier
▁expresses
▁headache
▁auctions
▁Nail
▁drying
▁(40
mentioned
▁Jr
rew
▁assumptions
▁rendering
▁educate
come
Benz
▁inability
▁pursued
▁watches
eptic
firm
▁20-
▁lip
▁doubled
▁Artificial
▁Producer
▁ambulance
▁lyrics
▁steadily
▁stimulating
▁Nutrition
▁burial
▁pillow
▁Hetman
▁waited
▁Traffic
▁Chicken
▁candle
▁Adults
▁1915
▁brake
▁Collector
▁sunny
▁SK
.[7]
▁recruit
▁quo
▁Considering
▁pond
▁rumors
iri
ulating
▁saints
▁battalion
▁parameter
▁Palestinians
/4
▁Lav
▁Heating
▁Isn
Next
▁triggered
uld
mill
▁scare
▁spiritually
▁Oak
▁sang
▁AH
▁proposes
▁historically
▁Accept
END
▁conducts
ANCE
graphy
:40
▁Arizona
▁Mathematical
▁Written
▁devotion
▁estimation
▁faculties
▁hypertension
▁stimulation
▁beneath
′′
▁investigative
▁Plaza
▁Friendship
▁webcam
▁ter
▁betting
▁Operator
▁Transformation
▁authentication
▁insured
▁slice
▁specializes
pho
▁bypass
graphic
▁formulation
(1)
ICA
▁rotate
▁reinforced
▁disagreement
ARY
▁und
▁stressful
▁Rapid
metric
▁FE
▁alike
▁relaxing
▁Sab
▁rein
▁atom
▁Growing
▁cheat
▁Limit
border
▁Gaming
▁feared
▁refresh
ryn
ivo
▁suffers
▁rebuild
3.5
▁Rom
▁Yak
▁demons
tax
▁visually
▁Poli
sell
01)
OU
▁controversy
▁enhancing
▁microorganisms
▁intuition
▁metabolic
▁unemployed
▁Aircraft
▁Harris
▁INTER
▁Outside
▁managerial
▁Taxi
▁compression
▁periodically
▁EV
▁reasonably
▁Moore
ternal
▁indifferent
▁vest
▁103
▁promotions
▁Hundreds
zin
▁tires
▁Rice
▁costly
enter
▁thanked
▁sacrifices
sea
▁1928
ELL
Master
agging
legal
▁regain
▁risky
gres
▁posed
rink
Cl
opol
▁Barb
▁periodic
used
ifi
pcs
▁Definition
▁Famous
▁advisable
▁agrarian
▁brigade
▁browsing
▁durability
▁enthusiasm
▁inferior
▁Isaac
▁Sid
▁impulse
▁(044)
▁intervene
▁exposition
▁Rat
▁Cutting
▁Authorities
▁escaped
▁Stress
▁internally
▁highlights
▁invaded
▁SBU
▁dissolved
▁scattered
▁Rick
▁Unless
feld
azar
▁Gross
cs
CF
metry
▁scary
▁manages
▁tweeted
▁threads
LM
▁costumes
▁230
▁Lau
▁Kul
atur
-26
data
▁pumps
file
▁Buck
▁derive
▁dancer
▁quad
▁definite
▁Jew
▁declares
▁Mak
bud
▁123
▁veins
sexual
▁Gr
▁tends
▁unites
▁Manhattan
▁dynasty
▁influenza
▁martial
▁Headquarters
▁patron
▁trunk
▁alternate
▁Target
▁pile
▁ensured
▁Coordinator
▁deliveries
▁LCD
▁Rh
▁waterfall
▁inject
SF
▁Azerbaijani
▁Films
2004
dol
▁Mala
▁1921
spiration
▁Dual
iers
▁adopting
DF
stream
▁Cossack
▁regiment
▁pastor
▁Elite
▁fixing
▁simpler
▁1.7
▁Pont
▁Mykhailo
▁brokers
▁RES
2006
CON
▁node
▁deserved
PD
▁donation
▁Specific
▁homosexual
▁Wilde
▁Beyond
▁Certified
▁Helsinki
▁Taliban
▁Tbilisi
▁marijuana
▁revelation
▁vibrant
▁wines
▁Identify
▁grammar
▁ecology
▁MasterCard
▁versa
KI
▁resignation
▁aspirations
▁Lilies
▁Stick
▁AF
▁supervisory
▁incentives
▁utter
▁Gil
▁saturated
▁SSL
▁forcing
azi
▁illnesses
▁meantime
2018
▁Kru
-200
him
▁delighted
▁weighing
▁adequately
▁jo
oral
▁tel
▁establishes
▁edited
BB
gur
[7]
IDE
▁Printing
▁stealing
▁Lar
▁Houses
▁Memorandum
▁Potential
▁radius
▁utmost
▁deportation
▁sorrow
▁tagged
▁unhappy
▁Bottle
▁cancelled
▁recession
▁cough
▁tiger
▁#2
▁Dor
▁Genetic
▁explicitly
tai
▁judgments
▁sweets
▁accountability
lai
2007
EEC
▁Clearly
GN
lier
▁EURO
▁lungs
▁Andrey
▁Kill
06)
▁1913
White
▁peers
direct
04)
▁Balkans
ysh
350
▁107
▁Chart
2/
break
rupt
lova
volution
▁lung
▁Rica
▁welcomes
RK
▁Dnepropetrovsk
▁Governance
▁Salvador
▁Automation
▁HTTP
▁Gabriel
▁boyfriend
alo
▁navigate
empt
▁Normandy
rik
▁Granny
hua
activity
▁oversee
▁cafes
▁pale
▁Formation
▁mentally
harm
▁Nurse
▁Bai
AIN
▁anticipated
▁TU
▁tournaments
lik
▁1945,
▁Exp
▁MAN
▁1.8
▁odor
▁pause
▁RU
▁baskets
▁passwords
▁Billion
▁consultants
▁odd
jun
▁Turk
▁Pel
▁oneself
gorod
▁Improve
hov
,000,000
Hi
icular
▁jurisdictions
▁Alzheimer
▁Anonymous
▁Groysman
▁calculator
▁maneuver
▁optimism
▁Ontario
▁intestine
▁Flood
▁Belgrade
▁Lem
▁flourish
▁sculptures
▁checkpoint
▁Pressure
▁unfold
imo
▁sits
▁NC
▁Weapons
▁Journalism
mbo
▁dialect
▁HOW
▁healthier
nne
▁Trends
▁Johnny
▁advisory
▁Elder
▁consolidated
▁alcoholism
▁faction
edit
▁planetary
▁Teach
▁Kay
rip
▁п
▁offline
tsu
▁Beat
▁similarly
Life
ibly
▁basement
dale
▁inhibit
▁Zero
utter
▁Mul
hun
▁Salon
Su
▁nationalist
▁Vacuum
▁exquisite
▁feminist
▁Michigan
▁crises
▁hesitate
▁grief
▁speculation
▁Teddy
▁Fix
▁whoever
[18]
▁Fra
▁Drill
▁landmark
▁dr
▁Emb
2010
rang
▁patch
ffin
▁Bau
▁Gel
▁Broadcasting
▁incoming
▁[2]
▁inspections
▁Alexandria
▁Pere
mass
▁ceramic
idal
110
2016
plant
rak
▁Instructions
developed
▁Won
▁rabbit
kt
▁Pharaoh
▁Roosevelt
▁uprising
▁Bolivia
▁Counsel
▁Surface
▁PI
▁Documentary
▁flagship
▁hated
▁blockade
lux
▁Alt
▁Lunch
▁chambers
▁KDE
▁Interracial
▁travelled
▁Jose
▁disappears
▁Rap
fledged
▁crafts
▁assumes
▁109
ukh
skyy
Jo
▁assessing
▁outfit
▁goat
lement
▁Knowing
ania
▁FU
▁emission
▁Numbers
▁2001.
uer
▁Tal
/20
▁wishing
▁trump
130
▁advertise
▁Anastasia
▁Dominican
▁acrylic
▁convincing
▁endurance
▁violating
▁Margaret
▁regulating
▁Circle
phobia
▁Speech
▁Colorado
▁Pedagogical
▁repent
▁Escape
▁Daughter
emb
▁Typically
▁submitting
sim
▁Revolutionary
▁Powered
▁worm
▁plum
▁Function
▁Atlas
▁4000
▁inflammatory
▁momentum
posed
▁recommends
▁Founder
▁demonstrations
▁posting
▁pockets
IB
watt
▁Cru
▁cube
nies
▁excursion
▁Logo
▁supermarket
France
saving
▁polish
▁weekends
▁allocate
180
▁`
▁CAR
▁KO
▁Font
▁1926
▁Specialist
▁NS
▁capita
▁empirical
▁Detroit
▁Guatemala
▁Suddenly
▁arthritis
▁confectionery
▁rhetoric
▁Eagle
▁Dispute
▁Might
▁baking
▁Newspaper
▁Hague
▁prospective
▁Coordination
▁Publications
▁sunset
▁gro
▁(7)
▁showcase
▁SUV
▁Girlfriend
hoe
dependent
genic
▁Idea
oxy
▁deepen
IAL
itsky
▁Pap
▁stove
▁deter
▁Fighting
▁lover
▁secretly
▁Understand
▁Hosting
▁sharply
ury
-08
odor
▁Krist
▁Hon
rier
▁pole
▁nerves
▁Argentine
▁cautious
▁thirteen
▁Benjamin
▁Hybrid
▁veterinary
▁Zaporozhye
▁Telephone
▁instability
▁institutes
[17]
▁Gregory
SKY
▁amend
▁marketplace
▁crust
▁skirt
-07
▁Featured
▁surroundings
▁−
omo
▁contractors
▁subway
▁transforming
eight
▁RI
▁Lights
▁2002.
▁fuels
▁OUR
▁ideals
liar
▁hostel
▁FO
▁Compared
▁knees
▁mighty
▁ED
▁Mau
:03
▁sponsors
▁Cookie
▁rounds
▁strengths
LIN
▁examin
▁irregular
▁Industries
▁Quarter
▁servicing
▁victories
▁Dirty
▁goddess
▁ultrasound
▁Brooklyn
▁erotic
▁Yahoo
▁outdated
▁Cycle
▁clue
▁socks
▁Mormon
▁Fiat
▁knot
zhou
▁Witch
▁encrypted
▁Machinery
toxic
▁embroidered
▁sodium
▁formulated
▁viable
heat
▁Bee
▁Quote
▁Devices
▁Hide
▁manuscripts
▁Europa
▁saves
▁Saul
▁inventions
Green
▁reasoning
▁Mot
▁1927
▁analyst
▁Example
watch
▁bay
Lu
▁Gear
▁Chance
▁5.5
▁astronauts
▁Hai
▁Atlanta
▁unpredictable
▁inspiring
▁whale
▁plunge
▁silk
List
▁peacefully
▁cam
▁populated
▁Talent
▁freezing
▁Lamb
▁signatures
▁Photography
▁320
▁cleaned
▁supportive
.05.20
▁Hir
▁Glasses
nspired
▁Classical
▁insane
project
▁rev
INE
bio
▁$20
ote
▁Fil
▁insights
▁ARE
▁(36
▁Slo
mad
▁conventions
heart
▁poses
▁Barr
▁motors
▁radically
▁cartoon
▁Deutsch
▁Lawyer
▁prescribe
▁ecosystems
▁jealous
help
▁rap
▁Notes
▁antique
▁15-
▁stain
▁Needs
ен
▁Powder
▁hobby
▁imprisoned
▁questionnaire
▁Pluto
▁Supplement
▁communal
▁dissertation
▁sanitary
▁shells
▁updating
▁inequality
▁Alexey
▁Fundamental
▁Scandinavian
bag
▁stranger
▁Pry
140
▁Merc
▁walks
▁Wat
▁entrusted
▁Compact
tten
▁neurons
▁notebook
▁transformations
▁XP
▁Nude
▁Math
▁Aero
LP
▁Slow
icide
rance
▁blogs
▁assisted
▁4,000
▁IM
▁pools
▁concludes
▁survivors
▁Nikolaev
▁ONE
borg
▁Andrii
Lesbian
О
While
▁imagined
▁Tip
▁predecessor
news
▁Champion
▁pr
▁Cali
▁climbing
▁pathway
:36
▁Galicia
▁Tibet
▁Volo
▁peculiar
▁cakes
▁Approach
▁Battalion
▁astronomical
▁constituent
▁recycling
▁Integrated
▁surname
▁READ
▁knight
▁Bernard
▁Bondage
▁curse
▁expectation
2005
ogen
▁monarchy
dust
plus
▁homemade
▁strap
pes
▁invent
▁Lou
cum
▁Links
Ti
▁surf
03)
▁worsen
ht
▁AA
▁Polar
▁bets
ride
▁Blo
▁Nau
aga
▁Broadcast
▁NE
election
father
▁Brook
▁linen
▁210
▁119
▁Thinking
▁negotiation
▁Reason
▁1,0
cons
-06
isk
▁Billy
▁rolled
▁Benedict
▁Dictionary
▁exclusion
▁occupies
▁unconditional
▁revival
▁Requirements
▁purple
▁shrink
▁immuno
▁Messiah
▁generic
▁Enough
▁sustainability
▁proposition
▁Bosch
▁slip
▁pathological
▁Basket
▁Eurasian
South
XX
▁(8)
▁ballot
▁disruption
pop
▁SIM
energy
▁SpaceX
▁contacted
▁Earl
Vol
▁tray
▁PHP
▁Rise
▁Mining
▁Pharma
▁Kr
(7
▁bless
idi
▁1989,
ér
▁tra
▁Groups
▁crystals
ook
material
OUR
▁legalization
▁12-
▁servicemen
▁prolong
▁Jur
▁merchant
▁illustration
▁undergoing
▁2025
posing
▁supervisor
▁collapsed
▁WO
▁в
▁Hindu
▁facto
▁suggesting
▁indefinite
▁assortment
▁pedestrian
▁vintage
▁academy
▁embark
▁Martyr
▁autism
▁Advice
▁Spider
▁pagan
▁ramp
▁elevated
▁awful
▁Chap
▁erected
▁conceived
▁Trailer
▁Craft
▁stepped
▁remarks
▁Highway
bon
▁Spe
▁borrower
▁Originally
scribed
▁verses
BL
AST
▁builds
zon
scape
National
▁bathrooms
▁Homo
▁Sell
▁quarters
▁CMS
:44
▁hromadas
▁Adams
▁argues
SR
MIN
▁chill
▁Cr
ended
2017
tica
▁Bou
▁Maz
▁Bologna
▁Celebrity
▁Solidarity
▁comprehend
▁poultry
▁fetish
▁discourse
▁prosperous
▁poker
▁Eurovision
▁Airways
▁fond
▁committing
▁acoustic
▁disable
▁Straight
build
▁Cry
▁(35
▁4.1
]]
▁Nico
▁Hang
uge
defined
▁fri
105
bay
tie
▁combating
/2018
enti
shenko
ctur
▁Pray
▁Feeling
▁additives
▁demon
toria
▁KA
▁filming
▁1999.
[4]
▁templates
▁550
▁ego
▁locate
▁Republicans
▁Farmer
atin
chief
▁Ferr
▁Marathon
▁Navigation
▁Violence
▁hurricane
▁petroleum
▁vampire
▁BDSM
▁theatrical
▁garment
▁knit
▁cattle
▁disinformation
▁fax
▁Slavic
phor
doc
Net
▁males
▁accusations
▁Nat
▁Egyptians
.*
▁liter
▁Interestingly
▁beef
▁concentrations
▁CRM
▁sweat
▁Р
Si
▁confess
CB
▁prompted
science
▁supposedly
Isaiah
▁fade
[9]
2008
▁indications
▁gall
▁Arms
▁numerals
SCO
▁finest
я
ility
▁debates
:04
▁Apostle
▁Engineer
▁GO
▁generates
osa
▁Messages
▁Fellow
▁Thirty
▁envelope
▁utilities
▁Savior
▁Tallinn
▁yarn
▁Barbara
▁wonders
▁menstrual
▁Giving
▁arbitrary
▁marble
▁attendance
ector
▁Marco
Bar
▁Vic
▁encouragement
▁leverage
Only
▁defi
▁MSc
▁Organizer
▁instructed
ICS
▁Nad
▁Pirate
▁clusters
ISH
DPR
inate
▁rented
▁SAP
▁glow
Gu
▁warehouses
▁Changed
▁Comm
▁Cole
wl
▁NT
▁Ton
▁nurses
▁wished
▁Amy
▁conductor
▁expenditure
▁cocktail
▁Polit
Big
▁Diseases
▁princes
▁8%
▁VII
▁abnormal
▁hostages
ø
▁compatibility
▁compilation
▁striving
▁tribute
▁ransom
▁imbalance
▁Flexible
▁Residential
▁Stanford
▁monkey
▁wagon
▁Strike
▁acne
▁foolish
▁Moo
▁Smile
eck
▁PH
TURE
▁Treat
▁hammer
▁Weekend
▁selective
▁possesses
vu
▁Discovery
▁worrying
▁118
fly
▁Answers
▁specializing
▁metric
▁cheer
hair
▁urgently
▁Cord
2019
EO
▁hike
rev
▁Drinking
▁Cafe
Please
:39
▁Lecture
▁trainings
▁bu
▁listing
Pay
▁submarine
▁incentive
▁declarations
▁BIO
▁Kil
▁Nano
otto
dian
lina
▁Awake
▁Buddhism
▁Jennifer
▁ignorance
▁Occupation
▁shortcomings
▁imitate
▁Eugene
▁verdict
▁censorship
▁steep
▁Vietnamese
▁denial
▁Farmak
▁counterparts
▁Drama
▁Walt
▁authoritarian
▁Membership
▁Bayer
▁Greater
▁SN
▁ABC
▁Pea
▁Viking
▁Liber
▁Adapter
▁revealing
liness
▁reforming
▁subjective
▁personalities
▁Spend
lid
▁Lux
▁descriptions
tol
▁slots
▁cleared
cession
▁Mann
VR
▁4%
storey
ume
▁proportions
▁twist
▁35%
limit
mina
▁Booking
▁SL
▁refuge
▁diagnose
▁earthquakes
▁airplane
▁Push
emia
usually
▁lymph
▁Sierra
▁despair
▁fracture
▁inclined
▁obedience
▁wizard
▁courier
▁thrive
▁cycling
▁duplicate
▁Psychological
▁Bow
▁modular
▁Lisa
▁granite
peak
▁infringement
▁Radi
▁descendants
▁Plants
:37
▁genital
▁explosions
RB
▁shaft
▁Krakow
shoot
tig
dorf
▁mistaken
▁Mineral
▁tales
▁boiling
▁marginal
vail
▁12:00
▁neat
hine
▁Charge
▁Monthly
▁ke
▁Pod
▁WA
wn
▁joyful
Game
.[9]
▁Walking
Europe
▁Places
according
▁copying
▁descend
▁cache
Christian
▁Indo
location
▁align
▁resign
ega
▁anticipate
▁Bas
▁approximate
liter
▁brains
▁sanction
▁Epi
obo
came
▁matching
▁emotionally
▁Automotive
▁Behind
▁Opportunities
▁combustion
▁refusing
▁specimen
▁glacier
▁Driving
▁precedent
▁Dnepr
▁Pornstar
▁proving
05)
▁Ladies
▁Boryspil
start
▁echo
▁Campus
▁Mental
▁florists
▁uni
▁Daddy
▁Diana
▁Robin
▁plots
▁200,000
itarian
Come
▁brightness
▁2000.
vio
▁Frame
▁pledged
▁mirrors
▁Balkan
▁recreational
▁translators
tex
▁paints
▁poured
too
▁Coat
ADA
▁mile
▁Affect
▁Fedor
imeter
dynamic
▁nut
▁Cel
▁Pos
▁vocal
▁1,500
selling
▁halt
▁obstacle
▁drone
▁UNI
formed
▁Accommodation
▁Conservation
▁Neptune
▁SunPorno
▁Tribunal
▁acceleration
▁commodities
▁correlation
▁ministries
▁patriarch
▁racism
ф
▁tutor
▁Laptop
▁Entry
▁Rubber
▁Forbes
▁Racing
▁FROM
▁verb
▁TS
▁Pilot
▁Rum
▁Airbus
▁Comedy
personal
▁weaken
▁basics
▁Graham
STER
▁Catalog
▁deepest
thesis
▁postponed
▁lord
ré
▁selfish
▁Oman
▁expressing
▁registering
▁Czechoslovakia
WS
owski
asse
▁HU
ante
oba
▁credited
▁confidently
▁projected
▁Sources
going
▁Ark
▁Hen
▁bore
▁cultivate
▁FS
▁contractor
chak
▁cares
bell
▁Nan
▁Prussia
▁145
▁consolidate
▁Beck
▁accessed
:41
▁Morris
though
▁tumors
▁Almighty
▁Conclusion
▁Houston
▁Unlimited
▁clarity
▁communion
▁counterfeit
▁eternity
▁cardiac
▁cosmic
▁nationals
▁gently
▁Instant
▁consistency
▁excitement
▁Newsletter
▁lesser
▁crude
▁purity
▁Fiber
▁Kerry
▁Jason
▁livestock
ann
▁sadness
▁unveiled
▁overcoming
▁sickness
▁snap
▁specialize
▁workforce
▁270
▁counterpart
▁Liu
▁18:00
nomic
▁enjoyment
▁councils
▁Meaning
polis
▁Unable
RES
▁franc
▁Symbol
gla
▁Bike
▁artwork
▁neighbour
▁Kas
/2019
▁Tape
urn
security
▁Option
▁creditors
▁Beta
iana
▁reporter
GM
▁portions
founded
▁instrumental
▁coats
▁Serb
▁folders
tube
ransponder
gain
2020
▁collaborative
ō
▁Erasmus
▁Excellence
▁Jaguar
▁Vilnius
▁dissemination
▁jungle
▁maturity
▁CNN
▁crater
▁comic
▁Default
▁senator
▁Cameron
▁scroll
▁Sample
▁sixteen
▁Generator
ryl
▁supplying
▁Glory
▁annexed
▁Bart
▁sensation
▁posture
▁allowance
▁Sadly
shch
ional
▁giants
▁pipelines
▁caves
▁Kazan
DD
▁Shy
▁rockets
▁tenth
▁questioned
esthetic
▁offerings
▁accelerated
▁Slave
▁merge
opa
▁verbal
▁booked
appear
support
▁116
▁ranges
poli
▁Clip
▁Elections
▁chapters
▁bourgeois
▁pope
▁rigorous
▁Literary
▁Treasure
▁advocacy
▁celebrities
▁identifies
ш
▁overthrow
▁Technological
▁Russell
div
▁trapped
▁offspring
▁portraits
▁Waste
▁Setting
▁authenticity
▁carrot
▁burns
▁enjoys
▁pigment
▁mock
▁relay
risk
imov
▁Mall
▁Fuck
▁30,000
▁CT
cket
▁observer
▁weakened
▁7%
▁vo
metre
▁MM
▁advocates
▁Functional
▁rum
rl
▁Angela
▁PET
erson
▁Lane
▁brew
▁personalized
resistant
▁Demo
▁ISS
gene
radi
payment
▁Speak
rium
▁persuade
▁amid
▁seize
pies
▁pearl
arium
effective
plic
▁aiming
9,000
ambo
▁ambition
▁Nelson
▁Reservation
▁Sponsor
▁mosaic
▁peripheral
▁synagogue
▁thirst
▁Opinion
▁anxious
▁shuttle
▁Blockchain
▁Bloomberg
▁WHAT
[16]
▁Globe
▁navy
▁Representation
▁Ruslan
▁battlefield
▁$8
▁Continental
▁Stickers
▁Improvement
spot
elia
▁consuming
khov
▁1993,
▁ACC
food
▁cop
▁prone
▁Sem
DN
▁Alexandr
▁noting
▁whi
▁Drawing
Rom
▁utilized
▁10-15
▁165
▁peel
:07
▁Hands
▁Wish
▁betray
▁uniqueness
▁dealers
▁1924
▁6%
military
channel
rent
▁vibrations
▁Wor
▁android
▁Jer
Poland
▁Convert
▁HC
▁Bez
▁adventures
▁collectively
▁tighten
▁rescued
▁Forms
▁Glo
▁Pun
▁Entrance
▁Kateryna
▁competencies
▁magnesium
▁uranium
▁Lingerie
▁Providing
▁Ultrasonic
▁disregard
▁queries
▁promo
▁fingerprint
▁shareholder
▁Leningrad
▁Snap
▁midnight
▁Stanley
▁FSX
▁digestive
▁Importance
▁tastes
hop
▁mainstream
▁intersection
▁Situation
ood
hall
▁reviewing
minating
▁Warren
▁Mam
▁inventory
oga
▁FR
price
boat
▁throwing
▁merged
▁Angels
▁financed
train
▁hose
oul
▁anytime
▁Older
polit
▁(31
▁regulators
▁sponsored
esi
condition
▁Whole
▁bang
LF
▁Kub
▁organise
▁accuse
▁cleanse
▁rituals
()
▁Churchill
▁exp
carbon
▁characterize
▁Transcarpathia
▁Siberia
▁mal
▁satisfying
elect
▁elastic
▁cardio
▁Accreditation
▁Gorgeous
▁Increasing
▁Procurement
▁energies
▁improper
▁nineteenth
▁nursing
▁Threat
▁simulate
▁Catalan
▁Cardinal
▁VIDEO
▁zinc
▁timber
▁Dialogue
▁harassment
▁antibiotic
▁aerial
▁Dinner
▁playground
sburg
fast
▁Glad
▁wore
▁amazed
since
▁vain
▁Berez
▁grinding
ilo
▁Dra
[10]
▁terminated
ulu
▁pointing
▁Inn
▁recordings
▁Feet
▁homo
▁baths
angle
▁Drag
▁Ruth
▁Carrier
▁mailing
▁genuinely
▁counts
▁Grin
[3]
▁Edge
▁UKR
▁wholly
▁Score
▁JA
▁Hunt
▁7.5
▁scream
energo
▁117
▁warmer
▁GE
MR
▁answering
ipping
▁Malay
▁Dem
Most
▁Architect
▁Availability
▁Bucharest
▁Lieutenant
▁antibodies
▁astronomy
▁litigation
▁malicious
▁retention
▁skeleton
▁velocity
decentralisation
▁Charlotte
▁extremist
▁unilateral
▁Properties
▁statutory
▁Landscape
▁affair
▁Humanitarian
▁Likewise
▁disconnect
▁spill
▁Diplomatic
112
▁flies
agon
▁airspace
▁USAID
▁Tibetan
check
▁hostage
ista
▁Kiss
▁Batman
▁Cow
Over
▁rot
▁Secondary
▁cultivated
▁85%
▁resigned
▁broadcasts
▁odds
▁Trial
▁Pull
▁Bags
▁cooler
Bra
▁Graduates
▁ink
▁Brad
▁1906
Credit
▁Lives
▁Haiti
▁notifications
uel
▁Uncle
▁installment
cca
▁proceeding
fil
▁testify
▁clo
▁barrels
▁rider
▁Herzegovina
▁elegance
▁neutron
▁optimum
▁prerequisite
▁semantic
ú
▁sweep
▁ladder
▁damaging
▁grandchildren
▁citing
▁Anavar
▁salmon
▁consolidation
▁drank
illo
▁scanner
Kh
▁pedagogical
vig
▁XXI
▁dreaming
▁Barbie
▁informs
▁1991.
▁shocking
▁[[
▁boiled
▁Lamp
uta
rud
▁tailored
▁marriages
▁Traditionally
count
▁parasites
▁1/2
ija
RF
▁135
male
▁coaching
▁reflecting
YS
▁Joan
▁polls
official
:02
Revelation
▁associates
FU
▁broadcaster
▁Era
▁Pakistani
▁Finish
▁Wake
▁differential
▁orbits
▁upward
make
▁Sara
▁pesticides
purpose
▁electrons
▁6.5
▁Nonetheless
▁fertility
▁multitude
▁registry
▁terminology
▁incidence
▁violin
▁Modified
▁cried
▁SSR
▁Admission
▁expectancy
▁contend
[19]
▁baseball
▁Frederick
▁variation
▁PL
emo
▁extracted
▁Grandpa
▁Bukovel
▁delegate
▁exercised
-90
▁molecule
▁Orphek
rank
issa
tir
cock
▁DM
▁silicone
▁expenditures
▁Lauren
▁Levi
▁optic
▁Tun
▁Gong
▁fences
▁violates
▁nationalities
▁merit
▁neighbouring
450
▁Lots
▁extending
▁Dell
mari
▁repeating
▁rig
▁lender
▁Parent
▁celebrates
odi
▁д
▁Entrepreneur
▁ok
Public
·
▁originate
▁reinforce
woman
▁rightly
▁(100
▁sellers
▁Essential
▁explicit
dir
▁DB
ANA
▁Respond
▁Amendments
▁remotely
:51
750
▁writings
▁1916
▁weaker
▁crashed
▁Hamilton
▁Oleksiy
▁allergies
▁memorandum
▁obsolete
▁vicinity
▁Liquid
▁Mystery
▁Wizard
▁discourage
▁voyage
▁Personnel
▁Automobile
▁fridge
▁shaping
▁Biological
▁Bass
▁footage
Mark
pher
▁steering
▁Letters
zzy
▁Biden
structure
▁herbal
▁Milky
powered
▁Fixed
▁catastrophic
▁Shah
▁VIII
▁incomes
lap
▁Boat
anger
▁filmed
▁prisons
▁skip
oids
▁2022
▁equations
▁Mold
▁Tai
▁positioning
▁(48
HC
tier
tsy
▁Emil
▁header
Pol
▁san
▁expire
▁(60
▁trademarks
▁desperate
lop
▁Koro
▁Din
▁tomato
User
▁$50
▁emit
▁discern
▁advent
▁Christendom
▁Uzhhorod
▁reconcile
▁Kurdish
▁PayPal
▁lounge
▁Columbus
▁curator
▁finite
▁footwear
▁normative
▁Cairo
▁09:00
▁assassination
▁settlers
▁genetically
▁Sergiy
▁lightweight
▁explored
▁Yourself
▁adhesive
▁millionaire
▁drones
plane
▁excluding
▁Carr
iu
▁electron
:43
vsk
series
▁Susan
▁troubled
▁911
▁Engineers
8.00
Ac
kill
▁Boo
blowjob
.[10]
▁Wy
awaited
ologi
▁SEC
▁Cards
▁Grid
nick
winning
▁Wash
▁Hunting
▁praised
TED
▁shy
▁intervals
itter
▁meanings
Service
AIDS
▁Hil
cott
▁Advance
WEB
▁enrich
▁administer
▁WTO
▁2050
▁tones
▁Scar
zia
▁Oz
▁Nut
▁Rates
▁Christophe
▁champions
▁Comprehensive
▁Minnesota
▁Mohammed
▁Uruguay
▁attentive
▁cavity
▁chromosome
▁ensemble
▁sanatorium
▁Ethnic
▁centimeters
▁drift
▁Bahrain
▁Pharmacy
-2013
▁Schoolgirl
▁responsive
▁Unified
Che
▁viewpoint
▁Hus
▁Passion
▁rh
▁Slim
isa
▁lightning
-28
▁Cheating
▁reservations
▁Dick
▁Ras
▁wasted
seed
▁overload
▁behaviors
oscopy
tank
umi
▁converter
igan
hron
▁optimized
ffi
▁ste
▁jokes
▁healed
▁critically
▁upgraded
▁Replace
Great
▁conceal
▁Sync
▁8.1
▁packet
:55
wick
▁Reporting
▁12%
▁tailor
nus
▁ET
▁immortal
▁mortal
urgical
▁woke
▁brochure
▁catalyst
▁decreasing
▁democracies
▁frustration
▁Ceramic
▁issuance
▁Atomic
▁Critical
▁terrain
▁versatile
▁idiot
▁railroad
▁Thermal
▁(2014)
▁advertisers
▁Lens
▁sensations
▁trash
▁3.3
cryptocurrencies
▁Perry
▁appealing
cio
▁dinosaurs
▁fusion
▁homework
▁commandments
NIC
LR
uter
▁cheerful
▁adviser
▁soda
▁Af
olic
▁Gab
▁contracting
ikh
▁dock
▁hardest
▁Kap
▁bits
▁Lick
ozh
▁republics
Phone
business
then
▁Quite
▁reproduce
▁extensively
▁bench
4.5
vie
▁slower
▁TI
-70
▁stitch
▁smoked
biotic
▁Novel
▁Analytical
▁Catalonia
▁Compliance
▁Lloyd
▁Madagascar
▁outsourcing
▁Vinnitsa
▁Accident
▁emblem
▁Purple
▁Transaction
ão
▁Context
ulf
efficient
▁teenage
▁Priest
▁mac
▁fourteen
▁jackets
▁GPU
▁centralized
▁graves
yes
amma
▁misunderstand
▁Talking
ić
▁Whereas
▁Pon
▁warns
▁employs
lag
nm
▁depths
▁**
▁114
igu
▁comb
02)
root
▁entertain
▁uphold
Dr
writing
▁shores
According
travel
balance
acious
:42
▁bend
▁smarter
▁portray
▁Skills
1]
grand
ubi
Men
▁coll
asia
▁philosophers
gna
▁athletic
▁liabilities
▁Pompeo
▁gospel
▁Naples
▁purification
▁macroeconomic
▁Dangerous
▁descent
▁Patriotic
▁(33
▁Duma
▁Whi
▁Lift
▁COMPANY
▁starred
▁exemption
angel
▁id
ulin
▁borrowed
▁threesome
THE
▁restraint
▁orbital
▁reactors
(8
▁exhibited
▁filmmaker
▁Ave
▁lately
bru
▁DAY
▁6)
▁127
▁stays
▁Enterprises
▁ascend
Since
general
▁String
▁hum
▁vow
-2012
▁exporting
▁Gary
Law
▁Include
▁presidents
▁(38
phen
▁punch
Agro
▁dial
zone
▁Evaluation
▁Naughty
▁equator
▁fragile
▁frequencies
▁karaoke
▁nucleus
▁russian
▁Claim
▁Xvideos
▁Yevhen
▁fertile
▁Bohdan
▁boycott
▁Tennis
▁bargain
▁crane
▁milestone
▁Screw
OLD
▁spends
▁Roof
▁meteorite
▁bare
▁Browser
fection
▁replica
▁blade
▁contacting
▁Filed
DER
▁Spot
xxx
▁disturbing
ego
mother
factor
▁Increased
▁flowering
▁Rico
▁Root
▁mud
ZH
lom
▁FL
▁dismiss
▁Carlo
▁Helen
length
growing
chemistry
▁Zak
▁misuse
▁lap
kle
Part
07)
▁criticize
▁Foods
▁Perform
▁heels
1.3
▁Encyclopedia
▁Manafort
▁Monroe
▁Mozilla
▁Resurrection
▁Transparency
▁cannabis
▁comprising
▁culinary
▁hostilities
▁pistol
▁Immigration
▁Sleeve
▁ABOUT
▁arteries
▁revolt
▁fluctuations
▁imaging
▁Facial
▁acres
▁infantry
▁Freud
earth
▁gi
ONG
▁Matter
▁vocational
▁comm
▁kin
▁premier
▁Blind
▁hardship
▁11:00
▁Proper
cup
▁hedge
▁spices
▁studios
▁Terra
▁380
parent
▁Maintain
flat
▁etk
▁broaden
hart
▁cows
▁accidental
▁torn
▁ple
.000
▁Into
Then
ра
▁Guards
VEN
▁Amb
▁mesh
ograph
years
▁(39
▁Container
dry
Golden
Za
▁Objects
▁flooding
▁vendors
ylo
▁genres
mul
▁Fishing
ucci
▁sketch
102
▁recipients
▁nuances
Two
▁flora
▁borrow
▁Detective
▁Episode
▁Frequency
▁Inspection
▁skull
▁tangible
▁whatsoever
▁contraceptive
▁copied
▁torrent
▁Consulate
▁Jimmy
seat
▁exporters
▁Hillary
final
▁brightest
tero
▁Expand
▁attractiveness
▁Ian
▁NPP
▁badge
▁Refugees
GC
▁interpreter
▁hop
▁commercially
▁113
▁Oral
Air
USE
▁hryvnias
▁Publisher
▁Nik
▁requesting
▁Geographic
prop
▁Secrets
▁realised
▁rats
looking
ester
▁float
Н
Night
credit
United
▁Strength
▁Configure
Euro
▁Parker
▁FX
MY
▁Tit
▁crosses
▁Thy
▁backing
ée
▁Shut
▁Herb
▁proportional
▁recalls
ì
ц
▁Compilation
▁Diagnostic
▁denomination
▁happier
▁sausage
▁wrath
▁Harvey
▁Khmelnytsky
▁securing
▁Housewife
▁Split
▁Minutes
▁Eurasia
▁Magnetic
▁Seattle
coronary
▁Petrov
▁lin
▁digit
▁Ultimately
▁fascist
▁Clock
▁PV
▁abolished
▁stationary
▁ram
▁ja
▁Deutsche
▁Barry
▁cheating
▁Rocket
mak
▁affiliated
▁Wise
▁intolerance
▁Hawk
▁TED
▁Networks
ро
citation
smart
High
та
▁fist
▁Colors
gaz
▁woods
▁Sultan
▁considerations
▁Edinburgh
▁Resistance
▁Sovereign
▁calculating
▁conspiracy
▁provincial
▁ridiculous
▁vulnerability
▁retrieve
▁Failure
▁coincidence
▁contour
▁leasing
(11
▁Rough
▁FIN
▁Shape
▁implements
▁deaf
▁diary
▁Agreements
uba
▁Radical
▁strings
▁40,000
▁warnings
beat
▁trim
▁unification
▁Patient
▁mammal
His
2.2
alu
▁shallow
▁Sounds
treat
iling
▁OEM
▁Developed
▁330
▁attained
▁Castro
dition
▁850
▁IR
▁(37
TIC
▁rankings
▁Gol
▁Gaza
380
▁Maj
▁Nina
▁Aunt
current
num
▁je
▁Pit
▁Vitali
▁Recording
Music
fact
unit
▁pur
▁APP
lica
income
CY
DB
▁infusion
rose
▁forbid
wave
▁GU
▁Otto
ontraindications
▁Chubby
▁Myanmar
▁Wrong
▁Zimbabwe
▁embodiment
▁mattress
▁releasing
▁abolition
depressant
▁Uganda
▁debris
▁gauge
▁jeans
▁spider
▁behavioral
▁(2012)
▁Running
▁utilization
▁oppression
▁rebuilt
nam
▁Programming
ographer
▁Jeremiah
▁GDPR
▁SF
rap
▁Alexis
Hz
▁Steps
▁enrolled
1.00
▁publishes
▁Instruction
▁Forget
▁cab
▁LC
▁Aviv
ience
NER
gno
108
▁Sche
▁judgement
▁Bread
scription
LED
-300
:46
▁React
109
▁Gur
Because
blue
did
▁villa
▁collectors
plastic
▁distributor
▁techno
125
Any
▁babes
▁jar
▁0.7
▁Defender
ege
▁oligarchs
▁temper
ж
▁Veterinary
▁bloom
▁demonstrating
▁sworn
▁conditional
▁imposing
▁palette
▁miniature
▁Nathan
▁coefficient
▁XML
▁Establishment
▁Piano
▁Joshua
▁inhabit
▁repayment
▁SV
▁scholar
▁banquet
▁advantageous
▁unjust
pool
▁operative
▁Effect
▁pap
von
▁slope
▁Reporter
▁tracker
▁builders
▁124
-2015
▁LP
▁Tsar
▁exceptionally
hab
▁ethno
▁1909
▁Volunteers
▁Tin
:53
▁folding
bate
uru
▁insignificant
tip
ffe
▁Bloc
111
▁blamed
agger
▁Fle
▁awake
▁122
▁pathogen
▁imperfect
▁springs
biz
Ja
▁155
▁moreover
Cor
▁jewel
▁miraculous
▁Hurricane
▁cocaine
▁contributor
▁eagle
▁gorgeous
▁ignoring
▁knives
▁Valencia
▁sympathy
▁allergy
▁humility
▁simulator
▁nonsense
▁pulp
▁armament
▁intercourse
▁Guidelines
▁discredit
▁branded
▁Ferrari
▁Output
▁seafood
▁intact
▁Aleks
▁commemorate
OVA
▁stall
▁equals
▁tattoos
▁surge
▁unaware
▁Silicone
▁Listening
PH
▁responds
▁lend
▁Marxist
ECT
▁Alba
▁BTC
▁charger
–18
▁Maker
▁McG
▁enjoyable
▁4.2
▁est
▁Yang
▁Lit
RON
▁Waiting
ogenic
▁Seek
▁offences
▁val
▁Knights
▁kilo
▁1908
Group
October
▁Establish
▁senses
▁stems
▁clips
▁assisting
▁Bab
taking
▁pic
▁Tang
▁believer
▁Insert
ë
▁Opportunity
▁grandparents
▁hockey
▁invaluable
▁squeeze
▁query
▁DVB
▁culminat
▁Canyon
▁silly
▁THIS
▁Thunder
▁riot
▁Tariff
▁Swinger
▁wildlife
▁towers
▁Aquarium
▁Lyon
▁pending
▁neutrality
▁lawmakers
▁interracial
▁Worth
▁JO
▁129
▁repaired
▁Schu
▁mediator
▁Button
▁distributors
▁Riding
▁Tha
▁pub
▁Moldovan
▁Areas
▁enhancement
▁taxpayers
▁explorer
▁Ear
▁Emma
▁Mean
▁kilograms
▁analyses
EAR
▁Rolls
Mal
▁Sister
▁touching
pole
interest
Social
View
▁Silk
▁postpone
▁boxing
▁restrain
▁petrol
July
:08
State
113
▁interviewed
itan
FP
▁celebrity
▁Cottage
▁Khmelnitsky
▁Mozart
▁psychic
▁Jacques
▁ninth
mile
▁weaving
▁constraints
▁Seoul
▁Kirill
▁Bicycle
▁(2007)
▁Infantry
▁Photograph
▁BP
▁Measurement
Sex
▁Leonardo
▁persecuted
▁GL
▁cabinets
:38
▁ABB
▁accessibility
▁Rand
▁betrayal
▁Wright
▁DP
▁Historic
▁NOW
NATO
▁candles
nian
▁Oslo
▁poorest
▁Amount
▁Hook
systems
▁elevators
7.5
▁vibration
▁horizons
▁div
▁POS
▁Ideal
▁murderer
▁NU
YA
story
▁Specialists
ZE
▁Raf
FOR
zhy
▁260
▁Soldiers
▁Henri
lining
Hungarian
terrorist
Western
▁shipments
▁Olive
lapse
▁Silicon
nok
▁Laura
▁confuse
niy
▁formations
▁deliberate
▁Cats
money
▁discovering
240
▁literal
▁Biblical
▁Dignity
▁GROUP
▁arguing
▁credible
▁efficacy
▁repetition
▁KZT
▁sliding
▁IELTS
▁Warrior
▁pneumonia
▁straightforward
▁hiking
▁Delhi
▁Scale
▁Rotary
▁Watson
▁Passport
▁drainage
▁Classification
▁ICC
▁reset
▁Pil
tale
xin
(2)
▁CNC
▁Charger
▁Koval
▁Baghdad
▁1903
Home
▁Whenever
Sun
SIS
▁symbolizes
▁investigator
▁veteran
▁fines
▁poets
▁Saw
▁Supporting
scribe
▁coil
▁9001
▁heroic
▁CM
▁importer
▁smoothly
Ri
▁KB
Va
uffle
because
▁abolish
▁BI
▁gaps
▁handy
▁outward
glu
▁handles
▁photographers
worthy
▁Deliver
▁Carlos
▁downloading
▁incompatible
▁Chronicles
▁renting
▁Says
▁Steroids
clean
▁Athletic
▁Awesome
▁Konstantin
▁Python
▁Theoretical
▁Victims
▁criterion
▁declaring
▁expiration
▁hierarchy
▁Expedition
▁Sicily
▁Falcon
▁turtle
▁nourish
▁thief
▁Phillip
▁forensic
▁chick
zhi
▁Michelle
▁Documentation
▁searched
▁Fisher
▁contaminated
▁backpack
▁Finger
▁traitor
▁Thermo
▁overlap
-2011
▁Sahara
▁hopefully
▁vase
isto
fen
nium
OUS
▁mentality
2.00
▁awakening
▁Greatest
▁void
web
▁illustrated
▁exporter
▁Gan
▁beverage
▁gran
▁Rare
▁bullets
organic
III
▁beautifully
▁sailing
tec
▁1870
▁CB
trade
School
established
Those
▁impress
▁browsers
Sport
▁PRI
zhen
bis
▁Away
▁0.4
▁Canadians
▁Experiment
▁privately
▁complaining
semi
nev
▁alia
plex
▁laughing
ummy
▁potato
▁Mongol
▁2500
▁parish
▁Rec
▁companions
▁Legislative
▁Lenovo
▁Qualification
▁circus
▁epoch
▁dementia
▁seedlings
▁Kyrgyzstan
▁bracket
▁freelance
▁sandwich
▁Toilet
▁Beatles
▁intensify
▁Torture
▁FAQ
▁unofficial
oda
▁ICT
▁Orgasm
▁relies
▁Motion
▁Marian
▁Nikolay
▁Chad
▁Bir
▁Consultation
▁Nordic
▁Roz
▁Fore
▁kidneys
tv
▁Lessons
▁progression
patri
▁stimulates
/19
-31
▁Arabian
▁Gap
▁german
▁Swan
▁listeners
strict
▁speeches
Health
▁Coral
changing
regulation
hum
▁hydr
invest
-400
▁XI
▁Kaz
issue
enka
▁Buk
▁Innovations
▁await
▁nominations
▁retains
▁erase
lick
▁possessions
▁squad
LES
▁Significant
▁Cosmetic
▁Extension
▁Sacred
▁accustomed
▁interlocutor
▁starvation
▁Identity
▁Shield
å
▁Rwanda
▁flaws
▁Throne
▁Caught
▁Textile
▁scanning
▁tub
uan
▁Valery
▁seventeen
▁collar
▁Frequently
NF
▁monks
▁(44
▁Hur
▁Controller
▁Sunny
▁shifted
▁FDA
▁lamb
▁Qur
▁Shot
▁mediation
PER
▁collects
▁111
▁extensions
▁dome
▁Commons
▁Stein
▁Hawking
▁tit
▁Plans
▁NEWS
▁separatist
process
▁Quad
▁6,000
▁disturb
ía
▁Forever
▁Trib
▁acquaintances
ament
smith
▁Abuse
▁hacking
▁scholarships
▁stretching
▁flowing
▁donate
▁diminish
▁Happen
▁Isle
▁browse
think
▁Aristotle
▁Oracle
▁Sabbath
▁ceremonies
▁disastrous
▁furnace
▁insomnia
▁precaution
▁prestige
▁undesirable
▁probable
▁deported
▁Gothic
▁valuation
▁kidnapped
ceptive
▁metaphor
▁genome
▁confusing
▁feather
▁extradition
▁brighter
▁entrepreneurial
▁Interface
▁predator
▁Makar
▁waist
▁username
▁Xbox
▁Chang
mounted
▁theorem
▁Д
▁Coordinat
▁locks
▁99%
▁Robb
▁matched
physical
▁Maid
ndi
▁Venezuelan
garde
Here
▁"[
▁ruined
▁1907
▁resumed
Roman
▁commanders
▁Income
▁(9)
▁cured
development
Polish
▁curl
eria
information
▁twins
although
chlor
▁spontaneous
▁hung
▁meteor
▁Elements
▁extinct
▁Fee
▁Equal
▁Deputies
▁INTERNATIONAL
▁Recogniz
▁antiquity
▁detergent
▁happily
▁identifier
▁innocence
▁origami
▁syrup
▁predominantly
▁wilderness
▁withdrew
▁Hart
▁fauna
▁displacement
▁Vacation
▁Rachel
▁Pocket
▁Bronze
▁wrapped
▁irre
▁(2013)
▁Angola
▁Configuration
▁Certificates
▁WiFi
iter
▁wax
▁EBRD
__
▁nonprofit
▁Particularly
▁nutritional
▁Required
▁anesthesia
otherapy
▁skiing
▁Ala
▁blanket
▁300,000
▁Lap
▁Shooting
▁urges
▁Gardens
-2014
▁Relationship
ISS
▁guitarist
▁disks
▁Fame
▁contradiction
enia
▁programmer
▁melting
Mag
▁sewing
▁MIT
▁bedrooms
▁Jump
▁Shar
«
Children
▁Podil
▁slopes
▁Investors
typical
June
5/
▁programmers
???
▁Strap
▁rounded
OVER
4]
▁Grad
▁definitions
▁merits
Mr
▁Excursion
▁Petroleum
▁Thompson
▁imaginary
▁metropolitan
▁susceptible
▁enamel
▁£1
▁Thread
▁slept
▁Hubble
▁Ghana
▁consular
▁inviting
▁stroll
▁(42
▁altar
▁equilibrium
▁Subsequently
▁adaptive
▁scam
▁Stockings
▁gem
▁19:00
▁3:1
▁Logic
▁expired
logue
▁126
▁Feature
▁Macedonian
ife
▁PAR
▁5.1
▁Accounts
▁Signal
▁pyramid
▁capsule
▁Carry
▁paradox
▁fertilizer
▁cereals
▁tabs
▁Started
anal
▁Kut
ñ
▁kits
determination
weather
Jehovah
hardcore
mobile
safe
patient
VERY
▁revive
▁Resorts
▁Actions
Comp
▁exempt
2.0
West
▁Explore
▁cables
▁foresee
▁Manufacture
▁Principal
▁patented
▁Departure
▁Pregnancy
▁Yerevan
▁advancing
▁fabulous
▁vegetation
▁forefront
▁Polo
▁intestinal
▁Composition
▁Pale
▁Honour
▁monasteries
▁lodge
▁Murder
▁undergone
▁preview
▁reflex
▁uncontrolled
▁stereo
▁TRANS
▁Greg
▁frightened
▁Dash
▁pirate
▁remainder
▁Slovenian
TIS
IK
▁poles
rough
▁crushed
▁analyse
▁Baptist
▁clan
▁intern
▁Casa
▁Sym
▁Chern
▁Instrument
[8]
▁acquaintance
▁Lace
▁peasant
▁Sau
▁Sochi
▁Chor
▁faint
▁auxiliary
▁Ava
▁touches
wich
▁rust
▁hearings
▁freed
solution
etto
evych
hou
stones
▁yields
▁POL
number
▁15,000
aku
LINE
kk
ль
ZA
▁ion
▁Ai
oka
▁Restaurants
▁monsters
▁Mongolia
bacter
▁sy
▁bribe
1⁄2
▁Economist
▁Settlement
▁Stunning
▁Svetlana
▁constellation
▁excavation
▁graduating
▁protagonist
▁shampoo
▁tablespoon
▁technician
▁Extraordinary
▁Carnations
▁proprietary
▁captive
▁polite
▁surveyed
▁Robinson
▁interventions
▁ARM
▁Translate
▁Carpet
▁courtyard
▁spotted
▁comfortably
▁cyst
▁APK
▁deprive
▁epic
bili
▁visualization
▁overlook
▁Reef
▁Galician
▁Duty
▁oak
▁socket
▁predictable
▁Dylan
▁offender
▁4.3
▁(53
▁WW
▁Gala
▁Tap
▁audits
▁Н
▁[3]
▁lifelong
:06
▁Kuz
▁Points
▁monograph
▁masterpiece
▁chronicle
▁Dynamics
Mu
▁Rail
▁Democrat
▁headaches
pain
▁rib
▁bon
▁manufactures
▁attorneys
▁distract
treatment
upon
Economic
September
ICAL
▁Chal
▁Acting
▁Bishops
▁Spo
▁strengthens
▁Fully
RAM
cation
▁hatch
▁pests
▁Indiana
▁flags
▁Dhabi
▁Difficult
▁consortium
▁Dmitri
▁surplus
▁smiling
▁literacy
▁Goals
▁compelling
▁Ecological
▁Demon
assi
▁Attend
▁facades
WE
▁liberated
▁downtown
▁novelty
symmetric
Show
▁Kle
▁pants
▁NBA
▁injections
Year
tsov
▁pumping
20,000
calc
(12
▁illustrations
▁topical
▁Nicolas
ARA
▁communicated
▁1600
▁Vasily
▁Sv
▁Sharing
▁privileged
MAP
istan
▁(34
▁STR
cie
▁256
film
▁Operational
▁Prepar
▁Ara
▁185
▁Residents
full
320
ACT
▁2,5
igo
▁Shan
GU
▁Medic
▁Concern
mouth
country
contract
▁Solve
▁Closed
▁Means
▁176
▁complicate
▁translates
0.5
▁144
▁crowded
▁cucumbers
▁quota
▁Registered
elected
▁TripAdvisor
▁credibility
▁feasible
▁mysteries
▁vacancies
▁alumni
▁Austro
▁Indicator
▁Guitar
▁Background
170
▁08:00
▁Larry
▁rat
▁tilt
six
▁enzymes
▁embodied
▁waterproof
▁Cannes
March
▁Poker
▁corrected
▁14%
gol
▁vascular
▁scarce
▁Horn
▁Andrei
▁Aires
▁Nikolai
▁commend
▁Moral
▁Poll
▁spirituality
mph
115
ан
▁tightly
▁anonymity
▁Spare
▁Humanity
▁Toward
▁bur
▁rooted
NK
▁Dynamic
▁snack
▁capsules
▁diplomas
▁storms
physics
▁Tracking
▁Strange
iser
built
▁Vir
▁Borys
Right
Women
program
▁Came
Lab
lang
Mature
▁shelling
▁informing
▁struggles
▁Luther
zza
▁Buenos
▁Ingredients
▁LinkedIn
▁Perspective
▁Temporary
▁Twelve
▁millennium
▁motif
▁Kazakh
▁Yalta
▁confined
▁federation
▁Ride
▁Kurds
[22]
[20]
▁hiring
▁bolt
▁Editorial
▁soils
▁Dawn
Har
▁consulate
▁Hop
▁mentioning
▁Eternal
maz
▁Franc
▁transmitter
▁SQL
▁Kel
haus
▁booth
Take
▁MR
ih
▁Ivanov
total
▁Cargo
▁Vasil
▁FSB
▁enduring
▁abide
▁(45
allow
▁ML
▁USS
▁alteration
▁revolver
▁sixty
▁lid
▁decorations
[5]
works
▁receptors
▁Colt
▁migrant
▁Ple
▁CBS
▁dumb
Ph
▁dam
▁crush
▁awaits
mount
▁occupying
▁transporting
niv
▁ICO
▁feeds
cross
▁#3
BLE
▁safest
friend
▁Sci
▁discs
fon
oun
▁bail
104
western
▁138
▁unfortunate
▁che
▁fasting
▁supplemented
0,00
▁immoral
▁Transform
▁Lay
▁BUSINESS
▁Statistical
▁elevation
▁precipitation
▁seldom
▁vigorous
▁Falun
articulate
▁notorious
▁Suppose
▁roast
▁Grigor
▁worthwhile
▁wanna
▁illumination
▁Conversion
▁grapes
▁Drunk
▁Interactive
▁Sensor
▁MON
▁drawback
▁bucket
▁Auditor
▁scenery
▁Profit
Dan
▁Failed
▁3/4
▁iconic
▁typ
DAY
Ju
ordination
▁sums
▁Orthodoxy
▁Across
▁Gai
pra
▁redirect
▁aspire
▁perish
:48
Ag
▁bro
0.1
▁challenged
▁fig
▁Cause
lived
▁treats
▁eu
▁shoots
▁belts
▁motive
▁inspect
▁Liv
▁Flying
bbl
Web
erated
▁tense
▁factions
▁Eden
:09
▁45%
▁Shoot
monopoly
November
Turkish
Video
nuclear
▁crumb
performance
protect
▁drafting
▁inherit
eastern
."—
▁assemble
know
iate
:58
▁Bride
1,000
▁remembering
▁Initial
▁Gua
super
▁Mach
▁flip
▁interacting
mode
▁Aleppo
▁Jessica
▁Translator
▁UNICEF
▁imperative
▁laureate
▁radiator
▁goodbye
▁Architectural
▁hydrocarbon
chart
▁NABU
▁(2015)
▁Abram
▁bankrupt
▁Reagan
▁Austin
▁fancy
▁Piece
▁missionaries
▁Valid
HF
▁distortion
▁polling
▁reinforcement
▁frankly
tsya
▁beard
▁hr
▁hitting
▁Laz
▁Bach
▁gadgets
▁Lis
▁prof
▁Vil
▁Organ
▁deepening
hara
▁connector
▁pine
▁Vul
▁positioned
▁Corner
ennial
▁gotta
Indian
inder
▁administrators
▁Hip
jection
ogni
▁Sisters
▁Sap
▁Mama
Pacific
publish
ORS
▁Mort
▁Experienced
▁traveler
▁%)
▁Rab
▁pressed
▁Khal
CAR
FL
▁Kent
▁bombers
▁Bolt
▁formulate
▁grenade
▁Families
▁Mitsubishi
▁Molecular
▁Saakashvili
▁Stewart
▁Territories
▁autocephaly
▁curiosity
▁helmet
▁pragmatic
▁residue
▁synthesize
▁ukrainian
▁sniper
▁estrogen
▁underwent
▁Gustav
▁annoying
▁thyroid
▁sociological
▁footprint
▁jaw
▁Pushkin
▁humankind
▁torment
kho
▁Sq
VC
▁lethal
▁Done
▁commenced
▁drafted
▁witch
▁merchants
▁potent
▁Rabbit
▁ward
▁traded
loc
▁congregations
stress
serving
▁Ural
▁provoked
immer
▁GTS
stand
▁Selling
▁unexpectedly
▁(43
sche
▁glyc
▁spouses
▁tapes
▁Pact
here
▁q
▁inserted
▁unrest
.[11]
▁cage
Play
MBA
▁Institutions
•
Chinese
Invest
▁Sept
ти
▁Hebrews
▁surpass
Drive
inka
8]
▁Mason
▁backward
▁Flex
▁Defend
▁arbitr
220
▁closet
▁Mess
▁Ronald
▁Winners
▁Berkeley
▁Maldives
▁memoir
▁preparatory
▁psychiatrist
▁wolves
▁Orleans
▁acclaim
▁DPRK
▁siege
▁Fiscal
html
▁1:1
▁Broker
▁distill
▁Specifically
▁Panties
▁impairment
olin
▁accomplishments
▁gateway
▁methane
imon
▁HTC
▁dismissal
▁Recommendations
▁Pechersk
▁volcanoes
▁interim
▁DNS
▁Broad
▁Mercy
▁rivals
[11]
▁representations
▁plead
integrating
aman
▁constrain
▁Gav
uj
▁Finished
wed
amba
▁treasures
▁VO
▁cer
LAN
▁Pound
▁Roy
brow
▁Proverbs
/11
▁witnessing
▁Rih
▁Gram
pressed
rench
coin
▁instruct
trip
2002
▁graphical
lant
▁lowering
productive
vod
commercial
Jesus
sort
Italian
electronic
▁mixer
▁Rig
GL
club
▁Vehicles
▁Vase
▁hacker
▁1890
▁induce
▁Tubes
▁Cruz
▁Marshal
▁ABS
chat
every
▁COR
▁stole
▁Earn
▁Describe
▁177
ž
▁Alabama
▁Bermuda
▁Influence
▁UKRAINIAN
▁brethren
▁nicotine
▁proletariat
▁secrecy
▁Swift
▁reassure
▁loneliness
▁Crusade
▁redeem
Qaeda
▁legitimacy
▁incapable
▁Adolf
▁kettle
▁Zurich
▁pornography
▁southeast
▁massacre
▁Poetry
▁choir
Flix
▁fireplace
/2015
drive
▁GNU
▁UFO
▁168
▁Flow
▁kindly
он
▁betrayed
▁121
▁Prevent
Entrepreneurship
inska
▁Known
▁Studying
little
▁forwarding
chel
▁pasta
▁Damage
▁Decorati
▁Released
▁snacks
▁Sham
Pan
▁GS
▁Sie
▁Candidate
▁turbine
▁slim
▁Pastor
uh
Win
mara
professional
Moscow
private
Blue
critical
▁timetable
season
▁riches
▁atheist
lich
Gal
▁Ultimate
▁eighteen
▁ridge
▁Behavior
▁Caspian
▁Hydraulic
▁Responsible
▁Rohatyn
▁Technique
▁algebra
▁breastfeeding
▁comrade
▁concluding
▁influencing
▁pharmacies
α
▁Emmanuel
▁Abbey
▁dispens
▁Securities
▁benchmark
▁potassium
▁wavelength
▁multilateral
▁cyto
▁rotating
▁spoon
▁Murray
▁connectivity
ASH
▁reorganization
▁unused
▁favourable
▁beside
ivskyi
▁Beau
▁LIFE
erator
▁denote
▁displaying
BT
▁Vitaliy
▁numerical
▁aesthetics
arenko
methyl
7]
▁trader
▁bead
▁morally
▁instructors
▁oblasts
UST
Phil
▁Blow
cchi
1.4
▁NP
▁lowered
▁traced
child
▁chase
▁(47
▁countryside
inus
▁taxpayer
etti
▁Unusual
▁genetics
▁1.9
▁EF
▁raped
best
▁Lily
▁Gry
Pictures
OO
▁prose
▁Items
▁seating
▁PRE
eye
▁Ethiopia
vice
rz
omer
▁disputed
▁Basel
▁Pets
▁Neighbor
▁Identification
▁Medieval
▁Netanyahu
▁Santiago
▁bracelet
▁cerebral
▁contraception
▁definitive
▁locomotive
▁welcoming
▁heavier
▁opposing
▁Sandwich
▁WORK
▁friction
▁Civic
▁bundle
▁Worship
[6]
▁Smartphone
▁(2011)
▁(2010)
▁hyp
▁alpha
▁turbo
▁spectr
AIR
▁stiff
EUR
▁procur
lbeit
▁Vista
▁Paulo
▁facebook
▁Neck
tele
▁strategically
▁pod
▁mapping
▁Rosen
▁Bali
skoe
▁Organiser
ovskaya
WO
▁thrilled
▁agreeing
around
aja
▁Tender
natal
▁2.6
:56
▁Quin
▁192
▁damp
▁conveyor
▁sticks
▁bush
hof
▁boil
nci
ABLE
▁yo
▁Semen
▁Franz
▁publicity
god
▁1848
bridge
9.5
▁spur
apa
▁originality
▁CAD
▁Correct
kina
▁146
▁$9
▁aboard
inflammatory
▁Sharp
bedroom
▁Seat
▁headset
▁(55
▁patriotic
▁strips
regional
:47
▁Investments
▁impartial
▁Chick
▁orphans
▁Circuit
▁Ctrl
▁Judaism
▁Simpson
▁inconvenience
▁Muscle
▁Clothes
▁proxy
▁Magnet
▁identifiable
▁Feedback
▁plaque
▁invaders
▁mobilize
▁sunrise
▁Naked
▁Photoshop
▁summed
lasting
▁RedTube
▁childbirth
▁Alma
ichi
▁STA
▁Rural
fix
▁impaired
▁Announcement
▁Offers
▁18%
▁Karp
▁Rein
fir
▁prey
▁ie
▁sexuality
▁za
horn
▁Commit
▁specialised
▁coaches
▁Nile
▁announcing
▁Basil
▁Boxing
tea
▁crowds
▁weakening
▁Bead
▁Shaw
▁burnt
▁endured
ready
▁Flo
2]
▁inefficient
▁transitional
nticorruption
URE
April
▁bugs
▁Tat
▁furnish
click
▁Adjust
▁digits
driven
ador
▁Ted
destruct
/2016
clusive
▁spectators
▁143
▁Sit
eater
shot
storm
▁Corresponding
▁Maksym
▁Ordinary
▁Pittsburgh
▁PlayStation
▁Zuckerberg
▁cabbage
▁evaluating
▁impetus
▁menstruation
▁prevalence
▁sequel
▁hemisphere
▁psyche
▁unmanned
▁Wisdom
▁Surprise
▁Friedrich
▁replies
▁Rifle
▁messaging
▁Edema
▁Submit
▁ECTS
▁MORE
▁Skinny
▁slightest
chair
▁CAS
▁Aaron
▁Regulatory
▁Ezekiel
▁overwhelmed
format
▁Vlad
▁intentionally
▁sinners
▁hug
▁warriors
▁cocktails
colored
ов
▁theaters
▁Malaysian
php
▁Lib
▁disturbed
▁!!!
bling
▁standardized
▁angles
▁Classes
:54
▁supermarkets
▁consciously
▁arrests
▁Ov
elo
inski
▁symbolize
gregat
iii
▁Observ
▁—2
▁sinus
▁normalize
▁Catch
Mom
▁Transit
▁1904
▁laptops
▁Thing
▁commissioning
▁sep
chyn
▁Visiting
fuel
Cam
▁Principle
▁Been
pathy
yak
▁instructor
Everything
Hebrews
ival
isi
▁SR
▁allied
▁IX
▁Abkhazia
Land
▁tv
▁Mostly
▁к
hit
2003
▁Judici
▁gram
▁pseudo
Deuteronomy
▁Efficient
▁Intelligent
▁inaccurate
▁plenary
▁thieves
▁translating
▁spokesperson
▁Mutual
▁peacekeepers
▁crawl
▁Sentsov
▁maternal
▁vague
▁Gentile
▁Scout
▁(2017)
▁IoT
▁Recreation
▁Debt
▁lump
▁poisonous
▁gentlemen
▁Omega
▁oxide
▁aunt
▁Bulletin
▁Mastercard
▁veto
▁Promise
▁Holmes
reaching
anza
▁Serhii
IFF
▁Lucky
▁Grave
▁compressor
tek
▁pensioners
HAN
▁fibers
▁Por
▁pity
▁interrupted
▁pulling
▁Libyan
5.6
▁225
▁directing
▁portrayed
▁caps
▁Coco
▁configured
▁CBD
▁5.0
▁Ilya
vik
▁Gir
▁entertaining
▁lace
izh
▁enforced
▁Fact
▁Components
▁Desire
▁Turner
▁0.8
HY
▁Payments
▁fin
▁Boyko
headed
114
▁inspires
▁stresses
ometric
▁Hear
pdf
health
▁hopeless
▁intercept
birth
berries
▁enhances
▁Pavlov
▁differentiate
censor
▁rewarded
▁sowing
▁retaining
▁Carnival
▁Ethereum
▁Gibraltar
▁Nintendo
▁Ombudsman
▁SYSTEM
▁coconut
▁provocative
▁Comparison
▁bureau
▁settling
▁urgency
▁Examination
▁Paragraph
▁microscope
▁bisexual
▁Smoke
▁Childhood
▁waking
[23]
▁repentance
▁pardon
▁Mosque
tergovernmental
▁tallest
▁renovated
▁Achievement
▁Finn
▁Oleh
ntly
Royce
▁Tall
▁Toggle
▁Б
▁liquidation
▁Karen
▁compressed
▁Drone
▁retailers
▁Normally
▁english
▁elites
secure
▁Mira
▁awaiting
asian
▁CSS
▁fog
▁confronted
▁realizing
▁Writers
▁sow
EW
KING
▁pc
THER
▁aspirin
▁priv
▁0.6
▁Layer
▁Pul
▁Kun
PV
▁Lose
▁sometime
▁similarity
▁Stud
▁addict
financial
profile
▁Bran
alone
Tu
▁refine
▁warrior
▁jumped
▁adjustments
skogo
▁Somalia
ivism
▁Protest
VEL
▁Patriot
▁Falls
▁Arrival
▁Delegation
▁Restoration
▁satisfactory
▁Basketball
▁coordinating
▁judging
▁Lavrov
▁Cisco
▁Destroy
▁seamless
soluble
▁sedan
▁trustworthy
▁Missile
[24]
▁alignment
▁Dig
▁Fortune
chet
▁Bog
▁Civilization
Ab
▁branding
▁traumatic
▁Maha
Out
iller
▁groom
▁14:00
▁overweight
▁Emily
opt
▁Stella
▁Graphic
▁17:00
▁Pulse
▁advertised
▁Established
rp
▁212
▁indian
▁SSD
▁Wang
▁KM
▁resting
▁lag
+1
▁builder
▁qualifying
▁ankle
▁132
▁Cases
▁£5
▁Gain
▁***
▁1,2
▁Participant
▁ceilings
▁Latina
▁169
▁localization
▁attackers
Young
hat
▁presently
review
(3)
▁Santo
▁stamps
Design
eph
▁JU
▁encompass
ITE
Many
3.1
▁Agri
▁Animation
▁Jeremy
▁Philharmonic
▁authoritative
▁awkward
▁cooperating
▁enthusiasts
▁irreversible
▁irritation
▁kernel
▁laundry
▁upbringing
▁yogurt
▁zombie
▁Pridnestrov
▁Warehouse
▁diversify
▁Column
▁harness
▁McCain
▁upgrading
▁Miles
▁Aerospace
▁Communities
▁Tits
jpg
▁malware
MER
▁latitude
▁Cheese
▁soundtrack
2.3
▁armour
▁lazy
▁concessions
▁Copper
small
▁Cum
▁3-5
access
6/
▁Gang
▁picking
▁analyzes
▁Whoever
GEN
▁proto
▁Vega
▁correctness
function
khar
▁departed
▁Pavl
Xxx
▁fry
tori
▁Loan
▁lever
▁Builder
▁(10)
▁stretched
ULT
▁Practices
fle
image
▁assistants
3]
effect
▁Spread
▁(11)
Everyone
However
rri
lean
▁transformer
ovets
NING
▁peaks
enburg
135
▁gland
▁Improving
▁Truskavets
▁approximation
▁inclination
▁psychiatric
▁vodka
▁wreck
▁Parkinson
▁Gulliver
▁Tunnel
▁transcript
▁Brotherhood
▁Negative
▁Matrix
▁biomass
▁Organizing
▁mythology
▁Deere
▁Billboard
▁embarrassed
▁dentistry
▁Crypto
▁dislike
▁insurer
▁labeled
▁XIV
▁Academician
▁excel
▁Habit
▁tolerant
tracked
▁Usage
▁moist
▁skeptical
▁gameplay
▁Lucia
residential
TES
▁WILL
kind
▁Ranking
▁Contractor
alter
▁realism
▁Disk
util
▁afterward
▁Rong
hang
▁Kyr
iso
▁Trying
3.2
▁truthful
▁Stu
▁sync
Ni
Will
▁il
Bud
▁Serve
▁wisely
Give
ukr
▁Papa
graduate
▁interrupt
▁eg
finished
gui
quarter
Number
▁Hundred
defense
▁4-5
Auto
rok
▁individuality
▁137
ether
trix
punk
▁deceive
▁harvesting
▁Theresa
▁Sold
▁Bert
▁commandment
▁flavors
▁sender
shyn
▁Birmingham
▁Bolshevik
▁Encourage
▁Galileo
▁Kepler
▁Kremenchug
▁Nevada
▁moratorium
▁prostitution
▁puppet
▁reluctant
▁stumble
▁fishermen
▁veneer
▁avenue
▁wrist
▁declining
▁buffer
▁quarrel
▁Louisiana
▁veil
▁yeast
▁orchid
▁Rostov
▁Balloon
[21]
▁hid
▁antivirus
▁IDPs
▁unanimously
▁erection
▁Delight
▁pact
▁KV
▁Ele
▁Pride
▁laughter
▁borne
▁exploded
▁submarines
rai
▁Thu
▁wires
▁securely
▁Mao
▁Household
▁budgetary
▁156
ICK
▁Nag
▁SAM
▁[4]
▁Claus
King
▁Acid
▁Transition
▁uniquely
▁hath
▁exploited
▁PRC
▁contradictions
▁Packing
▁BL
▁Rolling
isse
copy
▁sounded
▁someday
▁cru
▁Fold
knowledge
December
eco
▁Refugee
Under
▁Supplier
Park
▁Connecting
▁debuted
rchival
▁dissolve
Port
▁Lub
Last
▁educators
▁Died
Asian
later
▁3.6
khiv
ı
▁disseminate
▁embassies
▁envisaged
▁Oregon
▁anatomy
▁Gambling
▁UniCredit
▁cherry
▁malaria
▁IFRS
▁Skirt
inov
▁Demand
▁Babes
▁Radiation
▁foil
your
▁Mouth
:57
▁MHz
nell
▁Absolutely
kop
shore
OE
▁baked
▁Keeping
▁Bound
▁brass
▁ESO
▁kcal
▁Candy
▁dim
▁abused
▁fried
▁Warner
▁turbines
▁Individuals
▁disciple
lene
▁generators
Mac
▁0.9
labor
▁Instruments
▁Challenges
existent
▁Sich
▁shadows
▁laughed
yar
▁possessed
lion
▁Cooking
▁1880
correct
Earth
Keep
sometimes
Office
:49
▁Bron
▁XV
0.2
▁Trend
▁Rogers
▁Folder
Back
lob
▁occupational
factory
▁peri
During
Arab
▁Adding
▁pave
ibi
▁Congregation
▁Evidence
▁Paralympic
▁Platinum
▁Simferopol
▁Zaporizhzhia
▁dilemma
▁dubbed
▁iTunes
▁tribulation
▁Ebola
▁escalate
ê
▁firearms
▁vineyard
▁Fisting
▁figured
▁Trojan
▁noteworthy
▁Jewelry
▁curb
▁Actress
▁Manuel
▁Russo
▁recreate
umerous
▁Assist
riel
▁comics
paper
▁Humanities
▁interruption
▁adore
▁skate
▁Chef
fuck
▁Luk
▁forgiven
▁9:00
▁GBP
▁Trees
camp
centric
▁pat
IPS
▁Hut
pose
80,000
▁13%
▁rash
▁PART
▁TP
▁Functions
▁151
▁179
▁GOD
▁pioneers
▁OC
Max
▁bloody
▁Koch
▁Nav
Plan
cian
▁soften
▁constituted
ETS
▁LOVE
▁perpetrators
▁struggled
▁mas
▁Boil
▁Yugoslav
▁footballer
North
Space
believe
▁constructing
▁Zhu
▁siblings
/0
▁Prospects
▁4.4
▁Construct
▁2.7
ă
▁Biggest
▁Celebrate
▁Elephant
▁KYIV
▁Madonna
▁Territorial
▁accelerating
▁bizarre
▁champagne
▁legislature
▁Siemens
▁Abstract
▁incurred
▁Swelling
▁neighbourhood
▁polyester
▁cybersecurity
▁travellers
▁Ernest
▁Motorcycle
▁neurological
▁Roche
▁Postgraduate
▁RAID
▁assignments
▁presume
▁frustrated
nine
123
▁Creampie
▁clashes
▁terrestrial
▁Alarm
▁dropping
▁customize
president
▁Botanical
▁ox
▁136
▁Decide
▁noon
▁enacted
▁Reformation
▁Pilate
▁coding
▁ceases
▁Maryland
▁Spark
anu
▁airplanes
solving
▁Shak
isha
▁jealousy
▁147
pod
Retrieved
▁Rated
▁hail
▁720
▁performer
▁Kolom
▁sur
▁catering
▁Tanks
▁incorrectly
player
▁seventy
▁Mona
▁Doesn
▁dull
itic
▁Bour
▁Forming
▁(52
ри
▁respectful
▁Startup
▁circuits
▁convictions
/2017
▁respecting
litz
▁Whit
▁Highly
▁Watching
▁Ada
▁limbs
▁statues
▁Boots
▁stat
▁Mile
1-3
▁Peak
▁valves
▁awaken
▁Lat
khan
▁Neil
August
▁floods
▁Rid
▁ham
complete
genetic
▁reconstruct
▁Standing
▁Nam
UAH
▁Luis
▁Selected
tree
▁Participat
▁Hose
▁Scholar
ï
▁Agricole
▁Ferdinand
▁chemotherapy
▁dividing
▁interconnected
▁intermediaries
▁separating
▁stubborn
▁substitution
▁unhealthy
▁populist
▁José
▁relied
▁Luckily
▁FILM
▁Sculpture
▁irrigation
▁Auction
▁Estimat
▁french
▁(2008)
▁Random
▁(2006)
▁Underground
▁singular
[25]
▁Martha
▁Vest
region
▁fetus
▁1902
▁Sasha
▁Tourists
▁Cherry
▁perimeter
▁repay
▁OTP
▁Sul
▁originating
▁couch
▁Beast
▁Apostles
▁Slide
▁152
OH
▁condoms
▁1860
▁Sco
mitted
awn
▁toast
▁penis
▁spinal
▁Viewing
▁mourning
▁Superman
aker
▁148
▁mast
▁9%
emi
▁partitions
▁Triple
▁Reach
▁negotiated
▁millennia
jar
▁anemia
▁Oliver
dine
▁8,000
▁6000
icle
1.0
terra
▁Georg
saw
▁Gul
▁defender
................
half
▁watt
local
Yu
sales
→
▁Terror
zha
Internet
▁antioxidant
▁Lor
▁Medi
fusion
▁€1
▁Till
Never
▁Ranger
▁Leonard
Rev
ни
▁quant
▁expressly
▁Celebration
▁Exactly
▁Guangzhou
▁Millennium
▁Testosterone
▁asphalt
▁degradation
▁eclipse
▁flavour
▁irrespective
▁reconnaissance
ʹ
▁Trouble
▁caliber
▁chassis
▁climatic
▁ovulation
▁Picasso
▁Sight
▁congratulations
deal
▁Novgorod
give
▁tuition
▁quotation
▁adherence
▁reacted
▁Motorola
▁feat
▁Comfortable
▁naive
▁municipality
▁farther
▁authorised
▁Hood
▁endorsed
▁stir
hav
▁Doors
▁venues
lateral
ytsky
▁Acc
nen
▁penal
▁149
▁LOT
▁bump
loid
▁whereby
▁briefing
▁oh
▁RUB
ovski
▁Kissing
▁17%
▁Associated
▁ceramics
plasm
share
zzo
CHI
▁5-6
▁SHA
pound
▁Fans
TECH
▁Techno
▁Yi
▁wo
KK
shell
▁duct
▁Deals
witch
▁Bod
Power
RIS
▁Gli
forming
▁blades
▁harmless
▁condom
▁Doc
▁counseling
bug
MW
▁Lutsenko
▁Pyongyang
▁Recipient
▁biodiversity
▁folklore
▁remuneration
▁stimulus
▁ultraviolet
▁diagonal
▁imitation
▁Vadim
▁Onlinetickets
▁Superior
▁Welsh
▁repeal
▁Freight
▁permissible
▁Grammy
▁disciplinary
▁tribal
▁(2003)
▁Citizenship
▁Chechen
▁(2009)
▁Provence
▁Objective
▁Tyler
▁homosexuality
▁Remain
▁Jac
▁denies
lusion
1.6
▁sack
▁regeneration
▁Combined
▁Gem
▁coastline
▁±
▁Julie
▁Alexandra
▁Islamist
▁Promote
▁(54
▁Experimental
living
▁invade
▁Basin
▁Graphics
zero
▁heater
9]
uti
▁preached
bond
▁Ensure
cephal
2.8
fill
wal
▁Porto
coat
▁artifacts
lite
aq
5.5
▁131
quit
▁Wol
▁bake
▁(12)
▁boasts
▁cannon
arov
▁breeds
▁tracked
▁Sanders
▁remnants
quest
▁telescopes
Х
П
course
▁Vita
▁3.4
▁Killer
▁florist
▁Privat
▁markers
▁dryer
functional
▁adjusting
create
103
ю
▁Antalya
▁Athlete
▁Chelsea
▁Determine
▁Legislation
▁Reikartz
▁Zombie
▁eldest
▁extinguish
▁fragrant
▁obedient
▁recognizable
▁Optical
▁recycled
▁Emotional
▁intoxication
▁aftermath
▁null
▁microbes
▁migrate
escence
▁Nylon
▁referral
▁junk
▁Suitable
▁Restrict
▁straw
▁verge
▁Wrap
▁enlist
▁05:00
▁XVII
▁Boh
▁discontinu
lou
▁canyon
▁Shakhtar
▁Astro
ibe
▁NIE
IRA
TOP
3.0
▁proliferation
▁pornstar
▁Mate
▁utterly
▁Socio
▁predecessors
▁successive
▁Kirk
ivsky
▁Uh
▁bathing
▁Nest
▁Boss
plate
▁Rota
▁11%
▁Comics
▁Yama
▁corpse
▁cracks
▁auditing
Mor
▁steppe
▁elephants
▁lining
▁shorten
▁Teenage
▁BT
▁133
▁2:1
▁Sei
Help
ovna
][
▁designate
▁underestimate
▁sleeve
▁Scientist
▁mps
▁Particular
▁nationalists
engine
▁infect
ь
▁Cemetery
▁Creativity
▁Dynasty
▁FIRST
▁Français
▁Majesty
▁Scroll
▁Versailles
▁ergonomic
▁expulsion
▁illicit
▁menopause
▁Wilhelm
▁intensified
▁Diesel
▁Stuart
▁tyre
▁clearer
▁wiring
▁Dennis
▁Guess
▁Shift
▁patriotism
▁Lavra
▁Turbo
▁NGC
▁flare
lek
▁Nazar
▁Nancy
▁Antique
:52
▁spies
▁HOME
▁centered
holding
/16
▁Til
▁pastoral
▁Qui
▁bicycles
▁Tiny
▁textiles
▁BEST
▁rotor
▁discontinued
▁tractors
MED
match
▁assertion
degree
▁Arc
gua
▁Lyn
▁cartoons
▁Dresses
▁Alberta
▁neglected
▁TC
▁Khar
acci
▁drawer
▁Crew
▁rim
▁Quit
▁prim
ruk
GF
▁battalions
▁GW
igi
▁fleeing
clear
▁highways
▁screws
tested
yang
sale
▁embroider
▁importing
wig
zzi
Previous
terrorism
album
▁kr
▁enroll
▁commence
▁photographic
named
ulous
▁Linda
▁Chen
▁astronomer
▁gifted
MV
▁Drinks
▁Recommendation
▁Actual
▁Pha
CHA
▁compute
Like
▁archaeologists
comprehensible
▁DEVELOPMENT
▁Euromaidan
▁Squirt
▁Tennessee
▁feminine
▁harbor
▁laundering
▁legislator
▁unfamiliar
▁WORLD
▁arterial
▁spicy
▁intrigue
▁Circus
▁amenities
Mohyla
▁sim
▁Bottom
▁Comparative
▁Fortress
▁Cock
▁Pinchuk
▁Transmission
▁(2016)
▁Collins
й
▁converting
▁Prediction
▁Emerg
warm
▁Gogh
▁Everest
▁blur
▁lime
▁sculptor
▁invoke
▁benefited
▁swap
▁Chuck
nist
▁Melan
▁Taste
glo
▁Notification
▁maxim
KP
shaved
▁Aval
aph
aux
▁Kurt
▁Consultant
found
▁Concerning
▁tits
▁sorting
▁Lovely
▁Fighter
▁Arma
▁LL
▁shifting
large
▁340
CN
azh
▁Scho
▁Bila
▁Canton
orial
▁pirates
▁tortured
resident
▁shirts
▁counteract
TON
▁Kov
▁Sean
signed
▁overseer
nich
▁Dow
acre
continent
Energy
▁dip
▁broadly
lice
▁Bondar
▁Rais
Center
▁Quo
DIA
▁Businesses
▁Result
▁sqm
▁enzyme
▁hinge
▁Applicants
▁Postal
▁Boutique
▁Facilities
▁Honduras
▁boutique
▁corrosion
▁executing
▁pronunciation
▁smuggling
▁wreath
ş
▁OECD
▁Paraguay
▁Suggest
▁endeavour
▁thrust
▁Pediatric
▁Plasma
▁Tatiana
nytsia
▁vapor
▁panoramic
▁potency
▁prevalent
▁Azure
ç
▁logged
▁interchange
▁Sitting
▁Judgment
▁Keyboard
▁Sebastian
▁Tractor
▁recharge
▁voiced
▁tier
▁Called
▁differentiation
▁É
▁vocals
▁Powerful
▁stretches
▁desperately
▁appropriately
▁insect
▁Bryan
▁insists
WC
▁Chop
▁Optional
▁Interested
operative
▁backwards
ivna
/9
workers
▁lively
▁textures
▁analogues
ос
ля
▁prostate
moral
▁anime
▁bent
iron
atta
▁pioneering
▁480
▁Honored
QU
ashi
linear
▁139
Redirect
▁DEC
hub
▁'%1
650
Е
History
Modern
english
▁competed
Lord
hydro
▁Chip
▁robber
′
▁Beatitude
▁Cameroon
▁Pleasure
▁Pyramid
▁congestion
▁deception
▁eBay
▁erroneous
▁espionage
▁fragrance
▁iodine
▁irrational
▁nickel
▁pandemic
▁quarantine
▁separator
▁Alpine
▁creep
▁Employer
▁laminate
▁transgender
▁assuming
▁Vendor
▁Hardware
▁Craig
▁transplantation
▁Highlight
Have
▁beginner
▁expressive
▁commentary
▁offend
▁towels
▁airfield
ulo
▁reap
▁GHz
Once
▁mindset
perform
▁multicultural
fore
gmail
▁poetic
▁annum
▁weighed
EAN
▁Sprint
▁refreshing
kovo
▁quotas
▁asserted
▁learners
▁sinful
ologies
▁Aim
residents
ytskyi
▁mutations
ovic
roz
▁Alta
ITS
▁sym
hack
▁Vor
cylinder
Amateur
Cloud
▁OFF
House
▁biologically
▁Helping
▁Boro
▁explode
▁dedicate
▁bun
Did
▁quicker
▁onions
(10
▁Baron
Eng
▁circumstance
SKA
▁Curtain
▁Mechanism
▁Removal
▁aforementioned
▁hypothetical
▁lithium
▁reputable
▁stabilization
▁stipulates
▁varnish
▁Relax
▁Shepherd
▁sulfur
▁Ralph
▁disgust
▁Pioneer
▁Sociology
▁Lounge
▁nominee
▁farewell
▁Incident
▁Venture
[27]
▁knitted
pov
▁reconsider
▁Silent
▁bourgeoisie
▁MU
▁Everywhere
▁webpage
▁Preview
2.4
▁monk
▁Wayne
▁sleeves
skoy
lactic
▁filtering
▁Plot
▁safeguards
▁blackmail
atio
ordinate
cool
▁Wool
Log
▁glands
ERA
▁Rush
▁onboard
▁borrowing
▁Scha
▁imagery
▁Thin
lower
ente
borne
▁embraced
▁Homeland
Israel
▁Ped
▁robotic
▁16%
flo
▁textbooks
▁rushed
▁liar
▁WC
▁Gill
▁photographed
▁Shap
▁Plain
polar
▁Voron
▁164
▁Kai
▁revolve
claim
▁boilers
▁Tyr
▁157
children
BUD
Support
Build
Eastern
▁Damn
▁WAR
▁Raz
▁Legends
qi
▁Wu
▁uncover
▁Zhe
▁Announce
▁advisers
▁concession
hiv
▁Tight
sufficiency
▁Convenient
▁Conversation
▁Divorce
▁Fantastic
▁Guinness
▁Mitchell
▁Penetration
▁Portfolio
▁Strategies
▁Zaporizhzhya
▁chloride
▁convoy
▁impossibility
▁marathon
▁nephew
▁renounce
▁sanitation
▁substrate
▁superficial
▁Disaster
▁Syndrome
▁Attempt
▁Theodore
▁empathy
▁shining
▁False
▁chapel
▁scalp
▁habitual
▁parliamentarian
▁sociology
▁unavailable
▁accomplishment
▁objectively
▁uncommon
▁Evans
idae
▁Hammer
cible
▁preceded
▁postcard
▁Legion
▁smokers
jet
▁Jin
former
▁Moment
▁metallic
▁Rising
▁Youtube
▁patriot
▁Recipes
▁uncovered
▁Echo
▁asteroids
Arm
▁pra
▁sensory
▁Worker
▁induced
Get
▁Loans
▁confessed
▁marsh
▁richer
▁Seal
▁Socialism
▁Tusk
setting
▁Traveling
▁Fen
▁credentials
▁seekers
evka
anova
▁Measures
neck
▁heaters
▁Lad
positive
Government
NESS
trap
Direct
▁Astra
attack
▁entails
▁launcher
Term
▁Persia
▁Dzh
▁1400
sistent
▁grape
anne
▁Salvation
▁Strasbourg
▁Tajikistan
▁Turkmenistan
▁bodily
▁diversification
▁extremism
▁resonance
▁vulnerabilities
▁Facility
▁inquiries
▁tasting
▁outskirts
▁Critics
▁mistress
▁Dianabol
▁Domination
▁reckless
▁distrust
▁ozone
▁sponsorship
▁impart
▁immortality
ultidisciplinary
▁fluent
▁Missing
▁Sense
email
▁grandson
nym
▁LLM
▁tenants
▁preferably
▁Restore
▁unclean
▁deadlines
▁utiliz
▁jumping
▁Icelandic
▁uneven
bei
▁theorist
▁statehood
▁Orbit
Tri
▁925
▁analysed
▁qualitatively
▁Zar
▁QU
haul
cash
▁antiques
their
▁timeline
▁Forced
▁Telegraph
▁trusting
777
▁modelling
▁ideally
▁Shirt
▁thrill
▁Frankivsk
3.00
▁(51
lp
▁Paid
▁GRA
▁weave
BIZ
cloth
cuba
▁compress
▁Skip
▁kissing
Hu
LOW
religious
▁polled
▁lacked
▁profess
▁endanger
550
▁Said
▁rocky
▁orphan
▁CHE
▁enlighten
▁Concrete
▁Galilee
▁blossom
▁celestial
▁devastated
▁impregnation
▁mosquito
▁sampling
▁schizophrenia
▁Celsius
▁aerospace
▁dominance
▁unleash
▁Welding
▁Vertical
▁Marilyn
▁compelled
▁Madison
▁Appear
▁malignant
▁clown
▁marvelous
[26]
▁revoke
▁biometric
▁Brutal
▁HGH
▁cyclone
▁restrictive
▁divert
▁rethink
▁char
▁Rhine
▁1700
▁Hz
▁suburbs
▁Rector
▁distraction
▁hometown
▁cater
▁Wonderful
tok
▁TIME
▁mint
▁Strengthening
▁Lucas
▁detecting
▁beforehand
▁Jury
noe
▁Mosaic
▁scent
▁Arn
▁Colon
▁monumental
▁Retro
holders
▁Shipment
▁Matters
▁20:00
▁Desk
▁Publication
▁Quickly
▁Vysh
▁Clan
usz
Sea
▁Nap
▁redesign
kla
▁masterpieces
▁pyramids
▁Roth
▁greet
▁64-
▁Relationships
close
pedia
▁mole
mega
ferenc
bek
Bel
▁WIN
TEN
▁Graph
▁placebo
▁Clari
conscious
January
democratic
shift
quo
chain
drop
▁Chronic
8.5
training
Â
▁Atlantik
▁Boulevard
▁Cleveland
▁Motivation
▁Neanderthal
▁Possibly
▁Puzzle
▁Revenue
▁clarified
▁continuity
▁resilience
▁isotope
▁Zaporizhia
▁disguise
article
▁transfusion
▁Violation
▁Dallas
▁Mistress
▁pleasing
▁proclamation
▁deprivation
▁Serving
▁(2018)
▁Calculation
▁automate
▁ancestor
▁loft
▁premise
▁Bodies
▁Arrow
skaia
▁starving
▁Volga
▁oligarch
Energo
▁Pantyhose
▁madness
▁robotics
▁balancing
▁Vector
▁resurrected
▁Fuji
▁toolbar
▁sketches
▁NBC
▁mountainous
▁Wherever
▁legality
▁Parade
▁Jamie
▁Г
▁Crop
▁Calvin
▁similarities
▁fictional
▁hp
▁DH
tainment
▁Terre
bee
▁sober
▁staged
0.000
▁Kolo
iba
▁Christie
iano
onne
▁Organizational
▁Georgi
▁boo
cook
▁coined
▁uploaded
▁Offering
▁outset
▁Oli
▁Goal
▁Bean
integr
▁Rear
Class
Radio
corporation
education
▁Archi
either
itar
▁WH
analysis
respect
collect
▁oppress
▁Abe
strong
▁silicon
▁Dio
▁Pac
▁hereby
▁Bowl
▁bloggers
▁420
▁Turning
▁Ceremony
▁Consortium
▁Ebony
▁Financing
▁Incredible
▁Registry
▁Stylish
▁Yatsenyuk
▁emergencies
▁irrelevant
▁sabotage
▁specifies
▁tempted
▁thumb
▁Communism
▁Ernst
▁sponge
▁abstain
▁underlined
▁Maduro
sufficient
▁attacker
▁YEAR
▁landlord
▁Martian
▁complie
▁Wheat
▁Progressive
▁Crete
flight
▁Marcus
extrem
/7
▁Hawaiian
▁Hugo
▁enlarged
touch
ogo
▁Claude
▁gaze
▁collide
▁Spice
▁Prussian
▁1850
▁1901
▁Muse
▁rewarding
breaking
▁CEC
ukhov
▁Alone
▁enriched
▁Lemon
▁screaming
▁aligned
▁awarding
ín
flowers
▁corps
▁reviewers
jn
Buy
▁Ran
▁prevailing
▁6.1
но
▁Shir
▁Fairy
▁flooded
ом
▁souvenirs
ario
ube
▁$15
▁pyr
mature
▁gamers
▁Johann
1.8
▁bacteri
▁rage
▁PIN
cene
Odessa
▁lecturers
url
▁entrust
Soft
sound
▁Juliet
▁Valentin
Cute
▁rug
▁BlackBerry
▁Fountain
▁Hyundai
▁Moroccan
▁Quantum
▁café
▁encoding
▁intermediary
▁prophecies
▁reliably
▁residing
▁sensual
▁uterus
▁dividends
▁malfunction
▁refute
▁Kansas
▁mystical
▁residency
▁mortar
▁Bisexual
▁granny
▁Ahmed
▁northeast
▁belly
▁Terrorism
▁enrichment
▁DISC
▁cruelty
▁digestion
▁Bookmark
▁Andrea
▁Constantine
▁hairstyle
▁astronaut
▁Harrison
▁robbery
▁adjustable
▁forecasting
Top
▁chemist
▁Iowa
▁500,000
▁subscriber
▁MK
▁Cage
Activ
▁logging
▁recovering
▁flooring
▁analogy
▁Е
▁Hate
▁fairness
▁chic
▁Drilled
▁Invite
3.3
▁adapting
▁Candidates
▁Specifications
ookie
nese
▁Sail
kv
▁Mou
▁fox
▁nun
▁$500
Eco
handed
▁gladly
enne
▁Peri
Three
Global
James
Italy
organization
blood
Human
▁Bare
▁vertically
▁pest
▁coated
▁conceive
mach
▁Assets
▁swift
▁15-20
▁Serious
▁facilitated
▁infringe
▁plural
enchant
▁Mb
liest
▁booklet
▁Astronomy
▁Recognition
▁auspices
▁diarrhea
▁diligence
▁humiliation
▁orthopedic
▁rectangular
▁intrinsic
▁Davos
▁Jefferson
▁Gloves
▁THAT
▁pulmonary
▁imposition
▁Lublin
▁Sigma
▁Denver
▁meanwhile
▁Almaty
▁Angry
cytes
▁unsafe
▁Becoming
▁orphanage
▁fascinated
▁Angelina
▁FAO
▁Sheikh
▁encompasses
▁bark
skoho
▁commissioner
▁Voyeur
▁vein
▁blogger
▁60,000
▁boxer
iasis
▁Element
▁underwear
▁Candle
▁outflow
▁ounce
▁forgetting
▁rude
▁Valeri
feed
▁Kali
luck
riz
▁Mich
ukov
▁Dining
▁Dorm
these
▁spelling
▁humanities
▁Tv
nja
▁programmed
taining
avia
▁WAS
ovskyi
▁scriptures
phosphate
peace
©
secret
▁+1
▁Salad
▁Retriev
CIS
acies
▁glo
yva
mania
▁UNIT
stay
Camp
AMA
Ecclesiastes
▁Hockey
▁Remembrance
▁Senegal
▁Tenerife
▁aluminium
▁clarification
▁grocery
▁mobilization
▁subsidiaries
▁tyranny
▁flank
▁speculate
▁lesions
▁overdose
▁Cartoon
▁disrespect
▁Baseball
▁contradictory
▁Arnold
▁Hilton
▁HERE
▁proactive
▁Trademark
▁transmitting
▁owing
▁solvent
▁standpoint
▁Danny
▁Amendment
▁Zin
▁bondage
amide
▁tenderness
central
▁artery
4.00
▁Chronicle
▁Setup
▁Named
▁Uman
▁Sai
▁Winston
▁breaches
▁Lucy
▁CASE
ranking
▁Liberia
▁electrode
▁Conf
▁8:00
wald
▁Jesse
▁vaginal
▁youngster
▁entirety
▁7,000
▁Insight
▁maximal
HP
▁Erik
▁thoughtful
atom
▁advising
ounce
▁runway
▁MAC
▁Shall
▁23%
▁Pho
▁denying
−
Australia
Iran
Compare
Contact
▁computational
106
Media
▁horns
anga
▁Mouse
▁05:0
cf
▁Macro
▁Leone
▁Weekly
▁cock
GT
filled
won
▁Champagne
▁Collaboration
▁Dolphin
▁Helicopter
▁Kremenchuk
▁Missouri
▁alleviate
▁bladder
▁diversified
▁puppy
▁walnut
▁whiskey
▁juicy
▁sprout
▁Agenda
▁eradicate
▁Statue
▁cortex
▁foretold
▁wheelchair
▁zoom
▁anatomical
▁Wallpaper
▁shatter
▁cliff
▁sermon
▁Patrol
▁pathologies
[29]
▁Ketone
▁Minimal
▁spotlight
▁Geological
▁contextual
vehi
▁Tere
http
▁purse
▁134
▁kWh
▁hello
▁customary
MX
▁counties
▁Papua
▁Lac
▁carved
ective
▁Inner
▁cucumber
▁Prospect
▁handmade
▁Citizen
▁oversight
▁antioxidants
▁UCU
▁1300
▁conditioner
▁maid
▁Pedro
▁debit
▁gardening
▁miners
▁Crush
lifting
▁Ruby
▁Josef
▁incite
▁25,000
ilov
▁ROM
ROM
▁COP
gold
▁lengthy
▁orbiting
▁linking
▁GSM
▁0,5
▁1896
▁Gaga
▁preacher
▁ions
▁154
▁Ober
▁Zion
vac
▁Lust
3.4
▁correlate
те
direction
▁Demi
›
double
Region
Pass
Grand
VIII
▁DIS
▁Ox
abolic
nza
gender
▁milita
▁1898
▁Aston
▁Chrysler
▁Lennon
▁imminent
▁phosphorus
▁repository
▁subdivision
▁titanium
Colossians
▁Automated
▁Sophie
▁amusement
▁cursor
▁scoring
▁от
MIT
▁bandwidth
▁womb
▁Campbell
▁swept
▁GuRu
▁forthcoming
▁(2005)
▁Prop
▁adulthood
▁Thanksgiving
▁Gather
▁Coupon
▁apron
▁disposition
▁Pepper
▁Fake
▁gen
▁Owen
▁dynamically
▁cone
▁crossover
▁onwards
▁Cosmo
▁Andreas
▁vaccinated
trained
▁Л
▁Dj
999
▁STATE
▁endangered
▁Diary
▁NuV
▁sweater
plat
▁1080
▁Brush
bear
Add
LPR
▁0.00
▁Boxes
bic
▁adversely
▁descended
▁runner
▁Kievan
GH
▁diving
▁contra
[1][2]
ор
▁leaked
▁horn
talk
*****
Photo
▁Ukra
▁$200
▁Abdul
▁QR
exe
▁Asset
▁disappoint
▁molding
▁mitigate
▁marketers
на
▁Guild
▁Protecting
▁sharks
▁uniting
▁upright
kai
▁290
asso
▁Suit
▁starch
Kharkiv
4.2
Classic
▁tactic
EMA
▁Lars
DES
▁Searching
▁Lite
liz
music
▁Competitive
▁Gaz
▁circum
▁Apostolic
▁Bhutan
▁Dniester
▁Symposium
▁capturing
▁diaspora
▁facilitating
▁victorious
▁Orlando
▁sediment
▁Funeral
▁gamble
▁banknotes
▁Tillerson
▁Elijah
▁Reception
▁slats
▁Galactic
▁Astana
▁swore
▁Mobility
▁Savchenko
▁Socks
▁DHL
▁suburban
▁Ridge
▁Ø
▁schoolchildren
▁caption
▁Shared
▁cyclic
often
▁Macau
▁XII
otel
▁earnest
▁summoned
▁Olympiad
▁Teeth
Real
▁Vitaly
▁resin
vita
phase
zhan
▁Vari
▁GAZ
▁greeted
▁jack
▁referee
▁mansion
2001
▁Lili
▁Salmon
uzz
▁citation
▁Gut
▁Processor
▁Katy
▁inhibitor
▁magician
call
▁recruiting
▁neutralize
chko
Mill
▁plea
Phys
▁pillars
▁godly
▁reviewer
▁deposited
▁Abd
verb
▁pee
kul
▁Vod
▁Veterans
distance
Although
Card
▁sorted
▁Soil
▁prophetic
RV
Online
▁Boom
kur
▁Khu
(13
gastrointestinal
malgamated
▁Atlantis
▁Bethlehem
▁Complaint
▁Continuous
▁Deluxe
▁Zagreb
▁accelerator
▁bathtub
▁beneficiary
▁exoplanet
▁nuclei
▁vacancy
æ
ô
▁contingent
▁vinyl
▁Keith
▁Invitation
▁arranging
▁Frozen
▁Reveal
▁Afterwards
▁warships
▁northwest
▁scanned
▁Filip
▁Quiet
▁enlargement
▁Herald
▁naming
▁rinse
▁frog
▁Collective
▁Š
▁hamper
131
UDAR
▁latin
▁bloodshed
▁#4
▁Massive
▁Bolton
▁Relay
▁Siberian
▁Plugin
▁parity
▁KGB
▁Define
▁Whom
▁novice
▁enthusiastic
▁stateless
▁herpes
▁Armor
opolis
▁Proof
▁chant
▁germ
8.6
▁preferable
▁hy
▁Marino
▁Sucking
uva
▁Х
▁[11
▁Stor
▁impede
▁Kla
▁mastered
▁Kick
metal
chem
▁Abel
▁Loved
▁meaningless
▁Soros
▁Killed
entry
▁discharged
▁bor
backed
TIN
▁1,200
▁MET
▁depicts
Post
▁flown
▁derivatives
6.00
▁Zub
nost
▁3500
▁1895
330
haz
assa
264
▁DU
▁cite
▁Yurii
▁Loading
consuming
sensitive
February
dollar
civil
▁Norm
ulia
Hotel
operate
/17
▁shooter
TN
scopic
▁behold
admin
reminiscent
▁Chechnya
▁Connecticut
▁Genocide
▁Nuremberg
▁Pavilion
▁PornHub
▁affiliation
▁disgrace
▁dissatisfied
▁nurture
▁ointment
▁pavilion
▁vicious
î
▁Reliable
▁Uranus
▁lamella
▁meadow
▁Assassin
▁Protein
▁Enforcement
▁Suck
▁Yacht
▁inception
▁thromb
▁trimester
▁whisper
▁therapies
▁physiology
nbsp
40,000
▁thermometer
▁Eduard
▁holistic
▁Scorpio
▁attendees
▁166
▁BestRadio
fighting
▁solicit
▁✔
INO
▁Lvov
▁00:00
▁Bry
▁debug
▁Input
etz
▁Vinci
▁schema
dead
▁Hughes
▁complementary
▁fellowship
▁Harold
▁(106
▁Wage
▁coward
▁supervised
▁familiarize
▁Belo
▁Schw
▁woven
▁hallway
▁Poet
▁militant
▁entail
▁MTV
▁Nike
▁SMEs
▁Spit
▁Stable
▁congratulated
▁Sixth
▁Goes
▁Equality
umbling
solve
grain
women
▁biologist
▁Archived
▁370
▁Mob
▁greatness
▁sandy
▁policeman
▁proceeded
ки
▁culturally
▁Chem
▁$30
▁consulted
▁205
▁Esc
psi
▁Rhodes
▁Bone
while
▁LIVE
Catholic
Unfortunately
traditional
Japan
Saharan
Market
▁5.2
▁revise
▁greed
▁Cube
▁Monk
▁Trail
850
▁dishonest
▁Baptism
▁Fifty
▁Hussein
▁Kirovograd
▁Obolon
▁Ottawa
▁Policies
▁amnesty
▁assemblies
▁chlorine
▁destined
▁discreet
▁guiding
▁hairdryer
▁implicit
▁irresponsible
▁trousers
▁vomiting
▁Hopkins
▁deletion
▁Tweet
▁manicure
▁Scriptural
▁sushi
▁Broadway
▁Ethno
▁Alexei
▁subconscious
▁Julius
▁Divide
▁nude
▁elective
▁Foster
rica
▁Barrier
▁Bobby
▁maternity
▁Lutheran
oza
skii
7.00
▁XIII
▁Dong
▁remarked
▁Script
▁frightening
▁Boost
▁Promo
▁disturbances
▁12,000
▁Expir
▁Decorat
ppe
adze
▁Hannah
▁2,500
6.7
TEL
▁trench
▁recruited
▁Holm
▁berry
Stop
▁Pee
illion
▁Canary
50%
▁Rog
▁sacrificed
▁Burning
nier
▁artificially
odont
▁faithfully
kyi
▁Artistic
▁Jacket
computer
University
automatic
driving
▁secretion
▁Bruno
Personal
largest
Without
custom
escu
learning
▁FLOWERS
▁err
▁142
▁Mesh
ocardial
▁Carnegie
▁Galleries
▁Giovanni
▁Relative
▁Salzburg
▁Stoltenberg
▁Westminster
▁diligent
▁discriminate
▁generosity
▁inconsistent
▁intimidation
▁miserable
▁observatory
▁practise
▁Zambia
▁partisan
▁PrivatBank
▁Sphere
▁consultancy
▁yuan
▁holiness
▁Fellowship
▁(2004)
▁Empty
lton
▁decorating
▁misery
▁Spray
▁colonization
▁UNDP
▁imperialism
▁backdrop
▁gentleman
Pu
▁★
▁Fran
▁Plat
▁puff
▁Rou
▁Princeton
olenoid
▁4.6
▁12.5
▁Lego
▁Gite
bility
Mail
fair
▁mushroom
radio
▁overlooked
Start
fight
▁automaker
▁calorie
▁darker
▁admired
▁Lean
210
4.1
▁folded
▁Turin
▁$12
▁Vent
oshi
▁Sala
▁Orion
▁Protected
▁Elon
Each
▁Observer
auto
▁Displayed
hear
107
▁Yuan
8.0
▁theoretically
lium
produced
▁Emp
paragraph
^
management
myr
ethnic
clav
▁Rank
▁reaffirm
biological
EAS
▁Holder
▁5.3
▁Bella
▁Brew
Mod
IEC
KR
visit
▁Grass
▁Zhuk
▁Barbados
▁Characteristics
▁Communicate
▁Definitely
▁Glasgow
▁Kyoto
▁Mechanics
▁Nixon
▁Poverty
▁Pravda
▁beneficiaries
▁contemplate
▁cumulative
▁demonstrators
▁evasion
▁fascism
▁humid
▁immersion
▁merciful
▁mercury
▁nonetheless
▁suffice
▁trajectory
▁treasury
▁vacant
▁Intensive
▁Vadym
▁blouse
▁Mumbai
▁diffuse
▁racist
▁Buffet
▁adorable
▁Safari
▁Gilbert
▁intangible
▁Ninja
▁Scots
▁urging
▁fibro
▁Fiction
▁beige
stitute
▁biogas
▁Toolbar
▁Felix
▁unfinished
▁fulfilment
▁FT
▁elasticity
▁subtract
▁Viber
▁Wiki
▁bushes
nite
▁Plane
▁duck
▁Liz
8%)
▁technologically
NES
▁summarized
▁giga
QUE
▁plateau
▁vine
▁μ
▁Yale
▁republican
▁Dodge
▁Danger
▁deem
▁stepping
▁Stuff
pharma
▁depicting
ugu
▁Annie
Make
MENTS
▁downward
▁Friendly
▁Employee
▁curtain
moto
RIA
▁%(
▁65%
rou
Serv
chyna
▁6.0
▁empowered
▁Shark
masturbation
Find
lé
▁Bala
wei
ytska
GER
OWN
rrell
bey
▁fearful
pc
▁cooled
▁Est
▁+7
sphere
hopping
▁clone
▁Guil
▁33%
▁Antonov
▁handsome
RUS
230
▁mob
▁Electron
hawk
Hungary
Nothing
Doctor
biology
▁Patch
▁quarterly
office
sharing
iger
▁Discrimination
▁Malcolm
▁Necessary
▁Receiving
▁Tropical
▁Tutorial
▁Utilities
▁Vampire
▁abdomen
▁decentralized
▁identities
▁sensible
▁soybean
▁subsidy
▁unequivocal
З
▁Adriatic
▁transistor
▁Utility
▁seduce
Semitism
synchronous
▁Miracle
▁Edison
▁Mueller
▁omni
▁Outstanding
▁Rabbi
▁Productivity
▁polio
▁superpower
▁Handbook
▁dolphins
▁Yur
▁Sinai
▁compassionate
onov
▁loot
▁hottest
▁swine
bearing
Note
▁adorn
0.3
168
▁Nur
▁superiority
▁(13)
▁Socket
▁toxicity
▁Jake
▁deteriorated
▁barley
▁immersed
▁forestry
▁Reward
technic
Psych
▁Stamp
▁revived
▁PCI
▁3.8
▁harmoniously
▁distinguishe
void
-2010
▁honorable
▁Hearing
▁Nigerian
bau
▁Bast
cry
▁Contain
▁profoundly
▁Butter
logger
Job
▁generalized
▁poisoned
▁Jong
▁kicked
▁overhead
▁Lance
▁Pok
▁tide
▁Feli
bir
▁lobbying
▁1889
▁Verb
LEX
▁22%
▁CY
▁shout
confidence
studio
▁commentator
court
Found
buy
young
▁inflict
▁scatter
▁provisional
BP
▁isolate
MON
▁lib
▁Require
▁5-10
▁1885
▁Rav
И
▁Chornobyl
▁Cologne
▁Elliot
▁Eritrea
▁OPPOSIT
▁Tetiana
▁Wagner
▁bureaucracy
▁detachment
▁obscure
▁prognosis
▁skyscraper
▁squash
▁wrestling
▁zodiac
▁Adorable
▁Voltage
▁Smooth
▁increment
▁Amp
▁abusive
▁distributing
▁gracious
▁Claire
▁transnational
▁vinegar
▁broadband
▁Signature
▁Wealth
▁Monkey
▁Juice
▁Cohen
short
▁traction
▁Dynamo
▁schoolgirl
▁Portland
▁Arseni
▁Observation
nyuk
▁sociologist
▁bowel
▁accessory
▁pertaining
▁goodwill
▁factual
ogenesis
▁Exit
▁journalistic
ghi
▁8.5
▁persuaded
▁Brave
▁disappointing
▁Personality
▁Improved
▁vendor
▁piss
▁concealed
370
▁COMP
▁democrat
▁affirmed
▁curved
URA
hoo
bow
▁lecturer
▁randomly
▁catching
ZO
▁Stro
▁Permit
▁pH
▁climbed
▁Brun
team
cab
▁(110
ENG
▁Rim
440
▁compromised
▁modernized
▁Aspects
online
5°
cky
▁lev
▁mourn
ESA
intelligence
Natural
family
capital
yellow
Canada
▁replenish
▁Glen
▁Stern
▁Starter
▁Cleaner
grid
▁Attach
▁Discuss
▁Orient
▁clash
▁Chevrolet
▁Courage
▁Introduce
▁Kentucky
▁Kurdistan
▁RESERVE
▁Respublika
▁Roulette
▁Shenzhen
▁UNHCR
▁embargo
▁exacerbate
▁expiry
▁merchandise
▁polluted
▁substantiate
▁sunglasses
▁underneath
▁Beverage
▁Bikini
▁Namibia
▁iPod
▁BUY
▁ruthless
▁synchronize
▁certify
▁DIY
▁Utah
▁equitable
▁metadata
▁fibre
▁indices
▁disposable
▁mimic
▁MPEG
▁Teresa
▁dissolution
▁(2019)
▁Basque
▁Wildlife
▁mailbox
[30]
▁Zhang
▁suppression
▁exalt
▁questionable
rash
▁commenting
▁PACE
▁condemnation
address
▁Quest
▁Disable
▁Marcel
▁Beware
▁Sword
bak
▁Gym
▁Singer
stadt
Live
▁bureaucratic
▁oval
▁AGRO
▁campuses
Bio
urine
(17
▁Tomb
▁Bac
▁3.7
▁hromada
▁pixel
▁switches
▁halted
▁Danil
▁XL
▁Investor
▁cargoes
▁reuse
ña
jec
wire
▁seated
▁Negro
▁modem
▁Augustine
▁whim
▁lava
▁2.8
▁Rak
▁counselor
▁pun
6.5
▁Doctoral
UAL
▁REC
▁1100
▁complemented
shkin
▁Remind
▁Grande
flower
▁Grab
write
▁regimen
▁widen
▁Applying
▁Luck
▁540
(14
leader
criminal
Before
grown
charging
Based
▁Sharm
Super
▁1897
worm
▁Plum
▁Ensur
▁Exhibit
▁SERVICE
▁posit
ça
▁950
▁Bearing
▁intellect
▁pol
▁Baroque
▁Bournemouth
▁Ethernet
▁Mauritius
▁Precision
▁Relief
▁Survival
▁abdominal
▁aggravate
▁astonishing
▁cavalry
▁dissatisfaction
▁encyclopedia
▁substantive
▁unfavorable
▁Possibility
▁nylon
▁Revenge
▁coronavirus
▁pseudonym
Philippians
▁Struggle
▁hollow
▁initiation
▁jelly
▁♪
▁Hunger
▁Potato
▁initiator
▁Mykolayiv
▁conserve
▁Malawi
▁Toxic
▁Ryanair
▁Appearance
▁biochemical
[31]
▁picnic
▁stool
▁shutdown
▁Amanda
▁municipalities
▁Calculator
▁stalk
▁guarded
▁Expertise
▁Andorra
▁Tara
▁Nato
▁civilisation
MAT
▁XVIII
▁lice
▁Extended
mAh
▁purposeful
▁faithfulness
▁flux
▁Shock
8.3
▁volunteering
▁ascertain
hari
▁shortened
▁HQ
▁arisen
lord
eba
LK
▁Khor
LV
▁suppressed
fun
▁uh
▁Stranger
▁Hun
▁Chapel
▁Creed
▁Grill
lei
▁wrinkles
▁Goldman
▁succession
▁Brick
▁(105
▁bury
▁Duck
▁а
▁Giga
IRE
Care
▁sadly
lack
▁intentional
opha
▁erect
▁crowned
mean
▁distort
▁issuer
olone
vsky
company
Happy
Which
liquid
Science
respond
launch
▁SEAT
▁Drum
▁737
▁Sue
▁Epic
▁amaze
▁Cain
▁gloss
▁Adopt
▁drastic
▁canned
▁Destination
▁Docudays
▁Gradually
▁Joomla
▁Tserkva
▁Vyacheslav
▁cessation
▁crocodile
▁epilepsy
▁infertility
▁societal
▁tsunami
▁volatile
▁Leaving
▁Moldavska
▁styling
▁Bahamas
propelled
▁equate
▁robbed
▁Niger
▁suitcase
▁Eddie
▁Horizontal
▁broth
▁ferries
▁haunt
▁gamma
▁tread
report
▁erupted
ECO
▁directories
▁helium
▁booster
closed
▁Truly
gravi
▁Happened
▁Oppo
▁Denys
▁methodical
▁collaborated
▁vowed
▁1830
▁Converter
▁remnant
▁Thousand
▁Dialog
▁Blanc
▁Lima
▁Reset
▁Moto
agged
valent
rino
▁disrupted
▁4-6
▁Syr
▁departing
▁Skill
▁Dim
IND
▁seriousness
▁(107
▁Cai
▁Luka
▁Troy
▁Num
▁Josh
410
▁grandma
▁Trainer
ENCE
▁Nikola
ayev
aunt
▁lure
PAR
▁harvested
▁corrupted
shkov
▁mum
▁mp
▁nm
▁bomber
▁Accord
Friend
System
▁3:16
▁cherish
▁Flame
gir
Full
mind
▁dispose
dded
▁possessing
▁Thirdly
▁(103
▁vocation
▁chop
ї
▁Diagnosis
▁Informatics
▁Ljubljana
▁Trinidad
▁Wrestling
▁assembling
▁irritate
▁lucrative
▁obsessed
▁tranche
ð
▁Anatoly
▁Census
▁Forensic
▁longevity
▁ulcer
▁sunshine
▁Sanctions
▁temporal
▁symmetry
▁nausea
▁Yurivka
cellulite
▁Apache
▁forehead
▁Colonial
▁prostitute
▁synonymous
▁lingerie
▁Costume
▁Raise
▁drummer
▁prefix
▁Layout
▁Underwear
▁Upgrade
▁sewage
▁webmaster
▁collagen
▁Elvis
▁Geology
▁alarming
Olymp
▁GMT
▁playlist
▁misleading
▁kitten
▁distorted
(20
▁Sah
▁vul
▁Valeriy
▁reconstructed
evska
scope
▁Gui
▁finalists
▁Personally
▁skies
▁1863
▁Cir
etter
voice
▁immigrant
▁Soldier
▁Badge
▁shark
▁Nun
▁UPA
VAC
▁placenta
kevich
▁tur
fund
▁RSS
Hey
cke
▁г
▁reversed
▁Burg
bone
▁Merit
▁candid
▁Praise
America
▁Perth
▁Mack
Opti
OUT
evskaya
▁DW
▁Wow
designed
digit
▁organisational
HU
Spanish
occupation
Father
▁Photographer
Legal
crime
stroke
machine
demand
weed
360
Link
lma
▁Harbor
▁Embroider
▁cling
▁Tire
Plus
▁Confirm
Ф
▁Ascension
▁Auschwitz
▁Baltimore
▁Buffalo
▁Libraries
▁Liturgy
▁Proposal
▁botanical
▁captivity
▁collaborator
▁feudal
▁gluten
▁misconception
▁perseverance
▁roulette
▁smuggle
▁Dresden
▁implied
▁inaccessible
▁measles
▁freak
▁cynical
▁detainees
▁turkey
▁oriental
▁Yevgen
Data
▁filtration
▁enclosed
▁apology
▁Murphy
▁petals
urist
ія
▁cheek
Infrared
▁Tomato
▁Creek
▁spike
▁Blair
▁Bengal
▁SKU
/01
Trade
▁birthplace
▁classmates
▁banning
▁Crack
▁duo
▁haircut
▁replicate
▁google
▁sealing
▁nobility
opathy
ANS
▁Motherland
▁167
chip
▁Hospitality
▁disco
eteorological
ynska
▁oppressed
hearted
▁telecom
▁shouting
▁Pitt
-2008
neft
▁159
▁Hypo
▁wiped
▁Charm
▁progressively
kun
▁Rebel
were
▁Harmon
▁Provided
quot
▁Laugh
▁conveniently
▁Aged
▁repel
▁215
ал
▁sprinkle
Dec
▁clamp
formation
▁Indoor
▁ingest
etska
TEC
▁RIA
Turkey
▁doctorate
true
▁deform
floor
7.9
ARM
Prov
▁supervise
winter
yut
Union
▁Absolute
▁Evo
▁1886
▁21%
Á
ī
ū
▁Advocate
▁Detector
▁INFORMATION
▁Laboratories
▁Louvre
▁Medvedev
▁Mississippi
▁Physician
▁intriguing
▁lieutenant
▁multiplied
▁scooter
▁uninterrupted
▁Duchess
▁ambient
▁antiseptic
▁Lodge
mpulsive
▁Caritas
▁Presence
▁seismic
▁Meditation
▁causal
▁kinetic
▁paramount
▁Proceedings
▁biotechnology
▁SMART
▁Subscription
▁Ethical
▁omega
▁mould
▁brewery
▁Yushchenko
▁drastically
▁Pablo
▁zealous
▁cardinal
▁Throw
▁Pricing
▁Nikita
▁Waterproof
/13
▁brotherhood
▁SQ
▁Banana
▁Bowie
Four
▁Marxism
▁Terry
▁SAT
▁Priority
early
▁Zor
▁Calculate
prehensi
▁Virus
(15
▁20-30
▁Exception
▁proudly
▁deceived
▁carton
▁classify
▁grind
niak
▁Processes
▁clot
▁Wizz
▁surpassed
▁Viewer
▁1871
moon
▁scientifically
▁normalization
▁statistic
▁tolerated
▁occasional
thank
▁brewing
▁scripture
▁hol
yana
Save
▁Integr
▁audition
▁mph
▁straighten
holm
▁Sending
Control
▁rebuilding
▁Deca
▁Buch
▁Foreigners
▁1899
▁MAX
▁1888
▁legalized
▁235
▁pear
▁specificity
jack
euro
deep
▁numer
▁Palma
▁$25
▁Klein
construct
▁Nikol
У
Exodus
Austria
Protect
▁Haven
▁annex
▁Adapt
bber
▁summarize
▁immerse
▁141
flor
960
Miss
elecommunication
▁Cigarette
▁Maltese
▁Oxygen
▁SPECIFICATION
▁archipelago
▁barbecue
▁ceremonial
▁collateral
▁dishwasher
▁envisages
▁feasibility
▁fraudulent
▁pelmet
▁redemption
▁relativity
▁serpent
▁Bristol
▁Linguistic
▁buffet
▁Computing
▁Eucharist
▁endowed
▁Harvest
▁evoke
▁Squadron
▁Essay
▁chopped
▁hostility
[28]
▁tuning
chik
▁Pills
▁proverb
▁nightclub
▁Anchor
▁enrollment
▁Fiji
▁―
▁Meyer
▁Chester
▁firmware
Anti
▁lush
ryk
▁Salary
▁Alert
▁braid
▁Generat
▁streamline
0.8
▁Sonic
esse
micro
▁creditor
▁FTP
▁Bosnian
▁southwest
▁LAN
▁BLOC
▁diminished
▁yell
loving
▁OUT
idze
▁evidently
▁Terrorist
AVE
▁Solom
▁Alternatively
▁Measure
▁Tyre
▁Philippine
▁Dai
▁10-12
▁Rally
lecommunications
astro
▁favored
▁USE
▁19%
▁logically
▁Airline
▁Accountant
166
▁Cheat
joy
▁Tier
cken
▁Shoe
▁6.2
▁Yury
agent
▁highlighting
Christ
▁Vine
▁Pour
hina
URI
Peace
Windows
saturated
Series
account
wife
▁limb
–15
borough
▁Continent
▁obstruct
PDF
▁unusually
practic
▁zeal
Ш
▁Astronomical
▁Lazarus
▁Oklahoma
▁Winstrol
▁fermentation
▁hobbies
▁pharmacist
▁preferential
▁proficiency
▁removable
▁unforeseen
▁unreliable
▁Gorbachev
▁Pursuit
▁craving
▁humiliate
▁contempt
▁spherical
▁histories
▁Invalid
▁courtesy
▁butterfly
Galatians
▁Loyalty
▁blister
▁reckon
▁theologian
▁squadron
▁integer
▁Closing
▁ALMA
▁Tulip
▁Montana
▁psalmist
▁preschool
▁Monica
▁WWII
▁Banner
▁Binary
▁beacon
▁Agree
▁liberalization
▁battleship
▁Krasno
▁Titanic
▁Tonight
▁marker
▁Longest
▁WP
grin
▁lied
▁differentiated
iysk
▁cooker
▁Exodus
Press
▁Lynn
▁GC
▁shred
▁430
▁Seasonal
igen
▁LAW
illi
▁stained
ма
azol
▁fixes
▁==
▁Sukh
▁derivative
▁mutation
▁instituted
▁Duo
▁breadth
▁Colombian
ović
▁widest
▁5-7
jah
depend
1.7
▁MAG
▁UPS
/30
195
ogue
▁ponder
▁Grim
▁Implement
figure
▁Shevchenk
Greek
closure
Money
otti
pilot
▁Officially
▁hind
▁Mia
ре
–17
▁Tsu
▁Handle
clamation
▁Bartholomew
▁Genuine
▁Lottery
▁Marseille
▁Quantity
▁Riviera
▁SharePoint
▁WEGAME
▁electorate
▁figurative
▁misfortune
▁saturation
▁tbsp
▁unnoticed
▁volleyball
▁Cayman
▁Servant
▁Gandhi
▁Tatyana
▁Lukashenko
itious
▁Aztec
▁metropolis
▁eventual
▁Freddie
▁Cyril
▁♦
▁Acquire
▁Bashar
▁nasal
▁ginger
▁subparagraph
▁spear
▁Analyze
▁Backpack
▁methodologies
▁Infant
▁pretext
▁Hurry
▁aromatic
▁Serial
Para
▁envy
▁orthodox
▁Diaper
▁Diver
chny
▁paperwork
▁Kodi
▁relocated
▁starring
▁SAL
▁willingly
▁blindness
observ
▁ratify
▁4.7
▁computation
look
▁SEA
▁policemen
▁Timor
RAD
detect
near
▁Returning
▁Tav
▁expel
ле
▁Bend
prise
▁1867
▁relieved
▁UIA
Change
▁Mash
ambi
trust
plain
▁Bha
▁Harm
▁Messi
3.6
opathic
▁Jedi
▁ruble
Gi
kovich
▁Lent
ла
Enhanc
▁latex
▁1892
▁mustard
oscope
rchaeological
phile
▁superb
TAIN
zil
izo
▁Tina
▁Neg
▁7.1
formal
kevych
together
0.6
Muslim
Jewish
measure
occupied
qualified
Light
should
Learn
Water
▁coma
contact
please
colour
▁Gud
Hello
▁reiterate
▁Zoom
▁Browse
Expo
▁interrogat
▁pediatric
▁Scandinavia
▁superhero
▁upside
▁unwilling
▁Inspector
▁synonym
trol
▁transcend
▁Bankruptcy
▁Decrease
▁Dovzhenko
▁Notwithstanding
▁Peugeot
▁Pharisees
▁arithmetic
▁circulating
▁discrete
▁exaggeration
▁hereditary
▁impunity
▁livelihood
▁mercenaries
▁nutritious
▁peanut
▁plaintiff
▁regression
▁stellar
▁thriving
▁unbelievable
▁unreasonable
▁invariably
▁Innocent
▁Surgeon
▁unloading
▁dissident
▁headphones
▁Hutsul
▁inauguration
▁depict
▁basil
▁priesthood
▁OPEN
▁unpopular
▁supernatural
▁marvel
▁Pip
▁stripped
TEX
▁chord
ön
unconstitutional
▁Silesia
6.8
▁Arsen
▁Hassan
▁Held
▁interrogation
▁fungi
▁bible
▁patches
▁swiftly
280
▁Crash
▁unrelated
▁Babylonian
▁UTC
▁shouted
magnetic
▁Amman
SPECT
▁halfway
▁1/3
002
▁villain
▁Elton
rule
▁offended
▁perished
▁distracted
skij
▁Pete
▁crashes
▁Brest
▁compensated
tape
▁Seventh
▁polished
▁standardization
Latin
Age
▁VAL
ISM
▁Completed
▁Rex
▁additive
▁Benefit
▁tanker
kiev
▁790
funded
▁Slip
▁Kab
▁Abi
▁Starr
lava
000000
▁Palmer
▁ripen
▁compose
nogo
▁Germanic
chka
▁mindful
ий
▁Spr
technology
£
Express
cause
▁Tau
▁Stark
▁Profession
export
▁Universit
30,000
▁Easily
▁atrocities
▁horrific
▁responsibly
▁rubbish
▁sanctuary
▁sympathetic
▁teaspoon
▁unidentified
▁utensils
▁Daimler
▁PROJECT
▁Tolerance
▁citrus
▁tulips
▁Carlsberg
▁Destruction
▁inexperienced
▁flirt
▁cockpit
▁undermining
▁Aurora
▁Morshyn
▁Casual
▁focal
▁embed
▁rainfall
▁Submitted
▁torque
▁Darren
▁Optimization
▁fungus
▁Esther
▁Mankind
▁Integrity
▁Inventor
▁Bloom
▁moderation
meaning
▁Interaction
▁recount
▁stronghold
▁Leaf
▁litter
225
2.7
▁30-40
▁Sunflower
▁Brent
▁Haley
▁carving
▁ERP
▁HMS
730
added
ovskiy
RAIN
ddling
▁villagers
▁Contribut
▁EVA
End
▁LU
▁Boot
▁Johan
▁EPA
▁dug
Bur
Cap
▁Tile
▁(104
▁Penn
▁Lama
▁Resident
▁souvenir
▁indulge
**
Site
▁daylight
optic
▁Hank
▁completeness
enstein
▁PPP
▁Admin
▁painless
▁caries
▁outright
axis
▁burner
▁lineup
▁Trap
slave
▁attendant
document
Islamic
BANK
practical
▁pronounce
▁[10
▁swell
▁Northwest
▁Ossetia
centre
zio
▁Hom
ykh
5000
▁prosper
▁Compressor
▁avocado
▁biscuit
▁platinum
▁tectonic
▁torpedo
▁unambiguous
▁Arkansas
▁Chelyabinsk
▁Eiffel
▁Raiffeisen
▁Salisbury
▁Sarajevo
▁Starbucks
▁firefighters
▁glimpse
▁hypocrisy
▁incorporating
▁intimidate
▁liberties
▁reciprocal
▁bolster
▁Tactical
▁Capitol
▁Jeffrey
▁Nazareth
▁chaotic
▁noisy
▁Nursing
▁napkin
▁multifunctional
▁taboo
▁MacBook
▁Fau
▁Cristi
▁wrapping
▁Arrest
▁$40
▁geology
▁pumpkin
▁REAL
▁Sushi
▁embarrassing
▁Milton
▁unpaid
thermal
▁enshrined
▁AUD
▁cornerstone
▁obstruction
333
▁knowledgeable
▁Clement
▁HBO
Rating
▁Ellis
▁ethanol
▁Trent
▁TPP
uristic
chyk
▁DES
.0%
▁eject
▁Mattis
▁Correction
▁sweating
Qui
▁$11
▁3,5
▁kilogram
▁Holly
▁28%
▁leased
▁pillar
▁512
▁respondent
zip
▁Rocky
bok
Sub
▁Chorno
psycho
▁Compar
oku
▁Tick
ZZ
134
letta
▁KU
righteous
Commerce
Special
equipped
Secret
Development
organized
▁Comic
finance
▁Albi
scribing
▁Typical
formerly
Tax
4000
▁Structural
▁ambiguous
▁Artillery
▁Astronomers
▁Doctrine
▁Elevator
▁Governing
▁Memories
▁Schneider
▁Societies
▁apologise
▁conscientious
▁deficiencies
▁guarantor
▁leukemia
▁rallies
▁turmoil
▁Awareness
▁Kenneth
▁envoy
▁fisheries
▁VipTube
▁infinity
▁Wikimedia
▁Armstrong
▁Competenc
▁swamp
▁groove
▁doomed
▁Diameter
▁Abroad
▁LEGO
▁Kievdelivery
▁Simulation
▁harmonize
▁Downtown
▁exchanging
▁Jolie
▁Bradley
[38]
▁Broken
▁cleanliness
▁chasing
▁fortified
▁cleric
▁precondition
▁Mazda
▁bidding
▁landfill
rano
▁stringent
▁Winning
▁Underwater
▁Tommy
▁Ivanovich
▁thigh
▁2/3
▁iceberg
▁Chanel
▁pathogenic
▁stylistic
▁Reduction
▁Lightning
▁Mayan
▁Delay
▁Merry
▁Latex
▁Zeus
▁illuminated
▁Garage
▁Vip
▁equi
▁electronically
Line
▁scholarly
▁#5
▁scout
▁vitality
▁avoidance
christ
▁voter
▁1812
▁teamwork
director
▁modernize
object
▁idle
▁ornamental
gora
▁LV
▁Washing
olu
1,5
▁ripe
▁wellbeing
▁Louise
▁Doro
▁Tie
▁worsening
▁Killing
▁surrendered
▁shameful
dell
▁Clare
▁lament
Firmware
▁cereal
▁Bathing
▁Chase
▁2.9
▁Alternat
▁pouring
▁Corona
▁textbook
▁visualize
develop
ipple
truth
▁calmly
▁1861
720
tune
132
▁SAN
Key
compliance
Shirt
British
Girl
vocation
bang
Information
therapist
spread
▁Pav
UX
9.0
GRE
▁Anglican
▁Deploy
▁LvBS
▁Mussolini
▁Natalya
▁Newcastle
▁Sviatoslav
▁amplifier
▁bastard
▁cohesion
▁consecrated
▁executor
▁ideologies
▁impurities
▁majestic
▁necessities
▁erosion
▁illegitimate
▁Genoa
▁Snake
▁Abdullah
▁Agencies
▁tandem
▁FOOD
▁Jiang
▁Klimkin
▁microscopic
▁(2001)
▁Arcade
keep
▁Loving
depending
▁2024
▁troll
▁exhaustion
ów
▁27%
▁Herbert
▁stockings
▁Feast
▁SERVICES
Pharm
▁98%
▁Harper
PRESS
▁ATP
▁confer
▁rector
▁Berry
▁Jail
processing
▁liquidity
▁Blake
▁formatting
▁shale
▁importation
▁xxx
rava
▁tricky
232
▁55%
▁Crane
▁Braun
▁1865
▁Tsi
▁steer
▁ecologically
▁DON
▁analogue
▁Jewel
lique
▁Wallet
usse
▁pastry
▁Ful
▁aggressively
▁respectable
▁Proud
▁1859
▁fostering
365
▁lust
▁retrac
▁Noise
▁6.3
▁suc
itsa
▁cc
ynskyi
stad
original
Б
satellite
Silver
frequency
church
Chief
▁optimiz
aircraft
▁Sweat
▁irony
▁commute
▁1891
eira
▁frank
Party
isciplinary
▁avant
worker
▁fluctuat
▁Bordeaux
▁Botswana
▁Consequences
▁Continuing
▁Distributor
▁Electoral
▁Expansion
▁abbreviation
▁admiration
▁applaud
▁emphasizing
▁fantasies
▁grammatical
▁incumbent
▁metabolite
▁perpetual
▁reintegration
▁structuring
lacquer
▁Hudson
▁Enemy
▁Stretch
▁Wolves
▁cosmos
▁crochet
▁prioritize
▁Flynn
▁(067)
▁Triangle
▁resettlement
▁Robotics
▁blew
▁muscular
▁hyperlink
▁Contrary
▁vanilla
▁interpersonal
tamp
iatric
▁exhibitors
▁steak
▁hookah
▁novelties
▁nap
▁vault
▁airborne
navigat
▁Quran
▁Sauna
▁uninstall
▁foreseen
▁Frost
▁Pana
▁Pov
▁Organized
▁Seriously
340
▁reiterated
▁Mongolian
▁spontaneously
▁Medication
▁Viola
eering
▁paved
▁vet
▁addicted
logging
▁Backup
▁Raj
▁16:00
▁[6]
Shop
▁blown
/22
▁Performing
▁7.2
▁purify
▁routinely
▁р
▁statistically
▁Colin
pox
Call
▁tenure
much
▁Fac
▁Vera
▁Crow
▁Glenn
provide
▁(117
Anal
▁Bilo
▁Configur
urb
Д
cigarette
include
Education
Small
dragon
▁universally
▁Oceania
conduct
260
Order
until
winner
▁7000
AMP
bread
▁Antwerp
▁AxiosIcons
▁Diabetes
▁Humiliation
▁Including
▁Lockheed
▁Luggage
▁Spaniard
▁Undoubtedly
▁Variety
▁Zakarpattia
▁critique
▁diabetic
▁diocese
▁elaboration
▁escaping
▁garrison
▁pilgrimage
▁populism
▁semiconductor
▁tragedies
▁turbulent
utocephalous
▁Auckland
▁Courier
▁spokeswoman
▁stimuli
▁Diversity
▁Sketch
▁meditate
▁intravenous
▁chinese
▁jackpot
▁galactic
▁thermodynamic
▁Neutral
▁Piercing
▁Peasant
▁edible
▁Shuttle
▁Medicare
▁Modular
▁Abbas
▁Goddess
▁Naomi
▁pores
▁1893
▁guise
▁supernova
▁Volker
EED
▁Capture
▁toiletries
▁Celtic
▁defective
▁Mosul
▁9/11
▁Advertisement
▁hemoglobin
▁RPG
▁parishes
▁greenery
▁CITY
▁plantations
▁splitting
▁hut
▁spectral
▁overhaul
▁testified
▁dispersed
▁Danylo
▁discriminatory
▁hover
emic
▁Calm
▁yoke
▁underestimated
▁stripes
▁reproduced
▁Fog
▁10000
▁dogma
pidem
plicate
ranging
▁phosph
▁crushing
perfect
▁spoiled
▁Nikon
▁Joel
▁GEO
ochka
▁paradoxical
▁receptor
▁Consist
▁Stack
▁Consul
berger
▁Vik
▁(116
▁Saga
▁Raven
pak
shak
dark
▁pleasantly
TEM
▁Doug
▁FAT
▁Rubin
Download
conference
interpret
producing
approximately
Family
deserved
girlfriend
Crimea
cellular
▁Recommend
▁EXP
▁Bulk
–16
204
forward
304
680
▁cigar
▁ARTICLE
▁Lebanese
▁Leipzig
▁Sacrament
▁Substance
▁quartz
▁veterinarian
troductory
¶
▁Compensation
▁Discipline
▁Exploration
▁Parallel
▁Retirement
▁Squash
▁dildo
▁dismantling
▁hesitation
▁ignorant
▁impeccable
▁outweigh
▁repertoire
▁Warranty
▁relentless
schaft
▁gymnastics
▁BLACK
▁candidacy
▁excise
▁blackening
▁Orchid
▁ECHR
▁bruise
▁syndicat
▁shrine
philia
▁Concordia
▁dependency
▁Gogol
▁genus
▁Choir
▁wiki
▁Shul
▁WHY
▁(1999)
▁Terrace
▁penny
▁Navi
▁anthem
▁Rack
▁Collar
▁460
▁Fried
▁YES
▁plow
▁Fool
▁PAGE
▁rafting
▁Darkness
▁renal
▁reload
▁malt
▁buck
▁leaflet
▁hospitalized
Semitic
habit
those
▁outgoing
▁fearless
URN
▁comparatively
▁hopeful
▁Reaction
▁awakened
▁ECO
▁Cox
ieva
▁delightful
▁sway
illon
▁CLA
▁Shade
▁Southwest
▁catches
▁Yun
▁4.8
▁spit
▁OFFER
▁Decor
▁medic
▁Decade
▁interpreting
Map
hta
▁nutrient
▁keyword
128
▁kV
▁Prepared
▁42%
▁1894
190
▁Blade
▁Angle
utu
▁CCC
▁Grove
▁advert
zem
▁antigen
▁pier
▁sung
▁Pine
Standard
Project
competitive
shadow
Assad
record
containing
before
content
transfer
▁doubtful
▁numb
▁Olympia
MAX
▁404
▁assassin
▁Madam
▁Concord
Indigenous
▁Anatoliy
▁Archaeology
▁Farewell
▁Leopard
▁Ministries
▁Moldavian
▁Nvidia
▁Preliminar
▁Rotterdam
▁WikiLeaks
▁Wisconsin
▁antibacterial
▁culprit
▁disobedience
▁homogeneous
▁juvenile
▁lubricant
▁narcotic
▁pharaoh
▁residual
▁syntax
▁accusing
▁plumbing
▁solitary
▁Laureate
▁Overseas
▁reunion
▁undertook
▁vegan
▁polyethylene
▁Trotsky
▁pianist
▁Negotiations
▁Kashmir
▁congenital
▁oncology
▁GOOD
▁litres
▁Juncker
▁joking
▁grease
▁slander
▁Cyclone
▁Dentistry
uminous
▁disinfection
▁CCP
▁spinning
▁reimbursement
▁replenishment
▁almond
▁fireworks
▁Biography
▁Species
▁bloodstream
▁Petite
▁Digest
▁Defeat
▁Pomp
▁Alvor
horod
▁►
▁Somali
▁Natalie
▁Analys
almost
▁logistic
▁Drake
▁Bonn
▁Roland
dub
▁pallet
blog
▁imperfection
▁undergoes
7.0
▁250,000
SAT
▁Lotto
▁reactive
▁fixation
▁Included
▁Specialization
▁Panda
▁Jude
▁Aspen
niki
▁pickup
rach
▁Hegel
▁GUI
▁moo
▁MRI
▁Pants
▁twisted
ronic
▁Received
▁Hav
UNI
within
▁Karma
▁Needle
▁Feng
osse
то
FORM
▁workload
▁Victorian
▁Saf
▁Herman
▁HAR
Tele
venous
beck
▁Fro
ANO
Conf
▁Expression
▁practitioner
▁Hua
▁747
5.1
▁Specification
▁Crowd
▁Omar
▁ortho
▁localized
pulse
▁0.01
205
PSK
bai
▁rainy
release
blast
aeus
wait
ORT
Mobile
Central
something
Prince
Therefore
DEN
▁Tracker
▁Alive
Total
manager
▁circulate
▁stud
Mother
▁Fay
▁sculpt
fiction
▁Avia
bill
WAY
▁concise
▁Capsule
▁Cardiology
▁Effort
▁Expensive
▁Kryvyi
▁Lobby
▁Svitlana
▁Ubuntu
▁Vodafone
▁Voluntary
▁bamboo
▁destabilize
▁heartfelt
▁hierarchical
▁marital
▁pregnancies
▁scrutiny
▁synchronization
▁Interfax
▁McLaren
▁Pixel
▁Uprising
▁apprentice
▁footsteps
OLOGY
▁IKEA
▁temperament
▁Canaan
▁algae
▁nasty
▁Queensland
▁Breast
▁Analysts
▁Blessing
▁Tongue
farm
▁supercomputer
[34]
▁Diplomacy
▁resentment
▁bakery
▁kidding
▁graphite
▁Debate
▁shipbuilding
▁sparkling
▁Samara
▁(1993)
▁Cola
▁motherhood
235
▁exaggerated
▁Milo
▁Norton
▁authorize
▁PHOTO
▁deduction
▁[00:
▁Marble
▁Primate
▁augmented
▁400,000
▁Fond
▁mechanic
▁DAF
▁Notebook
▁chewing
▁playback
359
▁transgress
▁heroine
▁skinny
ische
▁13:00
▁Philippe
▁1/4
gressive
Disc
poly
▁Newborn
▁Spreading
plast
ол
▁5.4
bah
BET
▁subsystem
Blowjob
▁sailed
uyu
▁capitalization
zir
Chi
▁pastel
▁Dame
▁Judea
▁Rah
bund
▁Friedman
urban
▁Sofa
▁Tram
▁Geographical
label
marketing
▁Breaking
KOV
▁Kie
▁constitut
ICO
▁cloudy
▁append
zhenko
▁Gren
▁Laden
Maidan
intensive
whether
Search
international
platform
Queen
▁24%
178
▁BAR
▁Trio
liver
▁Bavaria
▁Zip
▁640
▁Thick
▁predominan
▁Assumption
▁Dakota
▁Jubilee
▁Kaspersky
▁Mukachevo
▁Nicaragua
▁Suzuki
▁Synchronis
▁Trudeau
▁abducted
▁dehydration
▁feminism
▁ghetto
▁parachute
▁recurring
▁resilient
▁Twice
▁glorify
▁sightseeing
▁Weinstein
▁Heinrich
▁Wallace
▁dominion
▁Railroad
▁phyto
▁Violet
▁KEY
▁Illegal
▁paralysis
▁strife
▁staple
▁salute
▁Exotic
▁braking
▁Axis
ELT
▁stunt
Train
▁Thankfully
▁03:00
iq
▁Slavery
▁Disneyland
▁peculiarity
ко
Long
▁Plast
▁Standardization
▁97%
▁Svit
▁Nicole
▁parable
▁Unix
▁ROS
▁oct
▁Ukrsotsbank
▁BIG
▁André
oplasty
oche
itzer
▁MDF
▁freshness
▁GIS
▁Christina
▁Clarke
▁pdf
▁pushes
▁infinitely
▁[5]
▁abstraction
▁worldview
▁typing
▁Perm
pipe
▁Zelenskyy
▁satin
▁Gmail
nsulated
8.1
ulla
1999
▁bending
Uni
▁geographically
▁practicality
▁Alexa
▁Antoni
▁Dani
▁ACT
154
▁politic
uthwestern
▁Prov
▁Component
▁pupil
▁gravel
lung
4.6
▁Marti
▁32%
lake
▁compile
▁desir
▁fillet
ruzh
iXi
perhaps
technologies
scientific
Daniel
planned
draft
square
Safe
GHz
research
▁Comb
Winter
ticket
▁contraction
▁Rut
255
▁Formal
udmyla
▁Abortion
▁Caucasian
▁Cherkassy
▁Colombo
▁DESIGN
▁Ferguson
▁Leisure
▁Prohibition
▁Simultaneous
▁Vaccine
▁adolescence
▁appraisal
▁compatriots
▁confiscation
▁gigantic
▁glorified
▁happiest
▁occupant
▁ordained
▁terribly
▁vigilant
▁voucher
▁trivial
▁Infinity
▁Enhanced
▁caregiver
▁chancellor
▁strawberries
▁hijack
▁scaling
▁bilingual
▁braces
▁Polyester
▁unrealistic
▁Filipino
▁digging
▁northwestern
▁Avakov
[33]
▁wealthiest
▁trimmer
▁panties
ligible
▁craftsmen
▁Sachs
▁testament
▁sinned
▁VISA
▁Seville
▁Scythian
▁Jorge
▁Belize
▁Hugh
leigh
▁Lifestyle
▁195
▁Johannes
275
▁colonel
dock
spoke
oscopic
▁invasive
▁flap
prav
▁encoded
multi
▁Didn
search
▁Gad
▁unborn
▁Compass
▁Tired
▁overflow
▁inflicted
▁Hydra
▁oust
▁Popov
▁insider
▁sap
motor
▁censor
▁Rip
▁detain
▁Tym
▁Baha
▁SEE
▁Zionist
▁Cran
▁1887
▁PLN
3000
▁Raid
▁youthful
ief
yshyn
▁hacked
▁1883
atum
▁Rox
ovyi
▁MINI
rice
kw
RNA
▁Launched
▁stereotype
illian
▁dew
extraterrestrial
9.6
▁PAN
7.7
▁Lesson
▁Trace
▁Meteor
▁sho
▁slider
ogenous
question
Ukrsotsbank
journal
Watch
wag
▁$0
gret
▁Stru
▁encode
▁wit
▁endorse
released
luk
forest
axial
▁$100,000
▁Alina
▁Ukrzaliznyts
▁Dedicated
▁Español
▁Knife
▁Miguel
▁Socrates
▁Taipei
▁Turchynov
▁Wroclaw
▁Zodiac
▁autobiography
▁chrysanthemum
▁fertilization
▁photosynthesis
▁pneumatic
▁remembrance
▁swollen
▁voyeur
▁MARKET
▁whistle
▁nozzle
▁XVideos
▁agribusiness
▁rupture
▁guestrooms
▁Maurice
▁sincerity
▁Ultrasound
▁surcharge
▁Refer
▁Shannon
▁compass
▁devaluation
▁Raymond
▁Provincia
▁retrospective
▁Poison
[37]
champ
▁quark
▁liking
▁Kinky
▁Corfu
Step
▁Silence
60,000
▁mantle
express
▁Martyn
▁Anybody
▁exhaustive
worthiness
▁Depot
▁adultery
Food
▁Telecom
▁Forestry
▁innovate
▁11,000
▁%1$
▁Disabled
▁Journalist
▁Helena
▁Obtaining
▁Mum
▁Kash
nig
▁на
▁Belle
▁Extremely
▁Completely
Force
▁Highest
5.9
Movs
▁crippl
Does
▁2100
copter
▁thriller
▁Verde
▁Sauce
▁Moh
▁Yam
▁Investing
[2][3]
▁Luna
derma
1-2
▁prudent
ocular
ACC
▁freezer
extra
bourg
▁grinder
▁trainee
▁parasite
gma
▁consul
▁Cork
▁kilometer
▁AFP
▁Writer
fused
▁Inflation
▁vir
ло
Despite
regulated
similar
population
▁Ryb
▁189
server
155
▁evacuate
Given
▁dread
▁Combine
▁illuminate
4.3
10,000
unov
plug
▁Advertise
Spain
124
▁Haj
▁Cure
▁"%1"
▁Armageddon
▁Earthquake
▁Ensemble
▁Mozambique
▁PROGRAM
▁Verizon
▁Veronica
▁assimilation
▁calibre
▁condolences
▁contagious
▁dispersion
▁preservative
▁resumption
▁urinary
▁variability
▁Aegean
▁Mohamed
▁existential
▁infarction
▁Reducing
▁stigma
▁Sardinia
▁shiny
▁fastening
▁Rainbow
▁Polynesia
▁Swallow
▁lilies
▁Minecraft
▁Alphabet
▁Bethel
▁Arrive
▁imprint
▁arcade
▁Multimedia
▁splash
[35]
▁fiery
▁(2000)
▁Supervision
▁Competitiveness
▁Cooperative
▁Methodology
▁IPTV
ROS
▁blink
▁EXPO
▁Klaus
▁Pinterest
▁gynecologist
▁detrimental
▁PAT
▁Contribution
▁depiction
▁habitable
▁convened
▁coli
▁Podol
▁diluted
▁permitting
▁Ethiopian
▁Specify
kovych
UCH
tonic
ivtsi
▁Examine
▁disposed
GRAPH
▁rover
▁Kozlov
▁150,000
▁Ranked
▁compiler
▁Chin
▁У
▁workflow
▁tuna
▁experimentation
/07/
▁UAV
mostly
▁TOO
▁ANTI
▁PEN
▁richness
▁coursework
▁owed
▁regained
▁Gha
▁indexes
▁6-8
▁finishes
diction
▁Megan
▁Cliff
▁37%
medical
▁generalization
nest
485
▁coping
tomy
ntitrust
▁trio
chor
▁Shelf
▁Fail
▁Subscriber
gear
▁Guam
2.6
***
▁Pisa
▁LET
▁STAR
never
employ
▁Carrie
▁SFS
▁Tann
ukha
▁Korn
proliferation
communist
protein
discrimination
blonde
alcohol
global
Republic
▁1884
▁selfie
▁telegraph
️
GLONASS
▁Cypriot
▁Elegant
▁Merchant
▁Presidency
▁Punishment
▁SPECIAL
▁Vibrator
▁anticipation
▁cognition
▁comprehension
▁confiscated
▁educating
▁fidelity
▁headquartered
▁heterosexual
▁mucous
▁multiplication
▁photovoltaic
▁piracy
▁requisite
▁splendid
▁subsistence
▁tackling
▁OpenCart
▁entrant
▁microbial
▁trophy
MISSION
▁HOTEL
▁Ibiza
▁Turtle
▁Judas
▁exponential
▁Janeiro
▁plunder
▁MEPs
▁basal
▁Havana
▁unjustified
▁purified
▁Centaur
▁refract
▁evade
▁CCTV
▁(2002)
▁northeastern
▁DOCU
▁OPEC
▁Duchy
▁Disorder
▁Promoting
▁converse
▁harmonic
▁OnePlus
▁Arrangement
▁emigrated
▁Eleven
▁rewriting
▁refinement
▁MUST
▁Ö
▁Somebody
inner
▁carcinogen
▁dismantled
▁arbitrator
▁glossy
▁axle
▁weaponry
▁1+1
▁Vince
▁american
290
▁Ideally
given
▁SITE
▁brushes
▁Hanna
▁Stem
▁Steal
163
▁ethic
▁Stability
127
▁51%
▁MED
ecki
▁Lydia
▁intensively
▁Jung
▁GRE
▁SALE
▁Kip
limat
wish
▁(119
continue
▁Referr
ynsky
ISO
different
▁adolescent
▁Dimension
▁Gö
▁rumor
▁1846
▁Mud
▁Roller
Product
registration
TAN
Freedom
woven
pornstar
wild
▁deteriorate
past
▁Burma
Que
▁Summ
▁foe
▁Proceed
▁rediscover
▁Adelaide
▁Affordable
▁Approval
▁Astronaut
▁Café
▁Cycling
▁Diocese
▁DrTuber
▁Khrushchev
▁Mauritania
▁SunRose
▁Vladislav
▁Whilst
▁Wolfgang
▁adversaries
▁allegiance
▁engraving
▁excerpt
▁extremities
▁negligence
▁panorama
▁pantyhose
▁penguin
▁porcelain
▁precursor
▁reliance
▁superfluous
▁supremacy
▁terrified
ò
▁Bentley
▁Empflix
▁cohort
▁Beginners
▁crossroads
▁Tasmania
cutaneous
▁clutch
▁Depth
▁wrestle
Karabakh
▁exhort
trophic
▁KNOW
▁indictment
▁Archangel
▁fundraising
▁strands
▁bipolar
▁Basilica
▁multilingual
▁biofuel
Ray
pussy
▁Pascal
▁hull
▁resolute
▁Irene
▁Audience
▁brink
▁housewife
▁thorn
▁Variable
▁daring
▁Snowden
▁emitted
▁(1998)
▁nursery
▁Insertion
▁Worst
▁linger
▁Nickel
▁airliner
▁KPI
▁inverter
▁Ellen
▁pessimistic
▁Frontier
▁reflective
▁Harmony
▁Mendel
▁Valentina
vantage
▁Majority
▁circulated
▁vanished
▁Institutional
▁1815
▁Opel
leading
▁Nazism
ORY
▁Forgot
▁Thereafter
▁1882
▁stab
▁dine
▁Atari
▁boldly
▁Rene
▁validation
OLO
▁Schi
▁legion
▁mitigat
▁PLC
▁sued
CCC
189
▁CARE
▁1,300
–12
▁43%
▁zip
/11/201
▁trait
IATA
desk
▁signify
Belarus
Google
David
surgery
engineering
fruit
▁convict
picture
Person
disproportionate
▁Fir
ffen
▁drip
▁bronchi
.02.2019
≤
▁Conservatory
▁Equity
▁Evangelical
▁Nietzsche
▁Psychiatry
▁Pylyp
▁Sikorsky
▁exemplary
▁halves
▁intertwined
▁librarian
▁spectacle
▁steadfast
▁sterilization
▁Bieber
▁Nexus
▁aerodynamic
▁melody
▁Existing
▁Neighbourhood
isposable
▁influx
▁transatlantic
▁circumvent
▁honeymoon
▁remarkably
▁Nativity
▁rayon
▁pigeon
▁Saddam
137
▁Transparent
▁Venue
▁Regime
▁gazebo
▁infographic
▁Tray
▁southeastern
▁recurrence
▁unconventional
▁Submission
▁unequal
▁Sokolov
▁gearbox
▁bribery
common
▁loom
▁firewall
▁Bravo
▁serum
statement
▁Greco
▁Chill
▁Famine
▁Reverse
Rock
▁Honestly
route
creation
▁Panty
▁Champ
▁preset
▁Flip
▁Logan
▁bitch
▁Steer
▁Taxation
▁Pierce
▁Seminary
▁Decoration
ULA
Upcoming
▁Contra
▁Malaga
▁inspected
LET
lga
▁apologized
▁Tao
▁RNA
▁Guaranteed
fail
▁fetch
▁Argo
Use
▁Sino
▁Todd
CAM
▁Taka
pso
▁halo
▁TOUR
▁Loop
▁quake
atomic
hong
▁iris
▁Maki
NTU
▁Lime
vard
prison
violence
rack
▁Saba
2,5
session
▁Dealer
Frank
▁cruiser
▁1876
μ
Custom
colonial
therapeutic
Vintage
revolutionary
Financial
Through
optional
crisis
Remember
located
▁encrypt
▁unveil
Talk
spring
agency
▁discard
nyak
employed
▁1881
▁tranquil
▁Kyrgyz
▁pharmaco
Ü
▁Assurance
▁Beethoven
▁Forbidden
▁Librarian
[...]
