<unk>
<s>
</s>
,
.
▁і
▁в
▁з
▁
▁на
▁(
а
▁що
і
▁не
-
у
▁у
▁та
и
▁«
▁до
▁для
англ
'
:
▁за
ий
▁як
▁—
▁про
?
▁це
их
▁є
▁від
▁ви
ом
»
ів
▁або
о
)
ого
е
м
▁які
▁У
▁-
ої
▁ми
▁а
▁"
▁щоб
▁його
▁року
▁я
▁по
ні
.)
».
х
▁також
ами
й
ю
ою
▁він
им
;
▁бути
▁може
▁вони
▁але
на
▁Я
▁Це
я
▁був
ся
▁час
▁під
▁було
!
▁який
▁буде
с
s
▁їх
ї
в
ми
▁коли
).
▁році
»,
▁тому
▁–
▁І
▁того
▁були
▁Ми
▁так
▁б
▁має
▁при
▁років
ими
не
▁її
ний
▁З
ій
▁цього
ка
ому
▁де
▁Як
▁будь
ах
▁1
▁можна
▁На
▁більше
▁В
▁України
▁якщо
▁можуть
▁була
▁все
ки
з
▁вона
▁через
▁всі
▁Не
▁дуже
▁багато
▁2
▁За
▁яка
них
▁те
▁Але
▁після
го
▁Він
...
▁Ви
▁чи
▁то
▁Якщо
▁А
▁життя
ти
те
но
/
▁ніж
▁людей
▁тільки
▁США
мо
ш
’
▁3
ну
▁Чи
▁ще
му
▁С
▁вам
т
▁лише
▁об
▁між
▁без
▁інших
▁п
▁5
▁р
▁пере
к
▁сказав
▁хто
▁вас
ного
▁повинні
ці
▁Вони
ку
▁10
▁нас
▁По
▁себе
▁мають
ла
▁один
▁ж
▁м
▁Що
▁4
▁можете
".
▁навіть
н
ли
▁ти
▁зробити
),
▁всіх
ам
ня
"
та
▁них
▁цей
▁%
▁свою
д
▁роз
▁вже
▁ці
▁_
▁більш
▁18
▁щодо
увати
б
▁До
▁с
▁потрібно
2
▁протягом
▁мене
▁будуть
▁просто
є
ної
▁над
▁світу
▁цьому
▁S
▁/
ування
ок
▁слід
▁Україні
▁Для
▁о
▁зв
▁6
▁інші
▁зі
г
▁О
▁люди
▁рік
▁завжди
1
▁свої
▁пов
▁часу
▁проти
лі
ість
▁7
за
р
▁Вона
▁перед
▁C
С
▁роботи
Я
▁використання
▁П
ним
▁день
▁15
ться
▁A
▁своїх
▁компанії
▁Про
▁цих
▁20
▁яку
▁8
▁оскільки
В
▁питання
▁допомогою
▁близько
ч
▁яких
ити
▁дітей
▁розвитку
▁Коли
S
▁здоров
▁B
ж
▁цієї
▁використовувати
▁світі
п
▁К
▁мати
▁тим
ло
▁кілька
▁добре
▁мені
А
ті
▁понад
▁12
3
▁різних
▁такі
▁права
ь
▁отримати
▁системи
▁сьогодні
▁даних
(
▁й
▁Також
]
▁При
▁ніколи
ія
ма
▁свій
B
▁...
D
ський
▁9
▁часто
▁людини
ії
▁тих
▁таких
▁повинен
▁F
—
▁P
▁Крім
▁тут
▁»
▁свого
▁цю
▁країни
л
ати
▁нам
▁три
▁[
▁одного
▁можливість
▁рішення
ко
ними
ові
▁Після
▁Росії
er
▁чином
до
▁той
▁D
ує
▁Його
▁Всі
▁веб
▁два
по
y
4
▁майже
▁знову
▁роки
▁16
▁означає
▁деякі
▁Так
▁M
▁кількість
ля
▁тепер
ості
▁світ
▁ім
▁М
▁Тому
▁30
▁пам
▁знайти
ять
▁безпеки
▁Ти
▁місце
▁17
▁сім
▁E
ова
▁Г
ши
▁Однак
▁Чому
▁14
▁11
ни
▁можемо
▁тоді
▁2018
ною
▁ні
▁яке
▁&
▁бізнес
▁Україна
C
▁разом
ль
▁серед
A
▁наших
e
від
P
У
▁G
ив
▁доларів
▁найбільш
▁прав
▁двох
▁щось
▁T
сь
ська
▁програми
З
кою
▁їм
▁R
n
▁Під
▁Цей
▁право
▁осіб
▁можливо
то
▁Де
▁робити
▁участь
▁2017
Ми
▁13
▁роботу
▁забезпечення
▁The
▁днів
d
▁управління
G
▁країн
овий
▁нього
ст
▁2019
▁немає
▁Ці
t
ф
▁включаючи
ують
▁само
▁інформації
M
▁No
▁000
К
ді
▁комп
П
▁бо
ту
▁би
%
▁потім
▁Б
▁чому
▁повністю
Д
де
▁інформацію
▁ЄС
ній
▁йому
▁став
▁H
▁відео
▁дослідження
5
▁25
ував
▁особливо
▁Ця
▁одним
▁міста
▁саме
▁початку
▁L
▁зараз
Б
ували
єр
F
▁багатьох
ви
▁швидко
▁V
али
▁нові
ing
▁питань
▁досить
▁війни
ав
Т
▁ті
ем
▁Д
▁обов
▁навчання
▁створення
▁100
▁зміни
ва
▁послуг
ації
или
ному
▁повинна
ди
▁наші
О
▁тебе
▁Є
▁Від
V
▁робить
▁дня
▁K
▁історії
ають
ню
▁раніше
▁менше
ського
▁відбувається
▁там
▁своє
▁ця
▁дані
▁допомогти
ре
▁млн
ація
▁2016
▁відповідно
8
▁ваш
▁ласка
▁вашого
r
лю
тер
га
да
ме
▁компанія
▁Щоб
▁цій
ність
▁дійсно
▁випадку
▁жінок
▁лікування
▁працює
▁могли
T
i
язку
▁нових
o
▁24
▁Е
▁сказати
ор
▁значення
▁Отже
▁краще
com
▁всьому
▁людина
6
▁ринку
▁Т
▁Багато
al
▁онлайн
сті
▁50
W
ба
▁перший
▁2015
▁г
▁новий
чи
І
▁дозволяє
Г
▁існує
ер
ник
▁працювати
ють
▁таке
рос
ські
▁Бог
▁•
▁якого
▁ре
ов
▁іншими
",
▁момент
▁нічого
▁стати
H
мі
▁кожен
▁спосіб
▁собі
ію
▁Європейськ
сть
▁заявив
a
▁можливості
7
▁проблеми
Ф
▁W
ить
▁період
▁поки
▁2014
ста
▁цим
▁легко
L
▁діяльності
▁наприклад
▁місяців
▁одна
▁бізнесу
ра
▁своєї
▁треба
▁I
▁доступ
ц
▁місця
ання
ає
рі
▁різні
ман
▁кожного
▁Тепер
М
R
▁19
▁N
▁Будь
▁можу
ed
▁змін
▁словами
ру
f
▁міг
ської
лу
▁зобов
▁кар
m
b
▁обладнання
▁хоча
уючи
▁мережі
▁22
прав
▁мав
▁проекту
он
▁гроші
▁система
▁більшість
▁менш
▁21
▁дає
▁основі
▁клієнтів
▁мали
ві
▁знаходиться
▁речі
́
▁рівень
▁Європи
▁ваші
▁продуктів
▁of
in
нь
▁організації
ових
▁води
ується
▁Ш
▁деяких
▁виробництва
ін
▁політики
че
▁проект
▁0
▁досвід
сі
▁нашого
▁(19
h
▁якому
▁хочу
▁Ко
ією
▁держави
▁таким
нов
▁думаю
K
▁статті
▁зазвичай
▁же
про
▁центр
▁своїм
са
який
▁усіх
l
▁століття
зі
ців
▁дії
▁нашої
▁побачити
тон
ком
▁годин
при
▁Сьогодні
▁23
▁населення
▁процес
▁країнах
x
▁послуги
▁дві
▁уряд
бі
▁систем
▁Наприклад
▁набагато
▁групи
▁слова
▁хвилин
мін
▁виконання
or
▁країні
▁знаю
▁постійно
▁Росія
▁мови
▁хочете
Е
ків
▁наш
Х
▁Бога
▁40
▁місто
▁рівні
су
▁досліджень
▁Проте
▁трьох
▁іншого
Це
▁трохи
▁Все
▁пропонує
c
ець
▁метою
▁зробив
9
p
▁проблем
▁достатньо
▁Ре
▁сайті
чі
▁продукти
ша
▁підтримки
▁частина
▁чого
▁зокрема
яти
ських
▁мільйонів
▁роль
▁хоче
язані
▁захисту
▁території
▁міжнародних
w
ро
▁освіти
ле
▁сили
▁вересня
▁Ф
▁президент
▁закон
▁е
▁+
▁області
увала
▁Роз
▁приблизно
▁Європі
▁Деякі
▁рівня
ше
▁землі
▁UAH
▁Пере
▁Об
▁студентів
▁ними
N
мер
▁разів
▁мало
▁Ісус
▁допомоги
▁жовтня
▁останні
▁житті
Про
ала
▁березня
▁2013
ель
ат
кон
u
▁січня
щ
▁своєму
▁знати
▁Те
▁програма
en
три
▁необхідно
30
▁отримання
ками
▁Хто
▁тварин
використовується
▁каже
an
E
ство
▁хотів
▁Хоча
▁Британії
▁компаній
k
▁стає
▁ООН
▁чотири
си
ар
▁ко
▁28
▁ін
▁грудня
▁Бо
▁місці
ан
▁створити
ила
▁діти
▁липня
▁говорить
at
▁км
▁дні
▁повідомлення
▁сайт
▁червня
Р
▁27
▁важливо
▁д
▁вплив
▁нового
▁умови
уються
▁Лі
▁важко
кі
▁Київ
▁забезпечити
▁такий
мен
▁навколо
▁програм
▁тисяч
▁раз
▁частини
▁межах
▁всього
ть
▁Ні
it
▁часом
0
▁включає
▁―
▁Таким
▁2012
▁дати
▁неї
us
▁занадто
▁університету
▁чоловік
▁26
v
▁результати
▁Google
▁народ
▁жінки
z
▁увагу
▁Н
▁маємо
ха
ші
▁частиною
▁ним
▁квітня
▁події
ця
X
мов
▁вперше
▁роблять
па
▁Нью
▁J
▁Чере
▁стала
кс
▁галузі
▁університет
▁отримав
▁любов
ча
роб
▁Х
▁зростання
▁одну
▁сам
▁листопада
▁становить
▁енергії
▁будете
▁кількості
▁насправді
▁смерті
▁влади
▁діяльність
▁боку
▁будемо
або
дер
▁запис
▁крім
▁спочатку
▁надає
▁Ла
єм
клад
▁план
▁досягнення
▁and
ar
▁шляхом
20
▁використовують
▁застосування
сти
ацію
▁допомагає
аючи
▁тіла
▁систему
g
▁контролю
▁шлях
▁звичайно
▁пізніше
ований
▁працюють
▁кон
▁2020
гу
ової
▁знання
▁великих
▁мовою
▁інформація
▁зображення
▁O
le
▁розвиток
▁дій
▁роках
ен
лів
▁якості
▁най
▁уряду
▁U
важ
et
яв
▁своїй
▁змінити
ян
▁якій
кри
▁т
▁к
▁полягає
▁грошей
зна
▁вашу
▁вимагає
▁суд
▁підтримку
▁великий
▁жити
стер
▁думку
▁іноді
▁тобі
▁даними
▁2011
▁технології
_
▁2010
▁інший
Н
▁зрозуміти
▁перш
▁тощо
▁завдання
▁the
▁якої
▁Центр
▁охорони
нім
el
▁Більшість
▁ваших
▁вибір
▁вашої
▁особи
ності
▁організацій
які
▁народження
▁ш
▁відповідає
▁служби
▁Р
▁Онлайн
▁інтернет
O
ос
▁кінця
▁наук
10
▁членів
▁рамках
ень
▁60
▁НАТО
лін
▁сталося
овані
▁травня
▁29
▁стан
ється
▁чоловіків
ал
▁здається
▁знає
▁хочуть
ус
▁Кожен
▁Наш
рах
▁знаєте
вер
ове
▁захист
▁робота
▁школи
бо
▁однією
твор
on
▁іншим
▁операцій
▁мова
▁суб
сон
ючи
ового
ду
▁in
▁разу
ському
▁склад
▁людьми
▁тис
▁дитини
іть
роз
▁причин
▁Тоді
▁досягти
▁суспільства
▁економіки
▁міст
▁Києві
▁Ю
ве
▁Ма
▁вивчення
▁продукт
▁серпня
▁мій
▁готові
лив
ет
▁Франції
▁біля
▁почати
▁стали
▁культури
▁програму
▁Кор
▁відсотків
це
▁минулого
▁X
▁контроль
▁операції
▁$
ги
На
▁історія
би
язок
▁Л
▁сил
▁нашу
▁говорити
▁значно
00
▁почав
▁31
чу
▁справ
▁нашому
▁майбутнє
▁цілей
▁взяти
▁повітря
▁відповідь
▁см
▁найкращих
▁правильно
▁знаємо
▁допомогу
ція
По
▁із
▁яким
▁фото
▁собою
▁соціальних
▁принаймні
▁скільки
▁українських
стю
40
▁громадян
▁одному
▁батьків
▁технологій
▁великі
ені
▁Інші
пов
▁хтось
▁всередині
50
▁2008
ден
▁Програма
▁промисловості
▁курс
▁йде
▁Люди
▁стосується
год
▁книги
▁своїми
▁Тут
▁млрд
род
▁200
▁фільм
▁користувачів
▁витрати
▁термін
▁мм
істю
▁зробили
▁Звичайно
▁частину
▁Кар
▁вибрати
▁Ті
▁комплекс
ське
▁ситуації
▁першого
▁декількох
ються
▁безпосередньо
▁Ка
аль
▁числі
▁купити
▁In
айте
▁результаті
Y
60
▁Ар
▁Компанія
▁Facebook
▁День
▁Ще
об
▁відносин
ia
Не
▁даний
▁мета
уйте
ган
▁правило
▁залишається
–
19
▁праці
зи
Ш
▁процесу
▁гра
якого
▁тип
▁проектів
тор
▁команди
▁маєте
ства
▁ст
▁забезпечує
▁Міжнародний
▁вирішення
вати
▁їй
▁місті
▁будинку
ят
▁їжі
▁основних
▁гри
▁історію
▁Землі
▁списку
літ
▁причини
▁Потім
es
▁теж
▁такого
▁*
▁розуміння
▁Мар
▁Ось
▁Та
▁залежить
▁2009
▁нами
▁характер
▁далі
▁Час
▁Китай
Ч
ння
сто
▁народу
▁надання
▁почали
▁будинок
▁торгівлі
▁довго
▁тижня
▁ринок
▁допоможе
▁ціни
▁ймовірно
is
▁радіо
▁хочемо
▁отримали
▁приклад
▁точки
▁співпраці
▁500
▁Можливо
▁умов
▁лютого
);
▁Перший
▁абсолютно
▁випадках
▁аналіз
▁Навіть
▁вашому
ран
▁їхні
ається
▁методи
рон
▁обслуговування
▁разі
▁швидше
▁цін
▁людям
енко
▁встановлення
лення
▁Які
▁порушення
▁надзвичайно
▁мир
▁справи
▁©
▁дитина
▁більшості
бу
▁підвищення
яких
▁Ле
▁Один
▁Без
▁харчування
▁користувача
▁наступного
▁бар
▁відкриття
▁Україну
▁справді
J
ант
▁кв
▁ризик
▁Кон
▁містить
80
ення
▁партії
▁успіху
ток
▁ряд
нг
бер
▁телефон
▁правила
▁двома
альні
▁Ін
▁президента
єднання
▁моделі
▁відновлення
▁форму
ена
міт
▁магазини
▁всім
▁одяг
▁проведення
▁місць
▁години
Ви
▁пост
▁дізнатися
гор
▁форми
▁тиждень
?"
атор
▁весь
од
▁можливостей
▁вважають
▁високо
▁війна
▁Саме
відповідальність
▁одно
▁видів
▁кожному
небудь
▁засобів
нні
▁товарів
▁команда
ацією
▁інтер
ке
▁брати
▁Її
▁рослин
▁s
ес
[
▁підприємства
▁Державн
▁наша
▁факт
▁номер
▁Польщі
дж
ге
іння
▁крові
!»
▁група
17
ову
▁силу
▁анти
▁вище
▁Ради
▁Президент
▁основні
▁реалізації
▁майбутньому
▁вид
il
фа
▁імені
ило
ur
▁Ме
ей
фі
вар
цем
▁список
▁Новий
▁нову
буд
▁держав
▁2000
15
йте
ic
ков
▁пан
▁#
▁визначення
▁речей
ген
▁Три
▁кажуть
▁ніхто
▁Се
▁місяць
▁сфері
▁:
▁дав
▁ніч
▁мов
▁волосся
▁країна
икористовуються
ход
дат
▁син
▁спів
итися
▁2007
став
▁нижче
▁назад
▁Протяг
▁Го
аються
▁оборони
▁сайту
▁самі
▁грати
▁подорож
▁використовує
▁Сан
▁якими
ри
▁розум
▁доступу
90
▁підприємств
▁Па
▁рішень
▁зору
▁настільки
лен
▁згідно
ун
▁такими
пер
▁якість
▁тіло
I
▁складається
бор
Л
▁називається
Згідно
▁Z
▁порядку
▁Існує
ван
▁однієї
чин
70
▁подій
вали
ції
муть
▁бачити
ик
▁покоління
▁одне
▁першим
▁кіно
▁→
12
во
▁Серед
▁автомобіль
▁Мені
▁типу
ch
лер
мент
▁сказала
▁вартість
▁варто
▁обмін
▁знають
язки
▁автомобілів
▁угоди
▁кров
▁дерев
▁велику
▁обмеження
▁відносини
▁буду
▁ресурсів
ra
▁прийняття
▁стало
▁35
▁відомий
▁незалежно
язання
▁вигляді
▁умовах
лет
кор
re
▁зустрічі
▁органів
▁Китаю
▁замість
▁одночасно
U
▁повернення
іт
куп
▁ради
▁секс
▁зовсім
▁вважає
▁завдяки
ники
▁Їх
▁розробки
тур
вір
фер
▁матеріалів
▁Ру
▁га
▁визначити
▁здатність
іст
▁продажу
▁підтримувати
▁починається
▁Наші
▁користь
▁рух
▁необхідні
ad
▁документів
▁Тільки
▁Re
▁пошуку
▁ваша
▁див
▁заходів
▁щодня
▁широко
ився
За
▁центру
▁метод
▁авто
▁відразу
▁газу
▁Windows
▁інше
▁однак
▁х
▁міжнародного
▁науки
лік
▁назву
оз
▁подобається
▁зброї
▁мала
▁спектр
▁кінцев
▁директор
кер
▁показує
um
▁велика
▁різними
▁бачив
ation
▁ідеї
▁крок
▁слово
▁жаль
▁тобто
цією
+
▁модель
під
▁Ну
▁продукції
якої
▁види
▁па
▁виробництво
▁назва
ям
ську
над
зу
▁своєю
▁дизайн
▁вдалося
▁призначення
▁далеко
▁матері
кова
▁працівників
▁ігри
▁варіант
▁голос
▁наскільки
▁жив
▁закону
▁зустріч
▁поза
▁ди
▁70
▁чоловіка
▁задоволення
11
▁світло
раз
▁ка
▁успішно
▁чотирьох
лися
▁друзів
ri
▁Америки
▁f
от
▁отримує
▁Можна
лов
▁оцінки
илися
▁Джон
▁2006
сайт
кін
▁вдома
фік
ера
▁перші
▁c
▁медіа
Великої
▁офіс
▁піти
уватися
▁досі
▁суду
▁Готель
▁Мак
35
▁точно
▁гру
НІ
▁витрат
▁називають
▁Національн
він
гра
▁нове
▁сильно
▁прем
▁досвіду
▁Союзу
же
гад
▁Га
▁(1
16
▁колір
▁банк
▁Ісуса
▁правил
▁Ба
▁Мо
▁знаходяться
▁80
▁випадків
як
ент
▁нової
▁квітів
▁банку
Q
▁воно
▁II
▁рахунок
▁лінії
▁Live
▁доставкою
вся
ion
▁знав
▁проблема
▁дім
▁форм
▁300
▁назвою
▁засоби
▁жінка
ай
▁хотіли
▁Ге
▁місяці
▁обличчя
язаних
▁потрібні
ана
▁вважається
▁потреби
▁бажання
▁2.
▁походження
▁думки
▁організація
▁молоді
▁моря
▁щастя
▁встановити
25
99
тра
▁живуть
▁впливає
▁усього
ще
▁уникнути
▁нашим
ґ
▁машини
na
Z
▁кожна
▁посилання
пе
▁́
▁найкраще
▁церкви
▁мистецтва
▁класу
▁готелі
гар
яч
▁ваше
ським
яку
18
▁Ан
▁кінці
▁Університет
▁хвороби
▁збільшення
▁Су
пис
▁90
▁вами
▁Co
▁руху
тан
▁вік
▁Єгови
ua
▁потреб
▁ціна
іс
▁2005
ent
▁результат
ках
▁Генеральн
▁учасників
▁маю
▁розмір
єв
ист
▁існування
▁ньому
тов
▁прямо
язково
бра
?»
▁річ
▁Оскільки
▁негайно
▁серця
▁пропозиції
ована
▁установ
▁Пам
▁реформ
▁підготовки
До
▁неможливо
▁новин
▁впливу
▁цією
▁for
▁Велика
▁компанією
▁Більше
▁середовища
▁продукту
▁підпис
▁клас
▁центрі
ацій
▁уваги
▁вирішити
альна
▁Іноді
▁клітин
▁роботі
▁дому
▁доступні
зо
▁європейських
ol
▁останніх
▁першу
▁бюджет
▁Ку
тися
14
лог
▁виконувати
▁код
▁45
яті
▁найбільших
▁намір
▁потрібна
▁сервіс
▁чергу
▁державних
пере
▁зусилля
▁Гра
▁моя
▁Інститут
▁світової
▁€
▁перших
▁Скільки
▁певні
▁Са
▁Національний
цію
▁українського
▁моменту
▁зберігання
гі
єкт
ers
▁сільського
▁Ха
▁поля
▁цілому
ур
▁Кількість
▁шукати
альний
И
▁проекти
▁інститут
▁нашій
▁майбутнього
:00
ит
▁полі
▁Ціна
▁Трамп
лася
▁Криму
▁новини
якому
▁прийняти
▁місцевих
▁всю
▁сторінці
▁політика
▁Веб
▁підтримує
▁будівництва
▁стане
▁керування
▁інвестицій
▁Може
▁результатів
95
рів
▁наслідки
▁сторони
▁a
▁Закон
te
38
▁потребує
▁ефект
▁Дуже
▁сезон
st
▁вибору
▁місяця
▁збереження
шу
яка
▁отримують
▁політичних
▁напрямку
▁руки
▁тижнів
▁Перед
▁кожної
▁мозку
стан
▁школа
▁завершення
▁функції
▁дизайну
▁файл
▁„
▁2004
▁область
▁електронної
▁смерть
▁основному
▁справу
▁така
am
кар
▁пошти
].
▁віці
▁(«
▁огляд
▁актив
▁ЗМІ
дав
алі
▁мову
▁надати
▁євро
ry
▁конференції
центр
▁Німеччини
▁альбом
▁лист
▁наше
▁української
жен
▁якою
▁переклад
▁Японії
ge
▁32
▁Відео
▁Y
24
світ
45
яз
▁Там
▁зберегти
уємо
▁комітет
▁належать
▁приймати
НА
нос
пу
un
▁De
▁незабаром
▁Ж
▁Бар
▁власні
▁поради
ум
▁колись
гер
▁чудово
▁мої
▁Італії
ter
▁почуття
▁останній
ад
єру
▁існують
▁(2
th
▁Міжнародна
▁цілі
▁кімнати
ятайте
▁миру
▁наступних
▁Нова
▁нова
▁додому
▁іноземних
▁речовин
▁пішов
▁Або
▁Да
▁фотографії
▁матеріали
▁дозволити
▁Індії
▁фінансування
рен
▁1000
▁людину
▁другий
єктів
▁могла
різ
▁свободи
▁транс
▁втрати
▁доведеться
ір
▁обробки
▁груп
дар
▁машин
уванні
▁виглядає
ників
▁простір
▁раді
▁опис
▁власності
▁продовжувати
▁живе
55
▁Group
▁Pro
▁продаж
ex
▁сучасних
▁район
▁обох
▁діє
мор
▁Христа
▁Бі
▁роман
▁Проект
▁Назва
▁мого
▁слів
Ж
▁Зазвичай
▁повний
ro
▁3.
том
▁продовжує
▁мас
▁звіт
ською
ані
▁інтерв
▁людиною
▁серце
зважаючи
їзд
▁p
▁готовий
▁перше
-1
▁знань
▁Гер
▁країну
▁Києва
вод
▁чітко
▁оновлення
▁формування
▁бачили
as
▁аналізу
вен
▁ціну
▁відповіді
Як
відповідальності
тяг
▁такої
▁серйозно
се
▁Пан
▁розслідування
▁мод
48
ємо
▁отримала
▁батько
ниця
▁шість
▁розширення
▁Тим
нер
ованих
▁наступні
▁мабуть
to
▁подорожі
▁То
ській
▁будівель
▁Ді
la
▁найкращі
▁інструмент
▁to
▁150
вид
▁Володимир
▁шоу
▁тур
▁клуб
▁кур
75
ne
▁книга
▁спо
форм
▁бере
▁се
▁потрібен
▁1.
▁текст
ики
илася
▁державного
▁економічного
▁Ch
▁думати
▁люблю
ак
▁використанням
▁заходи
дія
▁любить
Є
▁Уряд
являється
нув
▁партія
Якщо
▁стиль
▁категорії
ери
див
▁злочин
▁парк
▁матеріал
▁розділ
▁зможете
▁прес
▁ту
33
▁незважаючи
▁Apple
▁відносно
ина
▁погляд
▁повинно
▁Цього
▁Ор
▁Олександр
▁зусиль
▁їсти
▁участі
▁батьки
▁Гар
Україна
▁режим
▁замовлення
▁документи
▁Най
▁сімей
пи
▁статус
▁Федерації
▁проживання
ел
овим
▁важливі
ir
▁повернутися
▁політику
хід
13
39
▁вимоги
34
раж
▁працював
29
▁системі
▁шанс
пор
▁боротьби
▁процесі
32
▁найкращий
▁Дослідження
▁підхід
▁пацієнтів
36
▁церква
▁робіт
▁аеропорту
▁призводить
тів
▁сум
цями
▁Android
▁Азії
віс
нів
05
▁додав
▁безпеку
▁Росією
▁страхування
ціон
▁нею
▁пошук
ини
▁Ро
жу
▁місцях
▁електро
▁Ло
▁чоловіки
▁іншої
▁St
▁Історія
▁Q
язаний
▁Ц
▁показати
▁Група
ин
▁2-
▁вашим
▁військових
▁відчуття
▁іншому
▁Сам
тр
▁науково
▁Російської
▁(3
▁використовуючи
▁готель
▁національної
▁переважно
▁документ
▁таку
▁Гу
▁навички
ліз
▁Спочатку
▁членом
▁вперед
▁клієнта
▁передбачає
▁пара
тен
▁спробувати
▁будівництво
▁Бу
▁регулярно
▁молодих
▁ролі
▁Мі
▁обліков
єри
▁війну
алися
▁шкоди
▁включають
▁тримати
▁книг
інг
▁контакт
▁Міністерство
▁практики
▁обміну
▁читати
атися
▁реєстрації
▁змогу
▁Інтернет
▁фінансових
▁викликати
▁Німеччина
стро
▁положення
▁частині
▁со
▁Дякую
▁стилі
▁регіону
увався
▁стільки
▁сила
▁Ніхто
лей
▁су
▁процедури
▁будівлі
▁робимо
▁ситуацію
▁рр
▁аеропорт
▁помер
▁особисті
▁створює
ите
▁підтримка
жив
▁Фі
▁джерела
▁заснована
▁Австралії
▁межі
▁шляху
▁автомобіля
▁Великій
тар
▁Вам
▁Німеччині
▁музей
▁студенти
id
▁2003
міністр
▁b
▁[...]
▁Кожна
▁Фа
▁İ
бив
▁Дім
▁перша
пан
▁стають
Ц
▁Перш
▁Ч
ався
▁коледжу
▁честь
»)
пі
▁відчувати
▁автор
ологія
▁конфлікт
▁вимог
▁ефективно
наприклад
▁прийшов
▁Со
▁Microsoft
&
▁свят
▁дітьми
мір
▁закінчення
▁Павло
▁поверхні
▁регіон
▁стану
уль
▁двері
▁вимагають
▁служба
*
▁беруть
бут
▁Ра
мп
▁рада
вантаж
їв
▁елементи
▁школі
▁оп
▁версії
иці
▁пар
▁отже
▁біо
▁найбільше
лон
хов
▁параметри
▁запису
▁дають
▁Сі
▁межами
▁дозволяють
▁віку
▁ситуація
▁армії
▁стаття
ас
▁Слід
▁погано
▁запитання
▁версія
▁відвідати
▁спеціально
▁квіти
нення
уд
КА
▁Ст
ений
▁СРСР
мат
▁Боже
▁біль
▁великим
▁зменшити
▁держава
▁періоду
▁складу
▁Зараз
▁фа
42
▁мною
мар
омога
▁російських
▁дев
▁d
44
▁декілька
▁меті
▁Див
▁завод
▁природи
▁ігор
сад
ника
▁жалюзі
▁дар
сил
26
ly
ступ
▁Республіки
цю
▁фільтр
▁33
▁газ
86
▁спілкування
▁канал
ци
▁Китаї
ut
▁вода
▁шести
▁світла
▁Бе
▁порядок
▁кор
▁кольору
▁магазин
▁джерел
49
чка
▁тепло
▁інновацій
▁компанію
▁допомога
▁успіх
сте
▁кут
▁головним
▁іншу
▁любові
ало
▁швидкість
▁належить
▁показано
▁тисячі
▁читання
▁очі
▁покриття
▁намагається
▁тест
01
▁представляє
▁дорослих
▁форма
▁ан
▁займає
▁тиск
ig
▁норм
▁елементів
▁лікаря
▁вирішив
▁Ша
▁початок
j
é
▁йти
▁провести
▁передачі
28
▁економічних
▁відсутність
▁пропонують
op
▁Рада
▁автоматично
▁взагалі
▁певних
pe
▁мікро
▁фактично
▁(4
фт
ями
▁Ду
▁кількох
▁нарешті
Ка
▁ресурси
▁сад
▁лікарні
▁сер
▁воду
▁мистецтв
▁телефону
▁0,
▁мі
вав
▁(18
увало
пл
▁знак
▁Іван
▁частин
▁Ваш
▁захворювань
▁перевірити
▁Мор
▁брат
▁відділ
▁Лу
co
ta
▁споживання
▁літак
лювати
▁Церква
▁починає
нок
▁Зрештою
▁позиції
▁Просто
ist
ща
▁Сполучен
▁зберігати
▁смак
est
ністю
ul
37
▁команд
▁сторінки
▁Сирії
AR
▁кого
ск
▁спорту
▁фільмів
▁програмного
▁якби
▁Вер
▁власну
▁загалом
▁тем
▁отримаєте
▁починаючи
ження
▁перегляд
▁порівнянні
▁файлів
сен
▁люблять
ізм
▁єдиний
31
▁українців
▁партнерів
▁інструментів
▁фонд
▁Аль
ланд
▁знайшли
ут
▁організму
▁мети
▁Звантажити
▁влада
▁військово
▁Новини
65
▁свободу
▁зменшення
47
▁пропонуємо
▁методів
▁%.
▁4.
кові
▁жертв
▁формі
▁пі
річний
▁Девід
▁поведінки
▁бачимо
шт
ковий
▁припинення
▁Одна
ології
▁стосунки
▁теорії
▁кажучи
▁пункт
со
▁тижні
27
▁баз
▁викликає
▁цикл
▁адміністративн
21
▁нашими
▁окремих
▁інформацією
▁вікна
▁захід
▁вибори
▁проблему
▁зазначив
▁стосуються
▁інакше
▁очевидно
▁стратегії
▁усіма
▁допомагають
85
▁Че
▁ідея
ед
тка
твер
°
▁бажаєте
▁активно
▁скоро
▁члени
олог
▁доставки
нка
▁процесів
бе
07
▁Насправді
▁USD
▁безумовно
▁написав
▁Перша
▁2002
▁розташування
▁батька
▁всієї
▁збільшити
▁ризику
▁Нам
▁Америці
▁Британія
▁Бен
пр
нути
▁шлюб
▁важливим
▁Суд
верт
▁захворювання
▁400
▁думав
▁розв
▁Особливо
пад
▁сказали
лан
▁повернути
дов
▁особисто
▁рази
▁планування
sh
▁інтерес
язана
▁дівчина
▁Мон
▁перегляду
перед
нє
▁зупин
▁Немає
▁вулиці
она
міш
▁дитину
▁Такі
▁відповідати
▁автобус
▁актор
▁відкрити
хи
—19
ot
▁Петро
▁рейтинг
▁відомо
ном
▁частково
▁моє
▁суспільство
li
ічні
▁обидва
▁Be
▁стін
▁видання
▁IP
▁організм
тель
▁залишатися
46
59
▁теми
▁мільйони
▁виборів
ач
каз
▁k
▁відміну
▁кг
▁Діти
ятати
чер
▁виконати
▁запропонувати
▁високий
▁одній
трі
альне
▁власний
руш
▁відповідають
▁Використання
пон
ічний
▁'
▁увазі
▁законом
▁зроблено
▁перевірки
ляція
▁Пол
▁проводити
ев
▁Син
▁класи
▁безкоштовно
▁очищення
▁e
тро
▁Раніше
ено
▁Доставка
▁суму
увалися
▁місцем
▁цими
▁фільму
▁меню
▁керувати
▁друзі
▁виявили
▁землю
▁Нехай
ie
▁громадськ
▁Хо
нт
▁Роберт
▁відомі
▁першому
09
єте
▁додати
▁часів
▁жодного
▁державної
▁новим
41
▁зможе
ек
▁великого
▁Великий
▁особливості
▁старі
▁болю
▁дво
▁запобігти
▁Міністерства
▁їжу
ru
▁Пу
▁відповідних
▁поліпшення
im
▁Кан
43
ay
▁писав
▁пристрій
22
▁стандарт
лося
54
▁2001
арі
▁шар
▁36
and
Чи
▁Сер
▁н
даний
▁системою
ика
лег
no
лінг
▁додаткові
▁доступний
▁захистити
▁Часто
▁Іспанії
▁отримувати
▁інтересів
▁мою
▁оплати
цій
▁конференція
▁Світ
▁Джо
▁призвести
▁інша
▁Система
▁великої
▁англійською
дали
▁волі
▁побудувати
▁Було
▁правда
▁пер
▁машина
сел
▁de
23
лює
▁конкурс
▁кухні
▁ген
▁регіоні
▁Міжнародн
▁Нові
▁Який
▁інструменти
▁Download
▁концерт
▁самого
06
▁народився
▁наукових
вала
▁набір
▁сир
▁соціальні
▁ефективності
▁Має
▁національного
▁потенціал
▁гол
▁техніки
▁картки
▁кольорів
хо
лад
2.
▁сервер
ряд
▁законів
бар
▁Англії
ювання
▁дух
▁парламенту
▁відома
▁освіту
▁виникає
▁кредит
▁глибоко
▁Україною
▁товари
▁міжнародної
анні
▁російської
▁екс
▁ефективність
▁серії
▁кордоном
▁зростає
▁блок
▁конфлікту
елі
▁Українська
▁почала
▁залежно
▁практично
▁перевагу
▁придбати
иш
▁образ
▁схід
ключ
▁страх
▁Дата
овано
▁заявила
up
▁тканин
▁спостереження
▁зробить
▁суті
▁жодних
▁угоду
69
▁велосипед
▁диплом
слав
язків
▁ла
▁ніяк
▁робоч
▁десятиліття
▁Інформація
ate
нс
альних
04
▁шкіри
▁відстані
▁виклик
▁тему
▁музики
олі
▁закордонних
най
кція
шою
▁Тривалість
▁International
кра
▁вигляд
▁впевнений
▁кампанії
▁переваги
▁дивитися
гон
▁союз
▁діяти
▁Близько
▁друзями
▁Пошук
▁простору
так
ходи
▁Яка
ізації
▁великою
▁виключно
ляр
▁істот
▁Перегляд
▁коштів
▁внутрішніх
56
▁пристроїв
▁використовували
66
▁мар
▁станції
слід
▁визнання
іль
de
▁лікар
▁програмне
64
▁їхніх
мон
▁давно
▁Le
▁заснований
ети
йн
▁Фонд
віль
▁контракт
ИЙ
Ю
67
▁міжнародні
▁Му
go
▁валют
▁встановлено
▁число
що
▁запуску
▁вирішили
all
▁знали
оф
єю
▁транспорт
▁визначає
▁довгостроков
▁національних
▁Air
▁бази
▁спільного
▁3-
мося
▁=
▁реформи
▁48
▁ло
алася
нк
▁лі
▁розташований
▁говорять
овою
▁столітті
▁завдань
▁дружина
▁метрів
▁намагаються
-2
▁назви
▁соціальної
суд
екс
▁думаєте
▁Стр
▁чим
io
▁просування
▁чудовий
ell
ity
▁транспорту
▁конкурент
96
ER
▁учнів
кет
▁співпрацю
▁життям
▁країнами
▁дітям
▁ракет
сайту
▁квитки
▁Канади
▁край
2019
бл
▁лідерів
єкти
иться
▁спільноти
▁бачите
▁кількістю
▁необхідних
▁національний
▁одягу
@
▁Банк
▁л
▁паспорт
▁впливають
53
▁Вол
08
▁податків
▁m
▁віком
полі
):
▁генеральн
▁жир
▁принцип
▁дотримуватися
▁хо
▁голови
▁Далі
▁вниз
▁мінімальн
▁дерева
▁вихід
сія
▁пісні
▁знайшов
▁відновити
ул
▁i
віт
▁міжнародний
▁власних
▁культур
вал
єкта
▁поліції
▁карт
▁фахівців
IS
бур
▁Ал
нці
▁факти
▁Стаття
▁зниження
▁знаєш
▁Car
▁плани
▁но
▁x
▁удар
▁Біблія
▁помилки
▁створив
▁Іран
▁Сайт
ma
▁4-
фор
62
▁знайдете
бере
гін
000
▁військові
имо
▁джерело
▁необхідність
▁виробників
▁Церкви
▁Єгова
▁вагітності
89
▁дівчат
▁впевнені
▁сторін
▁мереж
▁чекати
вор
чен
рив
▁припинити
▁стані
вання
▁Гі
▁засіб
▁42
ant
▁поняття
▁37
рог
▁інтереси
класти
▁показують
▁людства
▁друга
▁прогрес
▁незалежності
▁перебування
▁75
▁розвивати
▁План
▁Кур
▁комфорт
▁Me
▁законодавства
уз
ене
▁форум
▁робочих
фф
▁головний
▁перевір
▁штат
▁першої
ювати
▁панелі
▁Mo
▁пір
▁органи
▁партнер
пс
хоп
▁риб
▁президентом
▁представників
▁створювати
ютер
▁хочеш
май
▁Пар
ир
ленд
▁приходить
▁будинків
сер
▁HD
▁Давайте
▁симптоми
сом
▁економічної
▁Гал
▁ув
▁38
▁відпочинку
чну
▁вартості
АР
▁супер
▁взяли
ведення
▁Добре
▁чай
мм
▁відрізняється
фе
▁досяг
рин
▁Ше
ine
▁сама
нет
пат
▁вчені
▁сто
ill
▁мистецтво
нки
коли
▁сучасного
▁член
▁прийде
▁виникають
▁Виберіть
бол
per
se
68
▁транспортних
▁Ві
▁часи
98
▁New
овими
▁Роман
нев
▁заяві
▁Th
▁1999
▁спільно
▁100%
▁La
▁громад
оль
▁Союз
me
▁благодійн
▁відкриті
▁01
51
▁Загалом
ол
▁тиску
▁Кам
▁Джордж
▁моїх
▁пристрої
оп
ву
▁пройти
▁вільно
▁(10
▁способом
ow
▁ретельно
▁)
▁вести
94
бір
▁відвідувачів
рес
▁призначений
▁випробування
▁станеться
▁Лише
▁дис
87
▁ліки
▁цілком
▁веде
▁закони
▁теле
▁взяв
ap
▁віри
▁стандартів
▁ставлення
▁політичні
перше
▁формат
▁сторінка
▁стверджує
▁виконує
▁сайтів
▁мотив
▁Європа
▁підходить
▁цінності
▁сприяє
▁здатні
тал
кла
▁Господь
▁Світов
▁залишаються
▁поблизу
▁куди
▁гор
▁приміщення
▁рекорд
▁англійської
фікс
▁можеш
тика
▁залиш
вин
біл
▁голод
порт
▁Крим
man
▁містять
▁персоналу
ізація
тин
▁структури
▁вашій
▁десять
▁Рі
▁ліній
ченко
▁Al
▁раку
шим
▁триває
Майже
▁Бер
▁Пі
ху
▁w
▁повернувся
тичні
▁назвав
▁ступінь
▁доктор
ший
▁емоцій
mo
▁добро
57
▁експорт
Ко
▁Комп
щі
▁інвестиційн
▁ній
»).
▁Радянськ
топ
▁бюджету
маг
▁захищати
▁Закону
▁розміщення
▁250
▁зрештою
▁позицію
▁середньому
▁сина
теся
▁опитування
58
2017
Що
▁введення
▁продажів
▁Найбільш
чки
os
▁запит
▁Африці
кан
іг
▁частіше
▁книгу
▁Ак
▁Біблії
▁російського
зер
▁Два
▁LLC
IN
▁самим
▁кожній
ап
▁звернутися
шир
ук
▁Кі
▁медичних
100
▁Сергій
▁український
▁дозволить
▁надмірн
явився
▁вимір
▁Франція
▁ремонт
▁вранці
рія
▁свято
▁офіційно
▁Музей
▁перетворення
▁поле
▁дасть
▁лінія
лем
▁вибух
▁Святого
▁когось
▁65
▁Комітет
▁голова
зія
▁випадок
▁грошов
▁варіанти
дана
▁контролювати
▁єднання
▁Треба
▁просимо
▁місцевого
▁зміна
lo
▁рейси
▁відбудеться
88
▁ціною
▁1-
▁планети
мир
▁55
мет
▁скористатися
▁міністр
▁страхов
▁сотні
▁соціально
▁найменш
▁34
▁кра
тив
чук
▁Євро
▁ваги
▁високі
▁земля
▁ідеально
The
▁Відділ
▁відповідні
цев
▁журнал
▁власного
лот
▁туди
ub
▁Кол
▁Мій
▁боротися
біт
▁такою
▁налаштування
▁регулювання
▁місії
▁врятувати
▁Майкл
▁гравців
▁пакет
▁n
92
▁Кореї
▁сон
хан
▁адресу
▁Ва
ТИ
ско
▁лік
пар
▁хворих
▁Пізніше
▁НА
▁договір
ань
▁Ґ
03
▁вираз
▁факультет
план
▁прийшли
▁самостійно
▁аль
▁надають
▁колектив
язн
▁Список
▁Но
▁1998
иця
лом
жа
▁випадки
чні
▁сильні
▁05
▁війська
▁відбуваються
▁фінансові
▁Тор
▁утримання
▁докази
менш
▁зможуть
▁принципи
▁Богом
▁поступово
ud
▁запобігання
ьо
сип
ty
Завдяки
▁суспільстві
▁файли
іна
▁посаду
▁відкритий
▁напад
▁проектування
▁платити
▁типи
▁прив
ang
ндр
▁клієнтам
▁Африки
▁усі
▁районі
▁тонн
76
▁сп
▁асоціація
▁потребують
▁виготовлення
▁ге
▁столиці
52
79
дів
▁World
▁кнопку
▁пе
▁режиму
▁дотримання
▁Львів
▁Ma
йно
▁жовт
▁технологія
▁місцеві
чна
▁вісім
▁велике
лас
▁прагне
▁агентства
▁журналу
▁1)
зор
▁агентство
▁впровадження
нули
▁t
уть
▁захоплююч
увач
▁вночі
▁Сп
▁тестування
▁матеріалу
▁інтенсивн
Мі
▁заявили
▁дороги
▁Український
▁Верховн
гр
▁Якби
▁сторона
▁візит
иків
▁товар
97
▁компонентів
▁сході
84
нню
▁комісії
▁вод
▁Мета
77
▁скорочення
▁внаслідок
▁гостей
▁випуск
▁істотно
▁Питання
02
рей
▁навч
▁поширення
▁переговори
▁уявити
▁море
▁енергію
▁можливе
▁g
аж
ver
2016
ора
▁фільми
ОН
▁резерв
▁поставити
▁здійснюється
ович
▁вікно
▁втручання
▁досвідом
▁атак
EC
▁бі
▁падіння
▁захоплення
▁Доктор
▁українські
▁необхідності
▁екран
▁мор
▁способи
▁Голова
ЛА
▁Південно
▁дивно
ve
▁першою
▁структур
▁дитяч
▁відкрито
▁повну
явилися
▁театр
грам
▁гурт
▁швидкості
▁відбулася
▁американських
▁обговорення
▁господарства
▁44
нд
являються
изм
яний
▁факторів
▁iPhone
▁інвестиції
▁правдив
▁безліч
▁говорив
▁вказує
ях
▁відмінн
▁Бур
ез
▁Стан
▁Путін
▁зони
▁курси
▁Автор
▁Разом
▁кімнат
▁університеті
▁вчених
▁демократії
ря
іон
стр
▁мережа
▁незалежність
▁коре
▁банків
▁використовуємо
▁жителів
▁колон
рит
▁повного
▁кімната
▁цар
▁служити
▁зростаюч
▁кінець
▁120
▁Результати
фр
▁Хар
▁слухати
▁Пер
▁десяти
джа
кус
▁контр
age
▁причиною
▁оголосив
арт
▁найбільшим
▁сучасні
рк
▁поліпшити
▁тобою
ивши
▁віру
Name
▁обставин
стій
der
▁ІТ
▁вірус
▁первинн
72
▁музику
▁Основні
▁забезпечують
RA
▁навчитися
сій
▁хороший
▁єдиним
▁справа
▁йдуть
▁Британськ
▁Ізраїль
▁сектор
лок
ичні
язниці
▁приймає
▁Моя
▁Ukraine
▁медицини
▁Ізраїлю
▁телебачення
▁імпорт
▁туристичн
▁правду
▁писати
шка
em
▁професор
пт
ров
▁сприяти
▁статей
рад
▁For
▁роками
При
▁оборон
Ма
▁проходить
▁III
▁асоціації
▁стоїть
лити
▁зірок
вели
▁представлені
▁сезону
▁Фе
▁Кра
▁v
▁співробітництва
АТ
▁бренд
Так
61
оні
▁типів
▁революції
▁владу
▁судов
▁Студенти
▁Хі
▁го
▁1991
▁службу
▁економічні
▁автомобілі
▁бу
▁освітлення
зе
▁голосування
рік
▁фінансів
іка
зар
▁Національної
▁Во
▁відчуваю
▁політичної
нова
▁му
74
▁Ед
▁ста
▁Життя
▁містах
▁завтра
▁наказ
▁турецьк
ny
▁регіонів
▁квиток
▁ран
зон
ллі
▁православн
оло
▁відділу
▁хвороб
▁нафти
▁Розмір
▁фотографій
63
▁академії
▁додаткових
▁прийом
▁плану
▁індустрії
▁тварини
▁1:
▁Управління
▁39
▁титул
net
▁лідер
ічна
▁квартири
78
інь
▁ф
далі
▁зробила
ліс
▁процеси
▁ніби
ab
▁військ
▁етап
тичний
▁співробітників
▁вважати
▁символ
▁родини
▁електроенергії
▁2)
крут
лія
▁Польоти
▁архів
▁числа
▁цікаві
▁Інтернеті
яні
▁походить
▁храм
ори
-10
▁силою
▁тієї
голос
бан
▁середовище
▁поїзд
▁вірю
▁володіє
▁рідко
▁пасажирів
▁Йо
Ре
▁соціального
▁h
▁міжнародному
▁друг
веде
конфіденційності
ni
▁заздалегідь
▁способів
▁мислення
ясн
▁третій
тні
▁допоможуть
▁індекс
▁розміру
▁кордон
▁вироби
лені
▁News
▁водою
▁бур
▁стіл
▁Велик
клас
▁чудові
▁продовження
▁повідомив
▁приватних
▁Con
▁Ман
тт
▁приносить
▁золото
▁хв
▁фунтів
Він
▁санкції
▁пристрою
▁навичок
▁вільний
▁ман
▁дослідницьк
тс
нський
▁рекомендується
▁угод
▁провідних
▁причина
▁пункту
om
міст
▁зброю
▁Місто
▁речовини
▁другого
▁війні
▁нації
еж
стор
▁взуття
язано
▁твердження
▁центром
▁майстер
▁Бізнес
▁Більш
▁Лондоні
▁заступник
▁плат
93
▁проводиться
енд
із
ІВ
слов
▁збір
▁аж
▁Конвенції
▁наприкінці
▁насильства
▁мету
org
нець
▁наявність
▁змінюється
аг
ard
▁північ
▁сумнів
ner
▁неправильно
▁600
бро
ian
▁такому
▁музика
▁деталі
▁пал
зем
▁елемент
ES
▁розташован
▁пре
▁християн
▁Другої
▁думка
one
▁показ
чок
art
▁взаємн
▁інженер
юр
▁Одним
▁намагався
▁свята
▁недостатньо
▁Тур
▁ігров
▁Марі
▁побачите
▁переглянути
▁хрест
▁поведінку
▁клієнти
▁(11
істи
ату
▁заряд
▁парку
▁Вибір
▁звільнення
▁більшу
▁Республіка
▁повідомляє
▁найкращим
▁Ком
▁кошти
▁Аб
Коли
▁сюди
▁ключових
▁топ
▁Wi
▁ось
▁народів
яке
91
▁·
▁життєв
▁океан
US
▁моєї
▁плати
▁колег
▁процедур
рок
▁фігур
тесь
▁відбувся
▁острів
▁показали
ано
▁гори
▁економіка
▁грає
ce
▁Північної
ює
▁ґрунт
▁винятком
▁готелю
▁громади
▁1997
▁провів
▁5-
івка
▁розширен
▁наступний
▁заяви
▁фонду
▁будинки
▁виробів
▁морі
AN
▁ядерної
▁договору
▁роду
кол
▁Категорія
▁розуміти
▁ночі
▁завантаження
▁ідей
▁Тре
▁др
▁рук
▁базі
▁Mar
▁бачу
▁джерелом
▁казино
▁багатьма
▁навколишнього
даних
bo
▁контексті
▁партій
▁відповісти
▁поділ
▁охоплює
▁реклами
вій
▁кроки
▁спеціальні
▁оголошення
▁маркетингу
▁заклад
▁персонал
▁Найкращий
вок
нського
▁Порт
тики
▁представники
▁Кри
▁продовжують
▁біженців
увалася
▁оцінити
лений
ічне
▁Сім
▁двічі
▁Джеймс
Київ
чар
▁1996
дор
▁клієнт
▁християнськ
▁заяву
▁Федеральн
▁палива
граф
лювання
▁відомих
▁Завжди
▁подібні
актив
▁військової
ард
SC
▁капітал
▁температури
▁минулому
▁комітету
AS
▁купувати
чити
▁живлення
штовх
▁рис
▁фінансової
▁Журнал
MA
аючись
▁1995
▁назавжди
▁Сонячн
▁людського
▁державний
▁поділитися
ска
▁вага
▁покарання
▁Ам
▁орган
ово
▁зупинити
▁цінність
▁експорту
▁вина
▁басейн
▁вийти
ура
▁Sh
▁несе
▁складні
▁новими
▁команду
▁огляду
▁апарат
▁зображень
▁говоримо
▁звук
▁січні
ейн
▁перехід
▁високу
▁прогноз
▁дату
▁навчальн
▁твори
▁кожну
▁грн
▁ор
іл
▁починають
▁виходу
▁гір
ac
ниці
▁космічн
▁Бор
▁пояснити
▁41
риз
▁секунд
▁проводить
ела
▁світових
▁Міжнародного
▁вхід
якій
▁персональних
▁оптимальн
▁публікації
▁довше
єктив
Йорку
-3
▁кімнаті
бити
▁релігії
▁природних
▁внесок
▁Карл
ack
▁лежить
▁Докладніше
єра
▁подія
▁рослини
▁виборч
▁фестиваль
друге
▁дістатися
▁використанні
ag
▁Транс
▁розповів
▁сказано
Йорк
▁зберігає
▁Створення
▁Ста
▁загальної
▁підтримують
▁телевізор
▁традиції
▁вправ
▁важливих
=
▁кольори
дон
хорон
son
▁вважаю
▁зроблені
▁депозит
▁Національного
▁43
▁надавати
▁остаточн
▁весілля
▁розділі
▁руках
▁річки
▁виставка
▁розчин
▁властивості
▁легше
▁Гор
da
▁фірм
ніс
▁широкий
рка
▁перевищує
▁подати
▁пом
▁територію
▁Фото
▁порт
▁Вільям
ючись
▁Нарешті
▁акт
▁конгрес
▁Відповідь
▁початков
Де
▁цікаво
ive
▁переговорів
▁створено
▁масштаб
SS
▁юридичних
▁наслідків
$
▁безпеці
▁рівнем
▁урядом
▁залишитися
71
▁регіонах
▁базується
▁середнього
ськими
▁камер
▁дозволу
тя
▁спеціалістів
▁кольоров
▁програмі
▁будувати
▁попит
▁Останній
▁бід
сервіс
▁Бал
▁Слово
iv
▁Школа
▁літа
▁Прем
▁Важливо
бат
▁загального
▁високої
▁професійних
ину
▁диск
дні
▁інституту
▁актуальн
▁Карта
»:
▁трав
▁розташовані
єднані
▁Рей
стра
▁відкрив
73
83
ЕН
▁1990
▁практиці
▁прибуток
юся
метр
▁Мей
▁новому
OS
IA
▁собак
▁університетів
▁нагород
▁си
валися
▁Джа
▁перспектив
▁тими
тична
▁робили
річчя
▁мозок
без
дан
▁пік
Лі
явилася
▁приготування
▁всіма
▁Королівськ
▁Господа
▁Христос
▁мовами
рат
▁краси
▁інфраструктури
▁посла
▁арабськ
▁кола
їд
our
▁кожні
язков
▁прийняв
▁800
▁параметрів
уєте
ємося
▁нещодавно
▁Мат
сс
час
▁запропонував
▁функцій
▁хороші
▁студентам
▁Здається
▁маршрут
пуск
▁державні
▁бік
ster
▁створений
▁окремі
сла
▁сприяння
▁енергетичн
▁опер
▁шукає
ts
▁шкіл
▁душі
▁ходити
▁займається
ho
▁корисні
▁Тан
▁Огляд
▁(5
3.
▁Останні
еля
▁перспективи
▁сигнал
▁країною
▁Команда
анг
▁підвищен
▁фактори
▁46
▁домі
▁довелося
▁Ган
▁Open
▁принципів
LE
▁аромат
▁курорт
пот
дра
▁членами
▁загрозою
▁імперії
▁американський
▁поєднання
▁рід
РА
di
зелен
овому
▁моделей
▁рахунку
▁Греції
▁Модель
▁зміст
▁ідею
▁безпека
▁розгляд
▁знищення
▁медичного
▁ліків
▁відповів
фін
шими
▁Людина
▁століть
▁Дві
2018
▁баланс
TM
ass
сії
▁1992
яр
500
▁годину
міс
▁постачання
▁кілометрів
▁метр
▁кризи
▁доказів
200
▁працювали
be
▁правління
▁важливий
клав
▁Стар
Вони
▁сну
▁Президента
ерів
алося
▁Марк
ада
▁доказ
▁плюс
▁особа
ичний
▁машину
▁Марія
▁Ново
▁конкретних
▁майданчик
Ін
україн
▁максимально
▁перебуває
▁файла
▁останнього
▁збору
ti
▁природного
▁графік
▁Ту
▁промисловість
▁ноги
▁головного
▁сферах
▁прапор
ОР
▁вбив
аємо
▁найбільший
▁підприємство
жі
▁короткий
▁поверх
▁політ
▁останнім
▁хлопчик
ват
▁сором
▁мільярдів
▁2:
▁пріоритет
▁клімату
▁матиме
▁пише
ож
▁Росію
▁змінювати
▁00
ake
▁певний
валь
(1
▁засновник
▁07
▁висновок
▁найгірш
▁Пе
▁говорили
ектор
▁граф
бін
безпеч
▁навантаження
англійською
▁планує
▁вересні
▁потужності
▁футбол
ka
▁розглянути
▁ПК
▁фотограф
ЕР
▁рецепт
▁шкільн
▁займатися
▁Інтернету
iz
▁пропозицію
▁ставки
▁Св
▁змогли
▁труднощі
▁посад
нес
бр
▁створили
таль
▁Том
▁стверджують
▁тенденції
▁намагалися
▁семи
▁IT
▁дещо
▁1994
▁основи
▁склян
od
▁входить
end
vo
82
vi
▁Незабаром
▁половини
▁всесвіт
▁реальність
лам
▁культура
▁журналістів
▁жовтні
▁штату
▁Був
▁вміст
карт
▁угода
mm
▁керівництво
▁адміністрації
▁робите
▁виходить
▁письмов
▁Божого
▁препарат
АН
▁заяв
▁премії
▁парламент
▁Над
▁створена
▁виграв
▁залишити
▁всюди
▁Ro
▁зберіг
▁Кілька
▁подивитися
▁інвесторів
▁чисто
▁етапі
▁бачення
://
▁перевезення
▁користувач
для
▁дякую
ходить
▁Жінки
стей
▁дія
▁тема
▁догляду
ЛІ
▁Дар
▁Free
кових
▁Опис
▁авторськ
▁футбольн
дайте
▁видно
▁пити
тера
▁носити
▁літаків
▁роком
▁помилок
▁додаток
▁спеціальних
▁письменник
Па
▁меж
ment
▁вважаємо
▁обліку
ватися
▁армія
▁Загальна
▁варіантів
▁жили
▁дослідники
▁Or
▁органами
▁шукають
▁повільно
▁віце
▁практику
▁євреїв
▁(1)
▁Ltd
▁Москви
▁купівлі
▁Святий
▁поруч
▁каталог
▁капіталу
▁Мал
-12
▁Тер
▁Код
▁результатами
▁запуск
▁коло
▁Ген
єднує
land
ton
град
▁бал
ix
нська
ong
▁фронт
▁рак
▁03
▁реакції
▁насіння
▁Мас
▁Сент
▁основним
▁туристів
▁дали
▁слуг
енні
[3]
▁To
▁коледж
▁аргумент
альну
▁Російська
▁домашніх
▁сертифікат
▁Конституції
▁%)
▁догляд
out
▁Ай
▁посади
▁Ча
▁твій
альної
▁кому
▁Польща
▁недо
оч
▁руками
▁керівництвом
річного
▁карти
▁фе
▁вбити
▁моєму
▁сучасної
▁грі
▁подальшого
▁працюємо
ick
▁Найкращі
▁різн
▁зірки
▁належн
▁острови
▁площі
▁Річард
вши
▁природно
▁кажу
▁04
▁Земля
▁рот
▁четвер
кт
▁Глобальн
▁обід
▁усім
▁взаємодії
▁поліція
віз
▁високим
▁ранку
▁отримає
▁серйозні
▁щороку
▁курсу
▁Мед
▁гід
▁підкреслив
▁дівчата
▁кримінальн
▁ск
▁генерал
▁рано
▁активів
▁назвати
ляк
▁площа
▁версію
▁небо
▁Будьте
под
▁святого
ON
▁09
▁засідання
▁Всього
▁дію
▁розповідає
▁виявлення
▁сторінку
▁Трампа
line
▁Італія
▁Чу
кування
TV
▁партнерами
кого
альним
PA
▁вгору
▁жодної
▁нібито
ME
▁компонент
▁комісія
▁прийти
НО
▁49
▁брали
▁сплати
▁годинник
дані
▁вивчати
▁зібрати
▁платформи
▁спроби
▁механізм
▁березні
▁Перші
▁зручно
▁виглядати
▁Пра
▁Вар
▁сільськ
▁переконання
▁Львові
8).
дже
торг
▁Inc
▁вантажів
▁Москві
▁очікування
▁любити
▁ді
стат
ництво
▁алгоритм
▁пішли
Ме
▁реєстр
▁розуміють
▁дозвіл
▁фі
зв
енс
▁Li
▁сектора
▁безпечно
▁кандидатів
▁Асоціація
▁маючи
▁ФЛОРИСТ
▁експлуатації
×
▁сторінок
▁Андрій
▁присутні
▁російські
▁бюро
будова
▁експертів
дійсн
▁Підтримка
▁Фільм
ую
АС
ог
▁ланцюг
▁впливати
▁призвело
▁визнає
▁аспекти
▁запас
они
▁Розділ
▁сегмент
▁якийсь
▁стрес
▁прийнято
▁Божий
▁температура
▁клітини
81
ee
▁Вір
▁залізничн
вався
▁ос
▁учасники
▁параметр
▁02
▁Міністр
▁технічних
▁слух
▁біологічн
▁зрозумів
▁Ключов
▁гіпер
Мо
бул
▁поряд
▁1993
Ро
▁справжній
▁узбережжя
▁будівля
вр
▁споживачів
▁сі
пір
▁Сто
▁змусити
▁враження
▁доступна
▁ресурс
▁дурн
▁пілот
▁виробництві
юк
тир
пас
Ї
▁міні
▁Поки
▁64
але
▁результатом
▁(17
▁практика
▁окремо
город
▁громадських
▁ризики
▁власників
гал
▁календар
▁восьми
▁відчувають
▁релігій
▁більшої
▁студент
илося
▁тканини
▁могло
▁єдина
▁кот
PS
▁суми
▁підрозділ
▁контент
▁85
au
▁Vi
лев
▁дверей
▁медичної
рет
бот
кле
▁можливі
▁смартфон
▁призначені
▁поступ
еві
▁червні
▁мережу
▁Парк
▁округ
▁крем
иль
▁тримає
▁способу
▁вищої
▁Ad
▁колишній
2015
▁(6
▁географічн
▁Пов
ального
пусти
▁Ваша
▁Туреччини
▁розподіл
▁залишилися
ust
▁са
▁Другий
▁інтегрован
▁обмежень
▁місцевості
▁великими
▁плані
▁критик
▁щорічно
▁розклад
▁сусід
-5
▁головних
▁Mi
цу
▁НЕ
еї
зії
▁боротьбі
▁оренду
▁офіцер
▁An
ber
вад
▁on
act
▁розвивається
льний
▁Авторськ
▁станція
▁органічн
▁Минул
▁Віктор
день
▁зазначити
▁партнером
▁Ніколи
▁ринков
▁Sa
▁служб
▁провели
єва
тки
▁закрити
оти
▁санкцій
люд
ish
▁трен
▁почалася
▁Вчені
унд
▁реальності
▁Секс
▁пляж
▁ресторан
▁чекає
▁дерево
▁стадії
▁Кен
▁додатково
▁поширен
▁сподіваюся
▁Сході
▁середній
▁фільмі
▁приєднатися
▁прочитати
▁розглядати
сько
▁численні
▁коротко
▁Май
▁приємно
форд
▁поліцейськ
СТ
▁(15
ванні
▁лікарів
▁величезний
▁талант
▁Додати
ясо
▁власника
▁роботою
▁Бол
▁майбутніх
рис
▁обсяг
чення
▁Парижі
▁Любов
лена
▁напів
лод
▁Ел
вич
▁надії
▁бренду
▁позитивно
▁панель
▁книзі
▁застосовується
чних
va
▁моди
mp
▁шоколад
грі
ред
▁Вік
▁зросла
бран
▁відділення
▁хмар
▁Правила
гада
hi
▁програмою
▁працівники
▁Особист
▁закінчується
стар
▁Ри
▁навчальних
▁Полі
▁логотип
▁дорозі
ip
▁показники
▁мед
магазин
▁замінити
▁скасування
аз
йтеся
кл
▁Тра
ight
▁Маг
клі
▁робив
гляд
▁місія
ливі
min
▁08
▁лок
▁сенс
▁виборах
▁Кріс
яли
▁Томас
▁станом
ga
▁їжа
Але
▁Користувач
▁мові
▁проводяться
жи
▁My
тру
▁просторі
▁фізичних
▁матір
▁ПРО
▁Бра
▁обрати
▁Америка
▁доставка
▁Web
▁камери
▁знаменит
▁Twitter
▁Швейцарії
▁власної
▁бачить
▁реальному
▁єврейськ
▁традицій
▁українська
▁виробляє
ы
▁вугілля
▁вогню
кат
зов
▁стіни
ім
▁входять
▁кам
▁істин
дії
ади
▁семінар
▁енергетики
▁доходів
▁China
▁виготовлен
▁зацікавлені
▁світового
▁розвинен
▁Bo
▁алкоголю
▁основою
▁деякими
▁проблемою
▁Сал
▁академія
▁чорний
▁пояснює
▁використовував
▁студії
тік
▁створені
▁теорія
▁католицьк
чий
▁добра
▁відвідування
▁повідомлень
ance
▁плав
▁виробнич
AC
▁розмірів
▁ха
▁режимі
▁Робота
▁Порошенко
▁сприятлив
ета
▁Усі
▁Тро
шні
▁спорт
▁XX
▁And
стві
▁пояс
▁існуючих
▁визнати
▁конституційн
ock
▁потужність
▁виробника
ear
ies
▁хвороба
▁порад
▁зло
джі
▁пізно
▁Знову
▁грудні
▁людині
▁1,5
▁(12
▁російський
ріл
▁іншій
рід
▁попереднього
▁різноманітні
▁дисциплін
▁52
▁Рік
▁Анти
▁йдеться
сса
▁Ірландії
mb
▁Знайти
▁вийшов
▁вирішує
▁карта
▁Бре
SA
ото
▁Супер
▁високого
▁директора
▁прогресу
▁страв
▁Sp
▁Очевидно
▁статтю
▁Михайло
ak
дум
9).
▁партнера
чений
▁школу
▁вимірювання
▁Екс
▁втратив
сп
▁наступним
стеж
код
▁Do
ree
▁Іраку
коп
▁побудови
▁енергія
▁липні
▁зміг
▁51
▁вимагати
▁травм
ТЕ
▁Company
▁кафе
більш
▁Процес
▁розгляду
▁Ци
▁Між
▁характеристик
▁секретар
▁Кер
чені
▁YouTube
▁тій
▁створюють
пит
▁Христ
▁еквівалент
we
▁земель
▁чув
▁важливість
очікуван
▁найближч
▁середовищі
▁сучасному
▁пояснення
▁фон
▁хлопці
▁забруднення
▁труб
▁надто
▁випадково
▁третьої
▁функціонування
▁згодом
▁втратити
▁раб
крив
ца
▁практик
▁використовуєте
▁Шевченко
▁заплатити
▁ефективного
▁замін
▁вказують
AP
гас
▁досягли
▁47
tor
ота
єднаних
▁XIX
▁Санкт
▁Вид
▁Жив
▁вільні
▁втрат
▁побудований
розум
▁лідером
▁Фер
▁групу
▁вплинути
pl
щення
▁зміну
▁громадського
EN
®
цин
▁компаніями
ічних
▁діють
▁форматі
▁теплов
кур
▁допис
▁розповісти
▁служіння
▁туризму
▁Ex
▁включати
▁Пас
▁місячн
▁розуму
▁Мінськ
▁мо
▁Ван
▁пісня
фу
▁чемпіонат
▁магазинів
▁фундаментальн
▁ключ
йшов
IT
▁кат
▁агресивн
▁підсумку
▁найновіш
▁Угоди
▁кр
▁аспект
▁Північній
▁птахів
▁займаються
▁спостерігати
ерс
▁Нік
▁Куп
цит
▁чин
▁сюжет
стон
▁Наступний
-4
▁чогось
he
▁Відповідно
▁мама
▁точка
▁голову
▁Ен
▁знайдено
оре
▁Дмитро
▁майна
▁відкриває
▁віз
▁Ігор
▁інформаційних
▁Лос
▁хоч
▁нот
AL
▁Гей
▁Склад
▁Пост
▁Ос
▁прибуття
▁виробник
льд
▁міжнародним
▁уникати
▁мільйон
тін
▁хліб
▁рішенням
▁територій
▁Se
▁флот
▁визнав
▁квітні
▁запланован
▁покинути
ею
кав
Те
▁Конгрес
▁вільного
q
рист
▁Зокрема
▁владою
▁Головний
▁стилю
▁Пла
▁цивільн
▁(16
▁попередніх
▁фокус
▁значні
▁професійні
4).
Франківськ
▁польоту
▁кордону
▁мер
чат
▁Показ
▁Пітер
▁економіку
▁улюблен
[4]
▁втратили
▁запитати
▁Привіт
▁Ер
ття
▁повноваження
фон
▁старт
▁установи
▁територіальн
EL
ил
гот
▁їхню
▁характеру
▁корупції
▁мобільних
▁Вашингтон
▁кругл
▁довіри
▁листопаді
▁Європейська
▁обладнан
▁Алі
▁домен
▁Дівчатка
▁ділов
▁представляють
▁Teen
кам
▁Сте
▁власник
▁відрізняються
▁перебувають
▁заняття
!"
▁ДНК
▁простий
тичних
▁громадськості
▁технічні
пол
▁довір
▁700
▁Сен
▁захищає
іше
▁Вищ
▁партнери
▁кап
▁спонсор
▁розумію
▁Продаж
▁дощ
▁помилка
▁www
▁рекламу
▁спільні
▁промислових
\
єн
▁біблійн
▁моніторингу
▁Віт
▁°
▁підвищити
важаючи
леж
▁плит
▁бачать
▁Північна
тре
▁пит
▁чуж
ізму
▁здійснює
▁надіслати
▁становлять
▁дозволено
▁короля
▁освіта
▁тривалість
▁іспит
▁Купити
▁коментарі
▁платіжн
рн
▁інтерфейс
▁Йому
Наша
▁корабель
▁Готелі
▁Обидва
▁помічник
опер
▁програмування
▁Ar
елл
▁Тип
▁Наприкінці
▁ВВП
▁забувайте
▁Індія
чний
ite
▁залучення
▁95
▁ку
▁психолог
ca
▁понеділок
▁росту
▁іншою
-20
▁вибран
▁Bank
тою
▁здатний
▁пацієнта
▁виявити
▁Кап
▁давати
▁палац
Південної
▁принести
▁переста
▁керівник
▁нормально
▁базу
▁здійснення
▁Канаді
чному
▁детальн
▁Лю
націонал
▁пацієнт
▁релігійних
sp
дук
▁гео
▁почути
▁Право
▁чоловіком
▁віддален
яким
овій
▁Всесвіт
AD
▁кімнату
▁гостр
▁VPN
▁хлопець
▁конструкції
▁кожним
язань
▁двигун
▁передати
инг
▁Home
▁господар
▁плата
▁Ху
▁Москва
▁десятиліть
Замість
▁Ав
сні
язати
▁художників
▁порівняння
▁Будинок
▁поговорити
▁міжнародна
▁1989
▁мг
ЕС
▁Сподіваюся
▁живемо
орт
ТА
елю
цен
▁визначається
шев
▁масаж
▁кохан
▁підтвердження
▁фірми
▁потрапити
▁блог
▁велич
НЕ
▁сума
▁Книга
▁села
анти
▁(13
AT
юють
▁аналог
▁Така
▁сталі
ічного
▁ким
▁оператор
▁думають
▁стимул
▁явно
▁важлива
▁продовжити
▁Дехто
ind
▁Дизайн
▁кроком
сайтів
▁перемоги
▁музею
▁партнерства
▁Ім
дати
▁застосовувати
▁фізики
▁Джек
▁собор
▁акції
5).
люють
арх
▁середині
хар
▁особистих
▁ближче
▁творів
▁особами
▁розуміє
▁українською
▁району
▁пророк
даючи
▁Термін
▁комплект
ох
▁сенсі
ice
▁Різдво
▁рам
поль
▁Мартін
▁державою
▁Ке
▁ввести
▁конкурсу
▁структуру
нього
▁картка
ea
▁порівняно
віч
▁перекладу
▁сан
za
▁придбання
▁запитав
лес
▁Організація
▁ар
▁пів
6).
▁повне
говор
єс
▁ввечері
▁документа
▁тексту
▁фарб
душ
▁ска
▁почув
▁альбому
▁предметів
уванню
▁невеликі
▁молитви
▁Натомість
▁довести
▁справі
▁клієнтами
▁Японія
▁вулиця
▁неймовірно
▁структура
лено
▁Дж
▁таки
▁висновку
▁повідомити
▁сильний
▁брав
ph
▁міф
▁ISO
CA
▁викликають
фінанс
do
▁Івано
▁експеримент
▁Швеції
▁хронічн
▁вчора
▁світом
▁залишає
▁попередження
чо
▁Ласкав
▁спокій
▁вказан
▁районах
президент
▁All
▁готова
▁Захід
дом
CI
▁уявлення
бач
▁турнір
▁статусу
▁Куб
▁предмет
▁записи
▁заробітн
▁внутрішнього
тку
▁раціон
▁перейти
ba
▁епізод
▁редактор
Ба
▁випадков
шен
▁загрозу
ko
▁експерт
▁3:
▁Форум
▁економічний
▁організмі
шин
РИ
▁рекомендації
▁різниця
▁розвиваються
ОК
▁паст
▁Генрі
▁менеджер
грів
▁показав
7).
ієнт
▁бойових
▁нагороди
▁відчуває
▁архітектури
"?
▁твоє
▁політичного
▁фінансового
▁електронних
шки
дин
КО
ok
▁міжнародними
▁регулярн
▁Шар
▁розміри
▁приходять
ходити
ТО
▁нехай
▁однаково
▁низк
▁розмови
атори
▁європейської
▁ефекти
▁ширш
▁характеристики
▁експерти
▁Тай
▁інтелектуальн
ально
▁War
▁торт
IP
діл
▁загрози
▁прохання
▁мешканців
▁працівник
sa
▁терміни
люб
▁довгий
▁засобу
▁загальні
▁лікарі
▁свобода
▁знайом
▁вагу
▁IV
▁розлад
Ні
▁акцент
▁літака
мана
▁руку
▁грав
▁Хоч
▁воді
▁острова
▁задум
▁цукру
▁цінностей
▁вздовж
▁обстеження
▁прості
нік
▁страви
▁високою
▁познач
ha
▁запах
▁компоненти
▁адреса
▁Туреччина
:1
▁горизонт
рам
▁фактор
скор
▁тісно
▁кошт
єд
▁Нов
▁позиція
▁сонця
вез
oc
▁використані
▁заснован
▁селі
▁ду
▁радник
▁статев
▁Цар
▁американців
стру
▁спати
▁швидкого
нула
▁салон
▁тон
язатися
▁виставки
▁53
▁центрів
▁Натисніть
▁Ад
▁Лев
▁острові
тинг
тура
▁дата
▁складних
▁конкретні
▁чули
▁шляхи
вряд
▁саду
Fi
промислов
▁імена
чне
▁інтеграції
▁інтелектуальної
ms
á
дя
▁стратегія
▁Хочеш
▁зброя
▁візуальн
ари
▁темп
▁виклики
▁комплексу
шкод
▁страждають
▁національні
▁кл
▁вино
▁пошуков
▁південн
▁кохання
▁Чоловік
▁Подорож
▁здатності
▁роблю
▁вчителів
ou
членів
▁Дані
▁Шу
11.
▁високих
▁очей
ВА
еш
▁американського
▁повертається
▁картин
▁вирішувати
▁терміну
▁хвилини
▁зберігаються
РІ
▁рок
▁бойов
▁побачив
▁розмов
▁гурту
▁Південній
▁Корея
▁180
син
серед
▁канадськ
▁намагаємося
▁природні
▁Ель
▁берег
▁друку
10.
▁стр
▁функція
▁дам
pa
▁добрі
▁державами
les
▁Бразилії
▁Білорусі
▁спілкуватися
▁стріл
▁більший
▁органу
▁мережах
▁зняти
▁кандидат
▁брата
▁публічно
▁подорожувати
НИЙ
▁діяльністю
▁статися
▁мірою
▁подорожей
ЛО
▁будучи
ником
▁користувачі
▁збройн
are
рус
голов
▁сфери
▁зрозуміло
▁загальний
▁призначена
▁білий
тиск
ятницю
▁скаже
▁Тема
▁Go
port
▁l
▁верх
▁квитків
▁моїм
▁швидкістю
▁заміни
мах
▁Залиш
▁Схід
ЛИ
▁важливу
▁керівництва
▁областях
▁користуватися
▁Обама
▁відмовитися
▁пунктів
▁дорога
▁одиниць
▁Мін
▁математичн
дь
▁вівторок
▁половина
▁пояснив
▁Сонця
▁присутність
▁Sc
▁потік
▁внутрішньо
▁процесор
сту
▁переглядів
▁надається
▁бізнесом
▁Розробка
▁розглянемо
▁аудіо
▁кави
цям
бори
▁спроб
▁дохід
▁Мер
▁їхній
сона
▁st
▁подолати
▁Вартість
▁житло
▁вдосконалення
▁товариства
▁ме
300
берт
▁автора
МА
луж
істів
▁Аналіз
▁холод
▁імен
▁подарунок
▁унікальний
oo
▁засновані
▁вважав
▁особистості
ET
Дж
▁переконатися
▁культуру
▁спа
лять
▁Тож
▁суддів
Нарис
▁нерухомості
мед
▁організаціями
▁лікарськ
▁тро
▁ініціативи
ріш
▁Mac
▁дір
▁присвячен
▁99
▁натисніть
▁зона
▁You
Мт
▁митн
вед
пен
tic
▁маркетингов
▁ознаки
▁питанням
▁сумісн
▁немовлят
▁Збройн
▁рас
▁островів
▁ВІЛ
▁чутлив
верш
▁готелів
▁протокол
▁товариство
стями
▁погляди
IC
▁So
▁насос
дача
▁Служба
ger
▁вважали
ографія
▁видалення
▁виробляти
▁автоматичн
лл
▁менеджменту
▁емоції
▁організацію
▁Гол
▁секторі
▁куки
рт
RE
▁Дослідники
▁54
ськ
вести
▁звичайні
нді
▁Головна
▁0.
▁Дай
оване
ови
▁Укр
изації
▁ключов
▁випуску
дз
▁Думаю
▁72
▁пор
▁метро
che
▁серці
▁пару
▁пропозиція
▁Чі
▁хвилі
▁Основна
▁приватні
▁Лондон
▁Попередній
▁оцінками
▁CO
криття
еле
ятаю
▁ставить
▁проведено
▁Мої
▁голосів
▁Звіт
кси
▁Ірану
▁Pri
▁мобільного
ens
▁різноманітн
▁Донбасі
єднати
ері
▁виправити
▁гріх
▁Існують
▁дорівнює
▁позбутися
▁відчути
▁рейс
ліп
RI
▁ліс
мова
Ан
▁радий
АЛЬ
орі
▁революція
▁лінію
▁святкування
▁реалізувати
▁рідкісн
ob
▁відомості
▁зміцнення
▁основу
шого
▁подумати
акт
▁ході
▁турбот
▁Авто
BS
▁Прес
▁лідери
▁неви
їзду
ai
▁гарантує
уван
▁ступеня
▁травні
кро
▁Нев
нку
▁корисно
▁пароль
банк
▁виду
▁молочн
CC
Бо
▁монет
▁незаконно
▁визначено
водити
дала
▁серпні
▁Параметри
стриб
ованого
▁коштує
▁здійснювати
▁проводять
ічним
TE
▁молоко
▁прокурор
▁куб
▁препаратів
SE
▁Свято
SI
▁жарт
▁ніг
▁формально
▁архітектурн
▁спадщини
нич
▁клубу
▁розділу
▁радість
чор
плав
▁енергоефективн
СК
▁Ас
▁паперу
▁рейтингу
▁медичні
▁громадяни
▁громадянськ
▁відповідності
▁руб
▁Business
▁автономн
▁старий
▁звичайних
▁записів
▁священик
річна
▁розглядає
▁федеральн
жан
▁агресії
▁чудова
▁розташована
▁кібер
крил
▁урядов
▁Північно
▁щасливі
ki
▁Global
ограф
▁братів
зол
▁Приклад
▁вимогам
▁керує
держ
▁четверт
▁безпечні
Пере
▁Філ
▁народи
▁Pa
▁терапії
▁Зустріч
▁пісень
▁російська
▁неділю
біг
▁Особлив
▁неодноразово
▁законопроект
ue
OR
гл
▁північно
▁відновлен
▁повноцінн
▁ділянки
▁аукціон
іно
▁Член
▁отриман
▁радістю
жит
крес
ica
▁Радіо
ave
▁Мене
▁прояв
ски
▁сумніву
▁морських
▁Офіційний
дано
▁Київський
▁пройшли
▁таблиці
▁колишнього
▁завершити
▁висока
▁відмовився
▁невеликий
▁ем
▁Антон
▁ключові
ятник
▁спалах
ніше
прост
роблен
▁Кал
▁транспортного
able
ліг
▁(14
▁Місце
охоч
овський
значен
▁залишиться
▁команді
▁представник
▁вирок
▁міністра
▁солдатів
▁неба
▁тренування
нар
▁курсів
уванням
▁змішан
▁часі
▁4:
▁групою
3).
▁сонце
▁акцій
▁зустрітися
КУ
▁Крас
ina
▁лабораторії
▁найважливіших
▁вчитися
▁заборонено
qu
▁тренер
▁впливом
▁Львова
цер
тіс
▁поставлен
пет
▁ізраїльськ
▁Справді
▁людських
▁рухатися
▁шаблон
▁бізнесі
▁специфічн
яна
▁повідомили
▁Української
пускається
▁патент
▁пані
▁бібліотека
кут
▁TV
▁внутрішні
трап
▁адвокат
▁змінює
pp
▁згоди
▁олія
▁послідовн
mail
▁катастроф
▁спеціалізован
▁ремонту
▁щиро
▁вилучити
▁групі
▁Cr
▁нашою
▁ситуацій
▁Створити
▁Автомобіль
▁політиці
▁10-
▁вогонь
▁вразлив
▁насолод
сне
▁зоні
▁жіноч
спі
▁дол
▁клімат
▁узгоджен
▁банківськ
▁відсутності
лун
▁вантаж
▁скарб
ev
▁дослідник
▁Канада
сум
▁атомн
▁премію
▁кодексу
хова
цент
▁наука
▁якісь
водить
▁МА
▁повної
▁адреси
▁майно
▁пістолет
▁Коледж
▁платформа
дачі
▁Само
TA
▁r
▁змушує
ven
гіт
12.
▁авіаційн
ci
▁гідро
▁прагнуть
РУ
▁правильний
лин
▁тимчасово
2)
2).
сна
▁документальн
тику
▁робітників
мас
▁банки
ютера
▁Чарльз
▁впоратися
▁Програми
▁56
РО
ain
▁зовнішньої
▁студентськ
▁юридичної
ост
▁портал
▁малих
ць
▁лег
▁планет
▁тариф
▁людство
▁любите
▁мережев
▁Народн
▁реакція
берг
▁Рай
▁меблі
▁троянд
TS
▁Луї
▁страждає
▁очікувати
▁діл
якщо
▁добу
▁розрив
смі
mon
▁популярні
/1
▁вказати
▁внутрішній
▁20-
▁Телефон
▁позитивні
ПП
▁заради
▁кер
Від
▁прийому
лай
▁командою
▁фізичні
▁сирійськ
▁страшн
▁розміром
▁урок
єрі
▁численних
чик
▁трьома
tion
PE
ran
▁поворот
▁газов
▁Виробництво
▁літератури
▁Каталог
мія
▁Мітки
▁справедливості
▁Сонце
▁відмови
▁1990-
▁конфліктів
01.
▁вивчити
ятий
▁витрачати
ізувати
тори
▁потенційно
lu
▁обл
ЕК
▁наукові
▁Samsung
▁архітектор
▁Частина
▁показник
▁Спільн
▁життєво
▁росіян
▁Анна
▁Університету
▁вірити
▁особистого
▁важливою
▁Компанії
▁розширити
▁повітрі
▁особисту
єш
▁Клієнт
▁Жан
анд
▁посібник
▁апостол
▁дитиною
▁Intel
▁ясно
▁службов
КИ
▁власним
▁Di
ash
▁Південна
▁можливих
▁вірять
▁техніка
▁твої
▁офісу
дає
▁стандарти
▁бл
▁Пара
-6
▁смілив
▁глобального
▁виробники
▁нагадує
▁виховання
▁58
▁профіль
▁re
нав
цького
▁Наскільки
▁необхідний
▁замовити
▁WEB
▁перетворити
▁вся
▁любив
▁оцінка
▁Pi
ква
▁Mon
▁ворож
▁грант
▁їхнього
▁(8
▁марки
▁Штатів
▁боротьбу
▁загальну
▁унікальні
▁вчасно
увальник
▁прикордонн
▁ангел
▁продати
др
▁3)
▁ферм
хі
язане
▁погірш
▁Amazon
▁Фар
▁чинності
▁планів
▁Білий
▁Рам
▁різко
▁ікон
▁лідера
▁сайта
▁».
▁галузей
▁підготовку
▁економіці
▁Комісія
явиться
▁римськ
▁зір
▁телевізійн
▁закінчив
▁десятки
▁Мод
▁закладів
▁норми
▁вбивства
▁пожеж
▁Адреса
▁покупки
5.
проект
▁біг
▁квартира
▁заробити
ПА
▁продавати
довж
ниць
▁гнів
гід
▁Com
▁заклик
▁секрет
▁Ta
▁бруд
▁Друга
▁жодн
▁шкоду
▁благословення
▁спр
▁Грузії
▁гарантії
400
▁зовнішнього
▁Star
ame
східн
▁Наступного
▁силами
▁прикладом
▁справах
сан
ik
▁здобув
▁хлопця
▁One
▁листів
ням
▁виявив
▁нападу
▁штаб
▁El
▁підозр
▁головою
▁UA
жин
▁Одного
▁Гре
▁американські
включаючи
▁Мері
ать
ОД
▁присутності
▁66
▁виконав
▁миші
▁Східної
▁Чого
▁землетрус
▁оголосила
▁статтею
▁Найкраще
▁буквально
▁містом
▁трек
енти
▁вар
▁зимов
гро
▁власними
▁європейські
▁підстав
▁подання
▁пап
валася
▁метал
▁фр
▁Сінгапур
▁певну
▁стороні
ec
▁християни
▁цілий
▁зубів
▁єпископ
▁1945
ure
▁двоє
▁середньої
▁виживання
остей
▁компетентн
▁партнерство
▁сайти
▁Of
▁відбулося
▁глобальних
▁подію
▁наркотиків
речен
▁кораблі
▁альтернативн
▁збільшен
▁карті
▁матимуть
▁областей
▁людської
ичних
▁Рад
▁олії
▁Зв
▁доз
▁втрачає
▁написати
горськ
▁негативно
▁повсякденн
▁навпаки
▁запрошення
▁справжнім
▁вправи
▁вступ
▁розроблений
▁генетичн
▁дослідників
▁опублікован
різан
рак
▁Інтер
один
▁концепції
▁щонайменше
▁відношення
▁Досвід
az
▁Спробуйте
▁свідомості
▁Премія
овують
▁чекаємо
вою
▁дипломат
▁продажі
▁ци
▁Рок
▁Мабуть
▁Місяць
▁жінку
тті
Й
ури
▁Люб
▁відстань
▁завданням
▁зовнішніх
▁ознак
▁Зрілий
▁власне
▁призведе
▁вбивство
▁очікується
телі
▁відмінності
▁виконують
▁Нор
рії
▁особам
▁цит
▁спрямовані
▁поєднанні
▁Переклад
▁Лін
▁меблів
▁масштабн
▁провінції
▁відвідувати
▁певної
▁цивільних
▁ризиків
▁запропонован
▁мрії
▁організувати
була
зіркові
енція
ction
▁Кас
▁безперервн
ицею
▁Тар
▁Ей
int
▁боротьба
▁галузях
▁Австралія
▁континент
▁Макс
▁Пет
▁давайте
пав
▁костюм
▁цільов
TO
▁чемпіон
▁база
▁величезні
▁авіа
▁висловив
▁довіряти
▁Сон
сів
▁долар
особ
алу
▁Перегляди
▁агент
▁пошкодження
▁організацією
▁представлення
▁Служби
лар
▁звання
▁електронну
▁клінічн
▁троянди
▁затверджен
▁підтверджує
▁гендерн
▁звинувачення
рд
▁продюсер
▁відзначити
▁тенденція
▁прибутку
▁раунд
▁користувачам
ючі
▁відповідний
▁матч
▁насильство
▁адресою
▁монастир
▁мат
▁Ди
▁робочого
▁підкреслює
▁насолодитися
▁можливістю
▁співпрацювати
▁Зелен
Бр
кінг
▁потяг
▁Пен
ійська
▁US
▁королівськ
▁св
▁3000
▁Доступ
чив
▁ЛІ
▁(7
ованим
▁заснування
▁зразок
▁чудовим
▁торгівлю
▁вважаються
▁депутат
▁Джонсон
ess
▁відставку
▁досягає
▁описує
▁написання
▁фізик
ron
2014
▁Наступн
▁появи
▁Аеропорт
▁відображає
▁оркестр
▁Цікаво
▁регіональних
▁Міністрів
Та
▁Сил
ST
▁молодіжн
▁59
▁другому
вані
ньої
▁знищити
▁різдвян
▁сучасний
▁твердо
▁військового
▁мл
▁діалог
ворот
▁06
▁процедура
▁Office
▁підписання
▁важливе
▁спільних
▁містечка
▁комуністичн
▁пошту
▁бій
▁Ши
▁Керування
алізація
▁Lo
▁душу
▁Скажи
▁режисер
▁Міс
▁російською
▁атмосферу
▁засобами
▁твоя
▁обраний
Ти
▁Іншими
▁низько
▁філософії
ось
▁водо
люючи
RS
вів
▁маг
визнач
ічної
▁We
▁законодавство
▁персональн
▁Play
шня
▁начальник
▁значну
▁надію
▁Ko
пп
дам
сор
тай
▁Po
▁картку
▁відступ
▁Квитки
▁вторгнення
ID
іє
шив
▁Жодн
▁хвилю
▁журналі
▁традиційно
▁потенційн
................
▁Всесвіту
▁коду
▁приватного
нор
▁професійної
фен
▁називає
ide
eg
▁розвитком
альними
▁цифрових
▁втрата
▁приєднання
▁нервов
▁професійного
▁зазначено
▁Баб
▁особистої
оген
▁гу
▁вул
▁робочий
▁лікарня
▁доходу
▁Мен
пін
▁ам
MP
▁Став
day
ичне
▁ST
▁величезну
[5]
ріб
▁От
▁фізично
▁двигуна
▁борту
▁днем
▁українському
▁переслідування
▁торговельн
▁страху
▁мрія
▁церков
▁діапазон
▁обидві
▁усунути
▁плоск
▁аудиторії
▁декоративн
its
абель
▁натяк
▁абсолютн
▁кухня
▁зробимо
▁сестра
PO
кладені
▁посилення
ютерних
▁промо
▁основними
▁критично
▁аматор
▁криза
▁Квіти
▁Тобто
▁допомагати
▁природний
зен
▁передбачено
▁керован
▁шкідлив
▁плату
▁шок
▁57
▁Ra
ест
▁тракт
▁розкішн
▁Захист
▁сподіваємося
▁мульти
▁Петра
низ
несе
медіа
кувати
▁музеї
▁першій
▁справжні
▁копію
▁шанси
▁вибором
▁харчов
▁алкоголь
▁Вест
▁досягне
▁змагання
▁чолі
▁сорт
▁декор
ньо
▁село
▁іноземн
▁бухгалтерськ
ична
кладено
▁контенту
▁кораблів
держав
▁висновки
▁ексклюзивн
▁кнопки
▁ноутбук
▁зайняти
▁консультації
▁шведськ
▁влітку
Кон
▁перемогти
нат
▁ряду
▁Зі
▁Народ
рем
▁зрозуміли
▁реалізован
ріс
▁юридичні
▁жінкою
▁політичний
▁Продукти
▁na
▁холодильник
кий
03.
▁формою
▁Чотири
куль
▁збільшує
▁половині
▁антикорупційн
ану
▁110
▁Краще
▁називали
▁кос
▁Гру
▁небі
шко
▁результату
ара
▁Алекс
▁Гаррі
▁Вперше
▁будьте
▁новою
▁готує
▁офіційний
▁півночі
▁звучить
▁бібліотеки
▁відповідного
▁от
▁солдат
▁Микола
▁рухом
▁проходять
ведіть
▁Максим
▁поклад
▁Маль
▁задовольнити
▁єдності
▁туалет
▁конкурентн
РЕ
▁виступ
ade
▁(9
▁моно
▁професіонал
▁залишився
▁працю
Porn
лями
нуть
MS
дос
▁союзників
▁татуювання
▁виграти
▁Ha
▁проектами
ІС
▁активності
▁жителі
▁можливим
Ст
▁встановлює
▁мільйона
▁звантаження
▁залу
ng
▁Єгипет
▁оцінку
▁дитині
▁помилку
▁операцію
▁художника
▁квартал
▁Казахстан
▁довіру
LA
▁вечір
▁підписали
дем
▁пас
філд
▁подарунки
▁корабля
▁відкрита
▁минуле
▁Наразі
▁Можливість
▁написано
▁почалося
дослідн
ek
пин
МО
▁супутник
▁суміш
галь
ast
▁комерційних
▁пропозицій
▁розробці
▁кафедри
ire
▁мусить
▁задоволені
▁особливостей
▁ситуаціях
TC
▁ведуть
▁цифр
▁потенційних
mi
▁газети
▁предмети
▁авторів
▁Положення
бій
▁усунення
ич
кен
▁ДЛЯ
▁Дра
фек
ходьте
▁перешкод
▁власність
▁вищі
▁вашими
▁Сміт
▁(20
рид
(2
▁Всесвітньо
dy
ютерн
▁Посилання
▁відсоток
if
▁територія
ьна
това
▁бонус
▁зовнішній
оїд
▁наклад
▁Ден
БА
▁молока
▁своєрідн
▁спортивн
▁намагатися
▁Богові
груп
▁кредитів
прес
▁комунікації
▁Фо
▁розробку
▁заслуговує
▁Єв
▁Рішення
▁Єрусалим
▁гірше
▁викуп
▁Значн
▁трудов
ary
хт
▁Times
▁Ев
▁собаки
▁природу
уса
ІЙ
▁кабінет
ійський
▁контакти
▁фахівці
▁En
▁харчових
▁контактів
▁стануть
▁типово
▁SE
▁турбуватися
ивний
▁доходи
жені
технолог
глиб
▁невдачі
▁маленькі
▁функцію
▁встановлені
▁підтримати
▁яйця
▁листи
▁проектом
ографії
▁Бат
▁постанов
▁ефективним
▁контакту
▁поет
▁полегшення
▁Поліція
▁проник
робіт
▁найбільша
▁ново
▁фермер
▁краю
▁дружини
аторів
▁погоди
▁припущення
▁використати
▁загальних
▁вчителя
▁добрий
ясувати
цист
жні
▁художник
▁бою
TI
▁принц
кажіть
▁130
▁пісню
дур
▁людські
▁ділитися
▁визнають
▁поштов
рут
валі
▁десь
▁63
▁газета
▁хіт
сила
Ле
▁виявляє
▁Червон
▁вікон
ys
▁вмісту
▁адміністратор
▁налаштувати
▁необхідну
▁зайнятості
▁миль
рівня
шок
▁навчальний
▁обставини
▁Харків
▁Ян
▁магазину
мати
▁домашнього
▁технологію
▁телескоп
Мар
▁Дух
▁градусів
▁ранніх
ково
▁небесн
▁вакцин
Re
▁Програмн
▁імпорту
▁наразі
▁орієнтован
пле
яса
▁простим
▁Дон
06.
▁візиту
кріп
▁кількома
▁аварії
▁фестивалю
▁здавалося
▁референдум
-7
▁Комітету
▁океану
▁самому
клон
tro
знай
▁валюти
▁препарату
▁необхідним
res
BC
▁вибирати
руд
▁Юрій
▁62
RO
▁USB
▁чесно
ніші
▁схеми
▁Саудівськ
▁прийняли
▁золота
▁Арабськ
▁1980-
▁уважно
▁приймають
▁Одніє
ема
ə
▁одиниці
▁ефекту
▁(2)
▁адекватн
▁продукцію
▁служить
▁насамперед
▁торгових
▁потоку
▁сеанс
▁Man
▁зосеред
залежн
▁говориться
▁фірма
монт
▁Інституту
▁Dr
иць
04.
тч
▁новина
▁конкуренції
▁початком
▁остаточно
▁Пре
аційні
▁національному
-19
▁мораль
▁вражаюч
▁невдал
▁зберігається
▁робочі
▁чер
изму
▁пари
▁змушені
▁культурних
bi
▁інформаційн
міністра
▁страждання
▁капітан
▁представити
▁запустити
▁НАСА
▁тривалого
▁люб
▁пригод
▁магістра
ата
br
ецький
▁інцидент
воз
▁маси
▁психо
▁Австрії
▁свідчить
▁загальна
▁контекст
▁ч
ug
▁закликав
▁контрольован
▁Рів
▁досягла
▁утворення
укр
▁Економіка
▁Єгипту
▁передбач
▁справедливо
ліф
▁провідн
Прав
log
▁побачимо
▁Торгов
▁корон
▁експериментальн
кове
▁пройшов
▁Мама
▁лютому
▁старший
ших
▁Фонду
way
▁Навіщо
▁Площа
▁містечко
▁Землю
▁збирається
▁ймовірність
▁залежності
Роз
ke
▁Фу
▁виступає
▁контролем
▁низьким
▁зловживання
▁Асоціації
▁аборт
▁іноземні
▁Ска
зію
»;
ДА
▁українці
▁зал
▁Стра
▁наполегливо
»),
стрі
09.
дент
▁збирати
▁суботу
▁отримають
▁обережні
▁самий
▁лу
▁наступ
▁глобальної
▁@
▁Кро
▁5:
▁Сар
Кар
▁нескінченн
▁схильні
кового
дуж
нем
▁шт
▁ведення
дель
▁сповіщення
▁завдати
▁Одеськ
▁дихання
▁працювала
▁вживання
▁борг
▁психології
–19
▁Відом
▁Центру
▁Файл
▁населен
пак
▁Cl
▁UK
▁основний
▁каналу
▁класів
▁вашою
ft
пуст
▁попередньо
лій
Росія
▁шум
плат
▁міститься
▁загинули
▁старих
сет
▁центри
▁Біл
▁додавання
▁запам
▁гірськ
▁Power
▁правосуддя
▁юстиції
▁підліток
▁печер
IL
▁світові
▁жінками
▁активність
▁Чим
4)
▁порушен
▁інтернету
▁Брі
чку
▁чаш
▁живих
▁переваг
ході
Ch
корист
▁Підпис
▁цивілізації
▁історією
▁розробка
▁Колір
▁спробуйте
▁набору
▁Африка
▁(0
бага
▁озера
ней
▁Учасники
▁поселення
▁Середня
▁Нещодавно
▁двадцять
лос
Йорка
ляцій
бет
▁епі
LO
▁дружиною
Бу
гна
▁Івана
парт
▁ідеал
▁методу
▁гривень
▁підлітків
▁суворо
▁ліжко
▁певного
▁відомим
▁революційн
іїв
▁повно
UA
▁Дніпро
MC
▁загально
▁аграрн
▁зручний
▁Адам
sk
▁рев
▁закриття
▁вихідні
▁очевидн
стин
▁//
ther
▁Вважається
▁Батьки
▁сотень
▁стежити
▁2,5
▁відтворення
▁бояться
▁батьками
▁ас
▁Показати
▁падає
▁Хе
вол
нний
▁суді
лоп
▁пиво
07.
ради
▁звичайним
▁Мала
▁зібрання
▁сонячних
▁представлена
тв
▁важкі
▁Організації
▁просити
▁магнітн
▁боці
▁нікого
▁Міжнародні
▁Пекін
▁частинах
▁Ваші
▁кращого
▁поштою
▁математик
▁коментар
нської
▁квадрат
▁нейро
▁застосовуються
▁»,
▁On
▁командування
▁Джона
▁Римськ
ером
▁губ
▁постійного
▁Ран
iss
▁Зо
▁хід
▁мобільні
троп
цький
▁виконавч
▁полегшити
▁розвідки
▁Сходу
▁консультант
DA
▁спільнота
▁відгук
AM
сель
▁Чемпіонат
▁рекламн
▁Запит
▁постав
:10
сний
▁військову
▁Державна
▁вижив
▁схожі
▁гарантован
ED
uck
▁риби
джер
▁поведінка
▁ліцензії
▁українську
▁відпочити
▁хімічних
▁Online
▁класі
емо
▁активні
▁флоту
▁випущений
▁зустрічається
▁жертви
▁Марії
▁Ву
▁назв
ґа
sc
▁Олексій
▁занепокоєння
▁необхідне
▁положень
▁Black
▁політичну
RC
▁журналіст
▁турбує
▁Іспанія
▁http
▁випромінювання
курс
▁найбільшою
▁ефективні
уючись
▁спрямован
▁атом
тягнути
▁прийшла
▁рахунки
▁увійти
-11
▁тепла
▁підготувати
▁сестри
-8
▁Спів
▁фізичного
▁Кара
▁відвідав
айн
дру
сією
▁політична
▁Постійн
▁акумулятор
▁жах
▁моїй
▁товариш
▁зон
▁ракети
▁ся
▁обман
▁підвищ
▁сингл
еп
▁колекції
▁свідчення
▁стикаються
кредит
▁Бей
OL
▁підписав
▁1500
бри
онів
▁позначення
зір
▁другої
▁уповноважен
▁Шлях
▁постачальників
▁Зміна
▁замок
▁69
▁державі
тл
тування
▁приз
▁частку
лий
▁більшою
▁усе
▁закликає
▁портрет
▁галактик
▁готов
▁Білл
▁розваг
▁налічує
▁сервера
▁демократ
Ку
ord
▁отримані
▁Водночас
▁справжня
▁обрали
▁майбутні
▁побудовані
решт
рег
-15
▁старо
янськ
▁шахт
VI
▁зуб
▁Рим
▁6-
▁солі
був
▁зображ
ьє
▁Нового
кай
▁дочка
▁категорій
▁історичних
▁неприємн
▁консультацій
▁ліжка
ієм
нінг
анс
▁Всесвітні
вілл
▁Правда
1)
▁спроба
▁Громадськ
▁Той
тобто
▁розробляє
▁пагорб
ator
▁50%
▁самих
▁вічно
тип
▁середини
ris
айся
сот
▁ворог
▁частка
▁перекладач
▁хлопців
вшись
▁поговоримо
▁оренди
[6]
мбер
▁літаки
▁Сторінка
▁гарний
▁Стівен
дик
верс
вало
марк
▁друк
▁Румунії
▁регламент
▁створенні
▁Вага
▁Red
▁індивідуальн
▁натуральн
▁успішного
парк
нц
▁61
▁Лондона
яться
▁Ес
▁попередні
▁швидкі
▁Вел
▁Федерація
▁кампус
▁Досить
▁зосередитися
▁Мол
▁1970-
▁мільярд
▁год
▁циклу
енню
CH
▁покращення
▁Роб
▁голосу
▁директором
▁Перше
глі
▁серія
▁найчастіше
▁практичні
▁синдром
▁єдиною
▁союзу
програм
▁вірить
▁приклади
▁1988
▁складі
▁будеш
▁with
водячи
▁Війна
▁бомб
▁12:
▁масив
юючи
▁металев
▁принесе
рек
▁віримо
увалося
▁Чорний
▁гравці
▁друге
▁гриб
▁Ап
▁Вилучити
▁відбулися
▁таємниці
▁професійний
▁Кла
▁відходів
▁вартістю
▁кращим
шан
▁нагороду
▁Номер
▁реклама
▁правильні
▁виглядають
1).
▁Американськ
▁зерна
▁Su
▁правди
3)
динамі
▁підняти
▁мол
▁скасувати
▁думок
▁звичайний
нішим
St
ya
▁Технологія
▁атаки
▁140
▁адрес
▁футболу
▁зручні
▁Подивіться
▁зростати
овувати
▁сприйняття
▁гравець
▁їхня
▁фармацевтичн
чав
▁кроків
▁Кафедра
▁їзди
▁порту
▁Проблема
ПУ
▁68
пів
гн
▁Повідомлення
▁приміщень
▁сидіння
ja
▁торгівля
▁ґрунту
fe
пустити
▁додає
ost
горі
▁Центральної
▁розуміємо
▁симптомів
пінг
▁Київська
▁злочини
▁блага
▁бездротов
▁зауважте
▁реагувати
▁традиція
▁Клуб
ІЇ
▁противник
▁якістю
▁нагляд
пед
чеп
орган
▁Ag
▁роздрібн
▁Українські
▁11:
▁Острів
▁символів
▁випускників
▁Хтось
ерн
▁Курс
БУ
▁останнє
▁завершено
▁розпочати
▁підготовка
▁поважати
▁Країна
▁більша
ометр
▁факультету
▁маєш
тяж
ляції
▁маркетинг
▁церковн
▁проблемами
пур
old
▁Ки
▁мін
▁шлюбу
▁музикант
▁EUR
▁FM
▁коп
▁танцю
und
▁Директор
▁природа
▁дефект
▁Запис
▁групов
0.
▁ну
▁великій
▁світлі
▁Hotel
▁небезпеки
▁маленьких
▁невеликих
▁шкіру
▁Джу
джу
▁проста
нда
▁термінал
▁живу
▁європейського
▁лікувати
▁160
ництва
овану
тона
▁вирощування
▁арт
▁MBA
кладає
▁споруд
▁розроблена
▁MA
ics
лід
▁шукаєте
▁належним
вський
кот
▁поп
▁аспектів
▁Азіатськ
▁Принаймні
▁депресії
▁Сторони
▁яскраві
▁національна
▁опалення
Чому
жир
NA
▁найкращими
ліб
▁Божі
▁тіл
▁повна
▁Путіна
мисл
▁невід
▁кан
▁Кім
▁покласти
▁озброєння
льник
▁безкоштовні
▁значить
▁датчик
▁Конституційн
▁наявності
увань
▁представниками
▁виплат
вище
IR
▁дала
сподарських
СР
▁продав
▁подібних
▁Br
▁Вулиця
▁нафтов
▁рухається
▁Українськ
▁протест
▁душ
ани
монстр
ену
▁правових
бла
поряд
▁Борис
▁Штати
▁податки
▁сподівається
▁Конференція
▁Альберт
▁жиру
▁розп
po
вей
Ві
▁небезпечно
пал
▁інформаційної
▁офісів
MI
ливий
льна
▁Інформаційн
▁звільнити
▁справжню
▁представлений
▁південь
▁релігійні
▁папір
▁українським
▁Блок
BA
▁вершин
▁30-
▁Олег
▁вітчизнян
ОГО
▁фізичної
▁відкритому
ята
▁внесення
ІН
▁легенд
▁МО
▁Трі
▁Шотландії
▁відіграє
▁подробиці
▁чимось
▁здатна
▁автоматизован
▁магазині
▁розповсюдження
▁Gr
▁дід
ляє
▁пен
▁збирання
плі
іан
▁операція
ii
ium
▁жоден
західн
▁думає
▁терористичн
▁звідки
▁Інший
▁синтез
▁стоять
▁інструментом
▁сертифікован
▁відправлення
віл
▁ефектів
▁розміщен
даємо
ону
▁Ne
▁Каліфорнії
oll
▁щасливий
▁Пал
▁Молод
▁меч
▁відсутні
▁провал
свят
▁розкриття
mer
▁поверне
▁App
▁Бан
▁проб
▁Дан
▁білі
лись
▁досягнут
▁кампанію
▁кращі
▁божественн
▁хворі
▁відносинах
явлення
▁Ангел
лиця
рін
▁красу
▁Qu
▁думали
▁азартн
▁Партія
▁кошик
▁телеканал
ath
▁інженерії
▁Конгресу
▁епоху
air
▁Art
▁справедливість
раб
▁фраз
▁Донбасу
▁учасник
▁поставив
▁вели
▁натхнення
▁Спо
▁вчитель
▁підходу
▁вищих
▁король
▁телефонів
▁камінь
▁входу
▁стоматолог
▁залізн
▁порушенням
юється
▁військовий
▁Члени
▁бажано
льні
хати
▁Диплом
▁вийшла
▁половину
▁вирішила
▁Європу
▁читач
In
икористовувалися
DS
▁Вже
рай
▁оригінал
▁серіал
▁могил
▁поточний
друк
▁енерго
ps
▁сцені
▁Використовувати
▁виявлено
▁врегулювання
▁молодий
▁Euro
▁Перевірте
рож
▁розробити
▁Хіба
▁отримуємо
мб
ДІ
ood
руб
ІЯ
:15
мані
▁присвячена
▁Електро
▁1940
▁планеті
si
цьк
▁значною
▁Прочитайте
▁нетерпінням
▁рівно
▁монтаж
▁Fe
ОМ
язнення
НИ
пра
кір
ой
яни
▁кулі
▁тривати
верну
▁VI
▁Давид
▁Мати
▁фактором
▁Норвегії
▁деталей
▁Клі
▁повірити
США
▁злочинів
▁відомого
ute
▁запереч
▁Сем
атора
▁зовнішні
▁Технічн
▁Болгарії
▁компроміс
▁небажан
▁регулятор
ЦІ
▁оберт
▁шану
дай
▁премія
2020
▁зазначає
▁зниж
ставити
OT
▁каналів
RT
▁губернатор
▁стратегію
▁ринків
▁значний
▁ринки
ніший
▁Окрім
▁газет
cl
▁Агентство
▁Ант
▁опір
▁квартир
▁підводн
рент
▁робиться
▁Міл
▁змінами
7.
пост
wi
▁математики
▁самоврядування
▁служив
▁невелика
▁проханням
▁блискуч
▁Inter
▁надаються
▁1986
▁реальні
▁заводу
ore
піт
▁рідин
▁використано
ованими
меж
▁Вал
▁ша
▁оподаткування
▁повстання
▁інноваційних
▁паперов
лекс
pi
▁решта
тичного
▁вилучення
▁лат
No
▁парламентськ
ліст
▁сніг
▁постріл
▁фінансово
ніших
▁найнижч
▁очах
▁адміністрація
▁Ат
▁Майстер
▁лікарем
Сьогодні
сід
▁зарезервовані
ze
▁батьком
375
▁Ах
цька
гре
▁імпульс
▁кинути
нга
▁5000
▁рівнів
▁пет
▁Жінка
▁корисним
йдіть
www
дес
▁соло
▁зможемо
▁театру
▁зуби
▁дефіцит
▁загрожує
▁примусов
▁політик
▁транспортний
▁Гран
бізнес
▁куль
▁думаєш
▁pro
▁технічного
▁накопич
ker
якою
австралійськ
▁легкий
▁швейцарськ
▁кредиту
ort
▁продовжував
▁віра
▁спрямована
▁скло
▁фінал
▁попередній
▁доброго
▁SA
ОВ
▁добру
▁Комісії
▁ЮНЕСКО
▁ринках
▁Bitcoin
▁пластин
▁виникнення
▁Реєстрація
▁Media
▁розмірі
▁хорошим
▁знаходить
▁сервісу
▁рівнях
▁червоний
▁другом
▁багатство
уру
исти
▁Цю
▁системах
ier
▁добробуту
СУ
▁погані
▁селян
▁просить
[1].
▁хакер
никами
▁загроз
бай
▁Музика
різати
▁Зображення
▁загинуло
▁моделювання
▁прийнятн
▁третього
▁зброєю
▁оцінен
▁спасіння
▁птах
▁американської
▁Справа
▁PDF
цвіт
лії
▁привіт
▁другій
▁транспортування
▁Кат
▁широкого
ФІ
▁Подумайте
▁водночас
▁способами
▁вручну
▁аркуш
▁перемогу
▁iOS
▁супутников
▁Наступна
▁вдається
▁Парижа
▁інтелект
▁Лікування
▁викликів
▁Великого
▁Демократичн
▁73
▁показників
▁вір
▁дослідженнях
▁фантастичн
льних
лею
▁Science
▁необхідна
▁Уявіть
▁малюнки
▁Угода
▁модуль
кому
▁голов
▁відкритим
ox
▁недоліки
▁малого
▁слідує
▁напоїв
▁Pre
▁наказав
▁діалогу
yn
▁Мел
▁роблячи
▁рукопис
НК
▁єдине
▁кабін
▁наступному
800
▁порушує
▁правилами
▁окупован
спект
▁бе
▁Париж
ВІ
▁Хан
щин
рол
▁заході
▁Головн
▁наявн
▁економ
▁Бельгії
▁становище
▁клавіш
▁недавно
провід
▁особу
дрі
▁повернулися
▁коментарів
▁доступних
Го
плут
ених
▁оновлен
▁PR
вка
волю
Ра
▁росте
▁прийняла
▁історичні
▁Божої
▁Коз
▁Офіс
▁природі
▁стадіон
Ці
олл
▁видав
▁громадянства
▁горіх
▁розглядається
ску
▁розвиватися
дається
7)
ect
▁хворобу
▁спортсмен
ere
▁тенденцію
кіна
консульт
▁закоха
▁судна
▁жодна
▁правом
▁подальш
▁схвалення
▁більшого
▁Оле
пали
▁асортимент
▁зруйнован
▁обмежені
▁релігія
холод
▁установки
реєстр
▁1980
▁Марс
▁Елі
шку
▁кислот
дін
▁питаннями
еними
▁юрист
▁навчити
▁службі
by
▁існувати
▁урахуванням
▁справжнє
▁виборців
▁юридично
▁риси
▁спільної
2013
▁ə
країн
сл
EM
▁поточні
обов
▁НАС
du
систем
▁Фестиваль
▁весільн
▁інструкції
▁мінімум
▁живопис
▁XXI
▁Житлов
▁відображення
▁повз
▁головне
▁транспортні
льф
дол
▁арешт
▁англійську
▁Італійськ
▁ДЕЛІ
▁Американський
▁мінеральн
▁1979
▁AC
▁актів
електричн
▁пенсійн
закон
▁праця
▁Лот
▁лют
▁вижити
ози
▁Контакти
▁Безпеки
▁Початок
▁Приблизно
▁брокер
▁стара
:14
▁почесн
куляр
▁Флор
▁пасажир
▁дипломатичн
▁Емі
▁профілю
▁%),
▁Їм
▁Джей
лек
льс
▁900
▁позитивний
▁бажають
▁Англійська
▁літо
▁відвідали
▁захисн
▁СЕ
▁процедуру
▁небезпечні
▁відчував
▁повір
▁померла
ром
-18
ачі
задоволен
▁проекті
▁марка
▁володіння
▁заснував
EA
▁чиновник
атом
▁ресурсами
▁текстов
▁GPS
▁гравця
▁76
▁міцно
▁ЗА
▁слідувати
▁Бук
star
▁98
▁прийняті
▁фінансову
▁участю
▁Review
▁здібності
▁контейнер
▁кліматичн
▁печі
сайті
▁Can
▁ДО
▁міської
▁південно
▁прибув
[2]
▁ворогів
блок
прі
молод
▁Відкрити
▁Введіть
2000
▁покращ
▁Род
кит
▁подав
▁Французьк
тепер
ютерів
▁спеціалісти
▁здебільшого
▁інвестувати
▁втекти
бою
▁переходу
▁правильним
▁кава
▁Версія
хай
▁ВМС
▁меншин
близ
▁Ri
▁поїздки
▁електронні
газ
▁неминуч
▁астроном
▁хірургічн
▁чудову
ніть
ятдесят
▁жанр
АМ
▁гості
▁праворуч
ріж
▁господарство
PL
▁ад
▁наведено
Бі
▁треті
▁Дніпропетровськ
▁зазнали
▁планшет
▁дорогу
мос
▁Розвиток
▁прагнення
▁простих
тех
нити
▁члена
▁10%
▁Кабінет
▁1985
▁бак
ale
▁районів
▁головна
amp
▁хірург
▁філософ
▁безробіття
▁DVD
▁яскраво
▁дослідженні
DI
▁ефективний
▁столу
▁ландшафт
▁схил
▁at
нести
▁Одяг
▁ядра
▁судового
партнер
▁залишив
▁ТМ
▁IN
▁буд
▁67
▁обговорити
▁традиційні
▁сприяють
▁Рівень
▁вдячні
▁позов
▁паливо
▁проходження
▁опубліковані
▁Кос
▁96
▁системами
льська
здоров
▁умовами
АК
▁удару
▁державу
плив
▁пощастило
▁заборон
▁екосистем
▁Лів
▁водія
▁точку
/3
▁Бай
бирають
tra
▁річка
▁Лей
мовляє
▁Великі
▁доповнення
дво
▁Бру
▁складають
▁дозволив
▁відпочинок
▁діагностики
▁враховувати
▁природою
▁стабільності
▁вуха
▁Дерев
члени
▁придба
Хто
▁імператор
івці
▁карту
▁судин
АЙ
▁заявки
▁гр
▁дах
▁Житомир
▁галереї
▁допоміг
▁суттєво
▁попросив
▁розмістити
▁Music
▁дискусії
▁Щось
▁купив
гір
▁Майк
▁Кінг
▁квартиру
▁словник
▁корпус
плаз
▁Кей
▁виражен
▁Сталін
▁повітряних
см
аса
▁рекомендован
▁свобод
▁намагаючись
▁процесом
КС
СІ
▁народилася
GO
▁стійки
аф
▁пасажирськ
▁тра
▁Регіон
▁комфорту
верх
▁відкритого
▁Всеукраїнськ
▁детально
▁західних
▁медичний
red
▁племен
ning
▁сх
▁волю
▁Кіпр
▁політиків
▁малю
▁знайде
▁бізнесмен
▁Метою
▁Крок
▁додаткового
▁прийнятий
ичної
буваючи
▁серцево
▁навчати
▁Нічого
▁зменшує
можлив
▁слави
▁особливий
▁хотіла
▁МВФ
▁обговорювати
▁спеціальний
▁виникнути
▁Одеса
ош
джо
▁(24
вищ
анта
▁розлучення
чує
▁активи
▁слов
▁Ве
шоу
:11
▁моменти
ливо
▁пункти
▁переказ
▁іграшки
▁Початков
▁єдність
▁місцевої
▁виберіть
▁цілісності
▁розріз
▁судових
▁Націй
▁агро
▁Незалежн
▁депутатів
Ар
▁препарати
▁лев
▁напої
▁названий
тичної
▁комунікацій
еним
▁Домашня
▁сподіватися
▁Загальні
▁риба
▁BBC
▁персонажів
▁Східній
▁Слав
sta
▁Коп
бре
▁Приватн
валося
▁350
Укр
▁посиланням
▁найближчому
▁форуму
▁міжнародній
02.
▁корінн
▁фестивалі
▁ІН
▁кордонів
EX
▁пред
▁діагноз
▁найкращого
▁співпраця
▁застаріл
▁Мадрид
▁здійснити
▁авіації
▁бідності
▁повному
альною
▁1944
form
▁Du
▁кредитн
сір
▁членство
▁наземн
▁Дональд
08.
▁Російський
▁+38
▁зап
▁Розум
▁кримінального
▁громадянського
▁льоду
▁повноважень
▁повідомлялося
▁підтримкою
▁Божим
OC
скі
▁надаємо
ваб
▁Інша
ювали
AA
ливість
▁Політика
урі
▁ТА
▁Юр
▁територіях
▁ВИ
▁багатства
▁Нобелівськ
▁німецьких
▁кращий
▁незалежних
▁інтерактивн
▁зроблений
2012
▁культурні
▁Газ
▁документації
▁1982
▁називаються
▁зустріти
▁кваліфікован
ніт
несення
▁Love
▁нерв
▁хвали
app
▁Міст
▁дизайнер
▁карток
стів
сар
сек
▁Ерік
▁спільну
▁тенденцій
▁стикається
▁довжина
▁Audi
▁усьому
скан
▁чекають
▁зустрічей
▁порушень
▁реального
▁потенціалу
▁постійні
ans
▁Пакистан
кре
gy
▁визначають
▁Рак
▁наступне
▁привести
ins
▁Важлив
алізм
▁дало
▁підйом
ó
▁Авраам
▁особливу
▁мобільний
▁доповіді
▁спеціального
▁сталев
▁ріст
▁1987
▁активних
▁Браун
стри
▁мусульманськ
▁Додаткові
▁DC
ДУ
кос
▁перевізник
▁ютер
лива
єктом
▁вдвічі
▁Одесі
▁соціальна
▁міжнародну
▁скасован
▁збалансован
▁регіонального
▁вистав
▁Римі
▁охолодження
▁попиту
зин
▁аб
португаль
▁стандарту
▁Царство
СЕ
▁бр
гла
▁чиновники
▁бажає
▁хостинг
▁Пат
зан
▁налаштован
▁низький
▁взяла
▁Принцип
▁Російські
▁головною
▁Отримати
▁адвоката
▁піде
▁обласн
▁кі
▁африканськ
▁знижки
▁їхнє
▁Вор
изація
▁Пік
▁катастрофи
тичним
▁(23
рж
чили
▁рад
екції
ТС
ress
▁невизначен
▁знайдені
▁реформування
▁експертн
▁додаткову
▁еволюції
▁церкві
▁картини
▁Хорош
▁найпопулярніших
овин
▁Робоч
квіт
▁заява
▁Нідерланди
▁Необхідно
▁Гро
▁2018.
▁цінні
▁розчарування
▁Власник
▁Дружина
▁нагляду
▁святков
▁Ігри
▁Санта
▁стресу
ляцію
НУ
▁учні
▁1939
▁листа
буття
▁точок
▁(25
▁ламп
▁інституцій
Об
▁маленький
▁найкращу
▁залишилося
тний
▁куріння
▁цифри
▁сполук
▁вирішують
▁відчуваєте
цес
икористовувався
аналітичн
▁Серія
▁рейсів
▁звіті
чним
▁ТБ
▁покрит
▁батальйон
▁безкоштовний
▁корпорації
▁репутацію
забезпечен
пре
яних
ймо
▁1984
▁проводитися
ЄС
▁школах
▁покинув
▁організатор
давали
600
▁пана
манн
▁англійська
▁IC
▁RE
▁пізніш
голошен
теля
▁Ек
▁історик
▁Польськ
▁заявку
ходять
івський
▁Й
▁брак
▁око
давав
анню
▁\
▁Безкоштовн
▁порівняти
▁остання
▁штраф
▁Design
▁основною
діа
▁випробувань
▁можливостями
▁Вибачте
▁Різні
▁британ
онг
fi
▁основна
▁побудована
▁передачу
рський
▁чаю
багато
▁припускає
▁продуктами
▁основа
калі
ордин
МС
▁перелік
▁Арт
ІД
тков
▁пункті
АЛ
▁поточного
▁дрібн
демократ
6)
бон
▁Зміни
▁Додатков
▁живий
вік
▁тілі
▁ап
КТ
▁Auto
▁хі
Ів
бирає
ившись
▁строк
▁сексу
▁CA
▁проводив
ical
▁настав
▁конвенції
▁намагаюся
▁інновації
▁КВІТК
▁кухонн
ds
▁дорослі
▁сторонами
▁власники
FC
▁сцени
скал
tu
og
▁Сол
ака
▁планується
▁Білорусь
▁грають
▁закупівель
▁швидкий
▁схожий
▁Погода
▁вживати
▁активну
іші
▁Навчання
▁представлено
▁індивід
▁найбільшу
яж
▁цитат
ool
▁РФ
▁Західної
▁газо
▁готувати
▁сталого
▁підтримується
▁електронною
фар
▁Природн
▁спад
▁відсотки
▁~
▁фактів
▁гормон
▁Коло
▁звернення
▁Німецьк
роби
селення
ЕТ
ov
▁подивіться
▁інвестор
▁містити
▁проведе
▁8-
аналіз
▁Раді
▁стався
юються
▁звернути
▁кук
▁білого
▁Кот
мала
▁(22
▁силі
▁Олімпійськ
▁[+]
▁корпоративних
▁струм
▁Основним
▁чорно
▁будівельних
▁Наше
▁%).
▁діабет
▁Максимальн
▁вчення
Найкраща
VA
орож
чною
Петербург
▁Галерея
▁знадобиться
▁Розробник
▁напис
▁Чер
▁зустрічаються
8)
▁підземн
▁літер
▁домашні
▁візи
▁ворога
▁розроблені
▁пилу
▁закінчен
▁демон
▁фу
▁позбавлен
▁відкритих
▁встановили
▁враховуючи
▁вечора
▁властивостей
▁говорилося
▁назвали
▁паро
▁стояти
▁виникла
чес
▁збираються
магатися
oot
▁Чорного
▁негативні
ana
▁тривалий
▁реформа
тримання
▁щоденно
глад
▁Ана
Teen
▁Hot
▁шаф
▁Воло
▁Інакше
▁несподівано
▁підтвердив
▁єдиного
▁родичів
▁дослідити
▁голоду
▁ле
▁екологічно
місячн
▁Кубок
▁ком
▁13:
▁1960-
▁кандидата
шер
▁Вся
▁Слова
док
▁зірка
єтеся
▁мільярди
ware
▁вказівки
▁економічну
▁серйозних
▁жахливо
car
проб
▁відвідують
ичного
▁by
явитися
мур
▁калорій
▁зла
▁ісламськ
▁Ho
овує
КР
▁ак
150
▁Джонс
віст
▁Ізраїлі
▁конструкцій
▁надсилання
▁повідомила
▁співвідношення
▁інфекції
▁їжею
▁Литви
▁Біблію
▁доріг
▁померти
▁погодилися
▁копії
▁поверхню
▁Папа
▁агентств
оса
▁втрату
▁похід
▁Ір
▁Американська
▁перетин
▁почне
лювали
▁Чехії
▁страйк
[7]
▁нещасн
▁пива
кидати
lex
будь
▁передбачити
▁залози
▁86
▁співробітництво
ark
▁найм
ефект
ювач
лла
▁витрачає
▁планета
▁відношенні
▁податкових
▁подружжя
▁стратегічних
▁додатковий
▁Дівчина
▁погоджуються
▁презентації
католик
▁необхідними
▁Здоров
▁зазначених
▁реальних
▁Літ
▁гей
▁Господи
▁Варто
огид
▁виплати
▁кожне
▁дізнався
▁останню
▁приєднався
▁Чикаго
▁включені
▁молитися
▁послугами
▁волонтер
-17
▁керівн
▁містяться
▁Top
економ
▁огляди
▁адапт
▁кодекс
▁спонук
нева
гель
▁більшим
ound
СА
цеп
▁ал
▁Нижче
▁жорсткі
▁кольором
▁суглоб
▁дівчини
аційний
▁спеціаліст
▁своєчасн
ОЛ
▁напій
▁ворота
▁виконується
▁вираження
▁австрійськ
стика
▁Архів
▁Am
rus
лях
▁гарні
...».
▁комунальн
▁правової
▁крик
дро
▁надані
ЦЕ
льц
ерт
▁Дивіться
▁чути
▁постійним
крас
▁бракує
▁Партнер
▁Awards
▁нацистськ
▁підручник
▁пол
▁українській
лював
▁святий
▁мовлення
▁правами
▁Тест
cy
▁душа
▁причину
имося
▁насолоджуватися
▁священн
▁існуючі
▁авіакомпанії
▁міжнародне
▁особистий
▁голландськ
▁невелику
▁говорю
▁вторинн
▁колеса
▁оголошено
▁зелений
▁прибули
▁Повернення
▁виставці
▁описав
▁цінами
ніка
кладання
▁Риму
▁бідних
▁Дво
▁потреба
Все
▁фрагмент
▁редагування
▁фінансовий
▁житла
▁додатки
▁обчислення
▁землею
▁Шо
▁Ba
▁працюючи
▁танк
▁82
▁благо
▁популярним
сфер
▁таксі
▁національну
▁шрифт
▁провела
▁Рейтинг
▁сесії
▁Греція
▁містер
▁Лист
▁Швейцарія
єтнам
ством
IG
дають
▁88
GB
▁впав
соль
▁розвідувальн
▁Дня
▁механізми
▁ініціатив
▁Te
▁економіст
анія
▁рахунків
▁спільний
▁податок
▁оригінальні
▁конкурсі
play
▁плавання
▁Форт
▁важче
▁продовжується
▁номери
▁округу
con
значає
вань
▁CD
бирати
▁записати
▁кристал
ісп
▁біт
таки
zi
▁пішла
▁версією
▁очистити
▁платформу
▁дбає
▁розумні
▁чорні
lt
▁відправити
▁надія
▁блокування
▁Домашні
▁однакові
▁6:
▁туризм
ult
▁Games
тю
хів
▁хор
шення
ованої
поч
▁Обладнання
▁побачили
▁теорію
▁Жовт
▁значних
▁Боб
▁TNT
▁роздільн
ейс
▁дивиться
▁нікому
▁впевненість
▁Донецьк
▁7-
▁Професійн
▁забути
кара
▁технічної
▁вступу
▁поточних
▁діюч
▁походять
ббі
ходячи
ілл
крити
▁реал
▁сонячної
▁встановив
▁різницю
▁підходи
▁Фактично
▁контактн
▁купу
▁92
▁місцевими
грес
вернення
давати
▁змінилося
▁журналісти
▁Чо
▁КО
▁спробу
/2
▁промов
▁Електронн
▁Друг
▁затвердження
▁прихильник
ep
процес
▁Сара
▁AS
▁площею
▁підтвердити
▁російську
▁статистики
▁Статті
▁пил
▁орден
▁скла
▁Буд
▁старого
▁підвищує
▁Того
▁уроки
atch
▁розподілу
je
▁Повний
▁пунктом
▁виявляється
▁Чоловіки
▁живі
▁Amateur
▁Проти
▁зазнав
воль
▁Довжина
▁пенсію
▁екологічних
▁середня
▁ставити
▁Широк
▁Un
▁гармат
▁висоти
▁спортивних
Ь
жувати
IF
▁спірн
▁державними
▁la
ory
▁засобом
▁Знаєш
▁вагою
▁тропічн
▁аудит
▁мусульман
▁втратила
▁сенсу
▁скарг
▁другим
▁поєднує
bl
культ
▁надійним
▁РЕ
▁1981
▁електрон
▁виріз
еро
▁вулкан
▁знаходять
▁проїзд
консервативн
▁сильним
▁інтересу
▁брендів
▁виділен
▁шпигун
чай
▁Вуд
▁озброєн
▁фотографія
▁заявник
▁Свідків
▁Техас
▁досліджувати
▁різк
▁сповнен
▁мушу
▁напрямок
▁підлягають
правляти
мей
пік
TP
zy
▁складності
▁вироблен
▁висота
Під
▁успішним
▁російським
стом
лик
▁наукової
▁посередник
▁Нідерландів
▁смертю
▁чудес
▁їдять
▁згадати
▁квантов
кач
▁77
EE
ey
▁Мілан
▁допит
зін
▁Кір
▁Рух
▁Trans
5)
▁потребу
жений
тери
▁Очікується
▁Туреччині
▁кампанія
▁милосердя
▁допомогли
▁протистояти
▁розвинути
лат
▁показу
▁економічна
▁вищий
▁відкрили
пел
▁Ga
ога
▁Андре
▁Офіційн
Всі
▁повним
лайн
бло
ach
ктив
lan
лини
▁Дю
▁Метод
дання
лак
тик
▁кліп
▁дитячих
▁Амстердам
▁Сертифікат
▁Тейлор
ДЕ
індійськ
▁ідентичності
▁реп
▁Вей
wa
пек
▁духовно
▁нуд
олон
льйон
язує
▁праві
▁да
CO
▁Топ
ксі
!!!
▁Голланд
▁соціальний
FS
▁любимо
▁владі
▁ліберальн
▁1941
▁аналітик
▁іранськ
▁філ
▁фермент
▁звіти
▁виправ
гран
єт
▁виявляють
BO
йка
▁багаж
▁Таїланд
▁Богу
рош
▁Ленін
добу
▁зовні
▁росіяни
▁j
▁змушений
▁культурної
▁злам
ндер
бері
▁застосувати
▁Part
▁забезпечить
▁монарх
▁довгі
▁Дитяч
den
▁визначені
Се
▁знаннями
▁Мова
ks
▁цифрові
▁School
8.
▁тер
ations
▁втрачен
my
▁запиту
▁ma
▁знижен
▁ідентичн
▁звуков
▁пейзаж
▁прочитайте
▁популярний
▁Comp
▁тягар
▁Російськ
tri
▁зменшується
▁мірі
▁125
▁платежів
▁казав
водиться
▁підставі
▁екіпаж
америка
▁приватний
▁технологічних
AF
NC
▁норма
▁збираємо
uk
мобіл
▁традиційних
▁Олександра
▁телефони
▁Клас
▁постачальник
▁голосувати
▁талановит
▁середньовічн
▁Православн
▁їхнім
▁квітков
▁легким
▁реалізацію
▁Остання
▁Встановлення
▁дим
ятниця
▁розмовляти
▁середу
комп
▁подібно
▁думаємо
жев
▁Голос
▁різноманітність
▁Театр
фра
▁смертн
▁гарно
▁виправлення
▁третім
▁Бет
▁84
▁навмисно
▁SMS
▁цивільного
▁жінкам
▁Помилка
▁рекомендацій
▁Ідея
▁автоматизації
▁сертифікації
ище
▁суддя
▁досягнень
▁позицій
▁чиї
пут
▁Поз
▁закінчити
▁шин
▁похвал
▁озеро
KO
лова
▁Тарас
▁знаючи
▁підтримання
▁близькі
▁Nov
Ру
▁Шоу
▁оптов
▁Instagram
▁прямі
IE
▁знизити
▁мережею
надцять
CS
▁хімії
▁вільної
▁глав
механічн
▁преси
▁повітряного
енції
▁цілу
▁повторю
лян
▁тре
правляє
▁Кін
▁зареєстрован
HA
▁автентичн
▁неприбутков
▁несприятлив
▁величезна
▁Академії
▁зазнала
▁вирішальн
▁шкіра
▁готовність
▁рідк
▁Sony
мобіль
▁шляхів
Сіті
DE
▁робиш
▁номером
▁Data
▁Місія
▁звуку
SP
▁померли
1-
▁діа
▁Нове
Пер
▁виявляти
GA
чена
PP
▁Грін
▁модерн
ПО
▁доктора
▁Процитовано
▁прототип
▁професії
▁становила
▁Ірина
бути
▁хімічної
▁нагоди
▁впевнено
улі
eo
▁табір
▁приносять
▁2019.
ART
▁полк
▁тексти
▁європейський
РК
▁Хай
▁викладач
▁Post
▁Хор
▁теніс
гай
▁зорі
▁Airlines
▁алюмінієв
▁хибн
▁покаже
α
▁цікавим
▁білих
▁підрозділів
▁Луганськ
▁недавні
▁міських
▁ставка
▁інформаційні
▁особистість
▁Віль
▁оточен
▁державним
▁освітніх
▁драматичн
▁вчить
▁відповідної
:13
▁підтверджен
▁включення
▁проведені
▁сидіти
▁окуляри
▁доставку
▁діаграм
▁постійний
▁судді
gn
▁спостерігається
▁народом
айтеся
гно
▁ресторанів
▁гар
анда
▁першими
▁машині
▁кадрів
▁мить
льк
▁Третій
ютері
▁Важко
нас
▁погодився
▁доброї
▁Починаючи
▁твір
ons
▁колі
rn
нна
▁явище
▁гігантськ
ТОР
▁піонер
▁диференці
▁шост
▁кислоти
цид
▁Філіп
▁Помер
▁CS
▁окупації
▁сміття
▁Щороку
▁багаті
евич
▁конкурентів
▁Центральний
▁домом
▁ядро
▁Сад
▁навчальні
nc
рик
бек
▁Ford
сток
криває
▁значним
МІ
▁контролює
еллі
▁імунн
▁переконати
▁внутрішньої
крат
▁доводить
▁товару
▁вивчає
пишіть
▁Is
▁листя
▁обирають
▁Василь
різному
2011
▁Крем
▁Сум
▁Партнери
▁Гітлер
▁He
▁крила
▁Берн
кли
▁доводиться
▁частот
▁автори
▁Останнє
▁засіданні
▁пухлин
▁молодь
▁ядерних
▁фанатів
▁малі
▁раннього
▁торгові
▁Александр
▁рублів
-30
ux
▁Божа
▁аеро
▁контракту
▁повернеться
▁надаючи
оператив
▁вагон
▁міру
слух
▁квадратних
▁продуктом
Са
▁приводу
▁підстави
▁Ціни
▁Міні
▁Вен
▁групами
алізації
▁канали
▁Her
▁глядач
▁BMW
▁правильне
▁атрибут
▁Контроль
▁коридор
▁модернізації
▁твого
▁XVI
▁реактивн
▁Холодн
NI
▁кредити
Ma
▁колишніх
міл
▁дитячого
▁пропуск
▁Зимов
tal
▁передавати
▁Ем
▁посуд
жили
▁природним
▁громадянство
▁Sky
тек
▁резолюції
▁комісар
▁очима
▁подобаються
▁дивляться
▁увага
▁Фрі
▁твіт
▁Божу
▁ймовірн
Ді
ютери
▁частинок
▁At
▁літ
▁політикою
▁коледжі
▁інститутів
▁Будівництво
▁сніданок
▁підлітков
▁боїться
▁Super
▁витончен
▁представляти
▁горі
▁місію
▁сталася
▁улюблених
▁аудиту
▁підписати
▁Лондонськ
▁розстріл
▁міського
▁вилуч
онос
▁Розміри
дій
▁республіки
міщення
▁американці
шар
▁самої
▁близьких
▁вистачає
▁екскурсії
▁Австралійськ
▁переконлив
▁повідомленнями
▁нагадування
▁Сучасні
УР
▁конкретного
▁тривали
▁читачів
:18
ульт
▁символи
▁описано
▁свідом
▁гал
▁букет
▁винятков
▁відкриє
▁найстаріш
▁дуб
▁темою
▁Стандарт
▁спільне
▁кВт
▁Джерело
лень
▁американська
▁реактор
▁Відкриття
▁конструктивн
▁фла
▁перепис
ієн
ійці
▁Орган
▁КА
▁Tube
ізацію
яються
▁розробників
аємось
▁Мур
▁вітамін
▁короткі
▁сценарій
▁швидш
▁означати
УК
▁Повітрян
▁ідентичність
▁морського
▁виробничих
▁Up
▁ризиком
▁Із
▁Події
чувати
Весь
▁Храм
▁слон
функціонал
▁співчуття
▁боятися
▁реалістичн
руп
▁інтересах
▁магазинах
▁50-
елла
кров
▁покращує
▁верхній
▁настрій
▁загроза
ева
мут
ієв
▁дружину
еру
▁воєнн
▁Life
▁християнин
▁Дев
▁ритм
▁Da
▁послідовно
ливим
Sh
ютерні
▁монітор
▁управлінськ
▁Надіслати
▁офіційним
▁(21
▁півдні
▁припис
▁опису
▁схема
▁відсотка
▁Сервіс
▁механізмів
▁Отця
▁Пів
▁74
ходив
NS
▁93
брі
▁забув
aw
чними
▁помітно
щенко
член
гут
▁Віз
▁інструменту
▁квартирі
▁суди
бле
era
пускають
▁бажанням
▁зазначен
▁противагу
▁візьме
▁Певно
▁вільних
▁німецької
▁тестів
▁дозволили
▁лав
€
▁гібридн
▁Одно
▁натхненн
▁Вікторія
▁тендер
▁Сав
▁столі
зель
▁культурно
▁рамки
▁здорового
▁театральн
▁термо
▁Бренд
▁15-
▁чисел
▁родина
щина
▁рядок
▁чат
▁170
СС
▁володіють
▁Виставка
еса
▁демонструє
▁змінив
▁кре
онс
▁ке
▁1969
▁Уряду
мете
▁новій
айт
▁адвокатів
▁360
▁невибаглив
▁вершині
▁щасливим
▁справою
▁Шер
▁плям
▁OS
▁71
▁світовій
міні
мс
▁глобальний
▁теперішнього
▁французький
▁ірландськ
▁Батько
▁лідерами
тації
▁деревини
▁ідеальн
▁Дз
▁Київської
▁Європейським
ple
▁акціонер
▁AG
▁приголомшлив
▁передбачуван
▁di
▁шкода
кса
▁зроблена
▁Юлія
▁Fi
▁якось
камера
▁виник
ink
▁студентами
Гар
▁майстерні
▁вийде
віг
▁цінних
▁царство
▁78
▁Данії
-16
▁керівників
▁Олена
▁вертольот
▁Підготовка
▁обіцяє
▁піктограм
▁смертей
▁церкву
▁трагічн
▁потрапив
[8]
▁дівчину
▁Конкурс
▁ден
:17
▁дорогі
▁IS
контроль
▁соус
▁Наталія
▁Керівник
тем
▁категорія
флор
ley
▁заповнити
▁Кому
▁ліворуч
▁космічних
▁зберігають
▁інфекцій
▁Фра
▁іноземними
▁12-
▁труднощів
▁працівника
▁наповнен
▁офісі
▁єгипетськ
▁корупцією
▁скоріше
▁забезпечуючи
▁Свідки
▁платник
▁компактн
▁Рід
▁реабілітації
кад
▁виграє
▁відкрила
▁статут
▁Зовнішні
▁згоду
▁1970
▁учасниками
▁1975
▁Вілл
▁Петр
▁Блог
▁органом
▁виробляють
несли
▁гарна
▁гучн
кола
▁двигунів
FI
▁Терміни
▁20%
▁Ресторан
▁розділити
▁іноземців
транс
▁79
▁причому
▁1983
▁заявлен
хто
▁комах
▁схвален
гні
▁даху
ЕМ
▁доставити
▁сні
▁нахил
▁дитинства
▁споживч
▁стверджував
▁Єгові
▁Одеси
▁польотів
▁великому
▁дрот
▁Gu
▁реєстрацію
▁виконано
круч
▁отримуєте
невидим
▁1974
▁картину
▁присвячений
▁Київського
▁призначено
▁зовнішнім
▁виклику
критичн
▁словом
▁міністрів
▁державна
▁церемонії
▁Інженер
▁суверенн
▁година
GE
▁вибач
били
ors
▁Високо
▁планують
▁пропонується
▁1968
▁столиця
▁«%
ting
▁купують
▁Палац
▁ефективної
EST
дикт
▁змінено
▁червоно
▁захисник
Таємн
ition
▁вплине
▁руйнівн
▁соціальну
▁Порядок
▁скромн
▁книжков
τ
▁автором
▁стійкість
▁фініш
пози
▁артист
йський
▁протидії
▁пошуках
▁Артур
умі
PC
тичне
▁фан
▁такій
▁блоку
SM
Кі
ari
ТЕР
тна
олін
ставки
▁використовуйте
▁пляжі
▁URL
шись
ейт
▁4)
▁закінчиться
▁гарантувати
▁основного
▁кіл
▁загиблих
▁Януковича
ІТ
▁дай
▁Вашингтоні
own
велл
рас
▁сервісів
▁пережив
▁Єгипті
▁ОБСЄ
▁найкраща
▁драйвер
▁творіння
▁поганий
▁Ї
▁Пор
▁фасад
глу
▁центрального
▁утворен
яжіть
▁іноземної
▁серію
голо
очки
▁Спа
▁полювання
▁символічн
▁резервування
ведений
▁Моє
▁нинішн
▁науковий
▁закрив
▁вивантаження
▁натовп
▁Game
▁пле
▁голові
▁Латвії
▁безпекою
▁власному
▁спроектован
▁обробка
▁килим
▁Сор
▁виборі
▁заходу
тури
▁обрано
▁Типов
сайти
#
NY
▁юнак
▁Азербайджан
▁важливими
▁наближ
▁більші
▁кара
▁виріс
▁інноваційні
▁українськими
єць
тримує
▁найефективніш
▁залежать
▁поколінь
▁поранення
▁наслідком
▁квитка
▁Джим
риф
▁змісту
▁Бас
ern
▁Яке
▁Грей
праведн
▁кожн
▁дзеркал
▁CE
мінь
▁екологічної
▁резервн
▁породи
▁пес
▁автомат
▁символом
▁президентськ
▁літати
▁Пред
lus
вай
▁Brexit
▁Категорії
▁Фінляндії
▁Ярослав
▁асоціацію
▁Залежно
▁York
anyday
▁зникнення
▁світлодіод
▁оголошує
▁вибуху
чно
▁колеги
▁запити
:20
▁виконані
истів
▁спец
▁Френк
▁Буш
SK
дал
▁Джексон
▁Fin
▁анальний
▁звір
єднуються
▁Найвищ
▁0,5
▁банд
▁втік
▁особою
▁Едвард
▁поваги
▁повагу
▁зручним
▁срібн
▁опозиції
▁Пір
▁звернувся
▁пильн
Ex
▁Добро
▁посаді
лучення
▁Сина
▁Харківськ
▁темно
сал
▁Tele
Зорян
▁коріння
▁чек
▁складаються
▁слухає
▁стабільно
▁Зеландії
▁довкілля
▁офіційних
▁юридична
▁вертикальних
ором
▁поширюється
спан
▁Царства
▁офіцерів
▁оформлення
su
▁спортсменів
▁зосереджен
лка
▁продовжували
▁Анд
▁Лука
верне
▁всесвітньо
ount
▁диван
▁добровільн
якими
▁конструкція
▁управлінні
▁величиною
▁Цифров
▁підлоги
ous
пустили
вуд
ингу
▁вигляду
▁переживання
▁співробітник
▁озер
▁навчився
▁фінанси
▁Старий
Одн
▁варіантом
ler
ПС
▁чинним
cial
▁ставлять
▁зустрічає
▁магніт
ваг
▁(29
▁Слов
▁потужні
▁Біо
раховує
▁чеськ
▁невідомо
▁фітнес
▁Допомога
▁дитинстві
▁House
▁знаходимо
▁фінансова
▁лідерства
дасть
▁поставок
▁Банку
▁чиновників
▁зону
Mo
▁солод
йде
▁виявилося
▁виконанні
▁теки
▁1967
▁методом
▁al
▁встановлений
▁судно
▁їхніми
частин
ходження
▁концентрації
▁піклуватися
▁освіті
▁ідеальним
▁починати
gr
▁пожертв
носять
▁JSC
10)
маль
▁повертає
ступає
CE
▁моніторинг
▁проте
▁літніх
ren
ивні
▁департамент
инський
язнів
хол
▁конфіденційн
ким
LC
▁Канал
▁Хал
ah
певне
▁терорист
▁свідчать
▁важкий
▁змагань
▁зроблять
▁включно
▁призвели
▁потужністю
▁Коментарі
▁відповідними
▁Tri
ДИ
▁екрані
▁тероризму
▁іслам
▁наукового
ея
▁визначн
:16
▁лікувальн
▁Вай
іку
ринг
▁81
цтво
▁1976
▁радянськ
▁серцем
▁громадянами
Люди
▁зібрані
▁досліджує
▁набряк
▁Sun
▁максимум
юча
запис
ійний
▁допоміжн
▁1960
селя
повідь
третє
▁Ca
▁консультативн
12)
▁нім
▁Діа
▁Jo
НС
ницю
▁повторн
▁розлуч
II
▁йду
▁Японська
єктами
▁Чай
▁лауреат
▁останньої
▁підкреслити
▁реакцію
▁шматок
▁ідентифікації
▁організовано
▁Заходу
ace
▁занять
▁нелегальн
▁травми
▁гро
антів
НД
тул
▁Всесвітня
▁технічно
▁старш
▁перевірку
▁другу
▁Сю
бід
▁розроблен
▁Афін
▁місцевим
▁СТ
▁декларації
▁композитор
▁Попередня
▁ліцензію
▁фіскальн
▁аспірант
▁охоплюють
▁професійну
▁китайські
▁Висота
▁визначати
▁дискримінації
мара
▁Монт
▁відвідуван
▁надав
▁реалізація
▁Король
▁матчі
▁встав
ae
термін
▁статі
кала
▁інженерн
пул
▁розкрити
ницею
робити
Світ
альність
▁повітряні
мемо
▁Шука
▁скажу
▁Linux
▁дорогоцінн
▁хороша
▁Partners
▁захопити
лах
бен
▁напрямків
хімічн
▁Євген
▁Харкові
творення
▁морської
ссе
Мені
FA
▁вченим
▁Хр
єднав
▁фанат
мад
▁похорон
▁монети
Ор
ЛЕ
▁перспективі
▁тарифи
весел
правляють
еб
▁особливим
-14
▁Автори
▁ШІ
μ
▁Ірландія
▁прямий
▁Будучи
▁Клінтон
▁книжки
▁Причини
▁сучасна
▁Мінімальн
гун
▁НВО
▁виробником
▁провідник
▁НБУ
▁поверхнев
▁вітру
▁High
▁спуск
▁критики
gi
▁1971
▁1972
▁правий
▁обладнанням
▁Росс
▁відоме
▁Radio
їхньої
▁Грецьк
▁Бути
▁голоси
0,00
MT
▁ставитися
▁афілійован
▁мертвих
▁стосунків
▁унікальну
▁оригінальний
▁проникнення
▁починаються
▁Окрем
▁штук
▁самотні
TH
▁1918
генер
▁візу
▁лазерн
▁Змінити
▁тілом
▁небезпеку
▁Сел
▁мікроб
▁активний
▁Тобі
▁Катар
▁овочів
ційна
▁магічн
▁станцій
▁Др
▁громада
ich
явилося
▁цукор
▁постійне
▁Скотт
▁Іспанськ
▁мудрість
▁зникли
судинн
▁згодні
:9
▁криз
▁Павла
▁несуть
▁духу
Основ
▁конкретної
коро
▁державному
▁командир
▁Лан
▁ПО
бел
▁гріхи
.[1]
▁національним
▁індивідуально
▁Естонії
▁площу
▁пацієнти
book
▁глядачів
анням
анська
▁перемога
of
▁каву
▁вмістом
▁зустрів
▁MS
▁mi
▁відповідну
▁скульптур
▁суперник
▁Кіно
▁Встановити
▁податку
▁підприємців
▁невдач
▁контраст
ЕННЯ
▁Четвер
▁секретаря
▁німецького
▁окрім
▁завершив
▁найголовніше
публ
▁ніщо
▁рости
▁законами
▁вітер
ава
▁Католицьк
вільне
▁молекулярн
▁вбиває
▁наслідок
Му
De
▁світова
чан
крав
▁виготовлені
▁добрим
кликати
увавши
▁Каб
▁пройшла
▁Адвокат
▁Магістр
▁Звідки
▁телекомунікацій
▁утримувати
▁залежність
▁творчості
▁потрапляє
▁Союзом
▁сексуальні
▁освітні
▁балет
▁обертання
▁оптиміз
▁Енн
▁цирку
▁Europe
▁дизайном
жер
UM
▁дитячі
арні
UN
▁Pe
▁запитів
селе
ору
▁Гай
кової
▁офіційні
▁Ендрю
▁відповідей
еволюціон
▁Перейти
▁звички
▁вчинки
івська
▁Крив
▁Ge
▁кризу
▁корист
▁Визначення
▁судової
мена
▁1973
HO
▁здійснюють
▁займають
▁викид
▁найпопулярніш
▁контролер
▁офіційному
ung
▁футів
▁складен
UR
▁дослідницьких
ОВИЙ
ГО
ЕЙ
дс
▁показувати
▁бореться
▁Автоматичн
▁Кримінальн
▁незнайом
▁спальн
▁очищ
▁аптек
▁дочки
▁водіння
▁зараження
писані
▁Таке
▁Ост
чко
:12
▁Духа
tech
▁рідини
▁складно
▁діапазоні
▁Апостол
▁необмежен
▁Асамблеї
▁Розгляньмо
▁лабораторія
▁Публічн
▁котедж
▁Англія
корд
▁головні
▁стратегічного
▁обстріл
▁87
близько
▁розпочав
▁незалежні
▁2-3
▁стурбован
ходимо
вис
сун
▁планувати
▁техніку
▁збирає
рея
▁Продукт
рс
▁суші
▁Матеріали
▁важких
▁опублікував
▁сонячні
▁глобальним
▁мігрантів
ual
▁Текст
▁ростуть
▁Вашингтона
▁суп
▁Політ
▁платять
▁парламенті
tt
▁середніх
NG
трансформ
▁змінюються
▁HR
▁наркотики
▁бухгалтер
станції
▁грали
▁посилен
7-
▁загальною
▁450
чю
▁вологи
▁Гіл
▁персонаж
тація
▁чоловіками
▁РО
▁мотоцикл
▁цікавих
▁екстремальн
▁позитивним
кв
блі
▁Віл
▁уряди
▁дозволил
LS
▁уах
викон
▁середньо
cc
▁сусідніх
Захід
▁інтелекту
пасти
інтер
ble
▁зерно
▁Валентина
анський
▁криптовалют
▁доктрин
▁Management
▁концепція
▁Європою
▁Участь
fa
▁погоджується
▁кріплення
▁платформ
▁Сід
▁збіг
▁істини
жують
▁інженерів
▁доступним
▁журналів
ert
▁тією
цикл
▁активістів
▁лабораторн
▁молодим
▁It
▁змінили
▁духовні
▁Каліфорнія
▁оголосили
▁приміщенні
▁історичний
▁житлових
▁леді
▁мистецьк
▁електронного
лера
тивні
▁технічний
▁4000
монд
▁відчували
▁Дор
▁судити
▁ракетн
ino
▁Фор
бройних
▁Конвенція
▁корисних
▁ефективних
▁Єврейськ
▁їхньому
▁Канадськ
-13
▁101
тувати
▁перенесення
row
язаними
▁євреї
▁вчителі
клуб
Біч
телем
▁Лікарі
▁Network
▁Протокол
▁суперечки
▁героя
▁Дитина
▁палати
▁Вінницьк
▁Anal
▁Васил
▁купує
рова
▁видами
lin
лект
▁займе
▁царя
▁97
▁Інструмент
▁певним
▁якась
дей
▁діаметр
▁from
▁компенсації
▁нафту
ten
▁вовк
онія
▁розкол
еф
▁битви
▁Дже
єшся
▁нести
онов
▁Чилі
▁Битва
▁Ймовірно
▁Міністерством
▁власником
▁розумінні
▁Представники
ose
▁Щодня
▁Мав
▁райони
▁прорив
▁1965
▁Ваше
▁1978
кей
▁висоті
мал
кр
▁Афганістані
▁відмов
▁ліберал
ome
Для
▁Першої
▁купівлю
▁найшвидш
▁київськ
▁СММ
▁сторону
▁Акт
▁зверху
▁тривало
▁поглядів
крем
ицю
▁виходять
nn
ib
▁Кле
▁Ja
▁Можливості
▁родин
▁Грі
▁особливі
▁хвиль
▁маленька
▁опитаних
▁сидить
▁помітили
▁гіпотез
▁нагрівання
▁звантажити
▁розчарован
▁висловити
▁залучити
▁актрис
▁гігант
лип
▁повторного
▁цілях
▁археолог
▁доглядати
CP
вітр
йська
▁написана
▁татар
▁скарги
▁донор
light
ційні
цз
▁йдемо
характеризується
▁Подібн
▁Факт
nic
▁латинськ
▁суверенітет
▁предметом
нувши
▁явища
▁вільним
▁подарунків
▁юрисдикції
▁Місяця
▁німецькі
▁унікальна
▁детектив
▁Фільтр
▁Лас
▁читав
▁введені
lic
▁проживають
▁Налаштування
▁спокус
йдуть
▁згадується
ЕД
▁Light
терн
▁Китайська
▁відповідним
can
▁принтер
арів
▁Ли
▁Стів
ьний
кладки
▁постачальника
Co
▁легкі
▁Південний
▁розгляну
▁Безпека
▁Аг
▁саму
▁університетом
▁земельн
▁оцінює
rid
Кр
chi
▁точні
▁Китаєм
▁Швеція
▁координації
▁потепління
▁повертаються
▁чудових
▁сформувати
▁залі
▁SP
раховують
▁британський
ніст
▁Світло
▁педагогічн
▁тримають
▁вірш
падає
річну
▁Na
▁замовник
▁етапи
▁Лінд
▁USA
біо
▁сторінках
▁вдячний
Бог
▁Коринтян
▁Ужгород
▁популярності
▁підтверджують
▁туберкульоз
▁ігнорувати
▁могутні
▁представив
▁попередник
▁вагітність
▁добрив
знання
▁дистриб
▁етики
▁саміт
▁обслуговує
▁тиском
▁встановлювати
▁дат
tr
▁суспільно
▁бібліотек
▁описати
RP
▁овочі
дало
опла
Ла
▁стратегічно
казав
мереж
рама
▁Обидв
▁адміністрування
▁астероїд
▁поклоніння
▁клапан
▁обмежити
▁попереду
▁задоволений
▁подякувати
▁хвиля
▁Адміністрація
▁System
▁рівності
WE
жка
nd
▁реєстрація
▁грипу
▁збільшується
▁замку
▁ґ
ько
▁(3)
▁Африканськ
▁Оцінка
▁директорів
▁знайомств
▁Вода
люється
▁Ісламськ
▁європейськими
▁екзо
▁номера
Со
▁доставляє
▁санітарн
▁термінів
▁долара
▁банківських
▁білим
гурт
▁Tour
йк
▁домогосподарств
▁обумовлен
so
▁печінки
▁заохочує
▁азійськ
тижнев
▁мріє
▁космічного
▁ділових
ct
▁пройде
гніт
тол
лою
▁Бід
вертати
хен
ПЛ
чіп
сліп
▁1950
адрес
▁спальні
МУ
джи
ленні
енка
▁виправд
▁камеру
ГА
▁дослідженням
-25
▁Португалії
▁герцог
▁колекція
▁увійшли
▁фруктів
▁розробили
▁корпоративного
▁суперечок
▁дракон
[9]
сов
▁місцевий
▁іграх
▁лісов
▁покупців
▁святкує
верб
▁текстур
▁стурбовані
▁краса
ax
ОТ
▁лобі
▁сусідні
▁спали
▁картон
▁прошу
ТІ
То
сок
▁стандартам
▁спокійно
▁Друк
▁виконуються
▁Кабінету
трат
▁майбутній
▁елемента
фан
▁Мах
ift
АЦІЯ
▁Day
▁220
▁передав
▁нестабільн
▁Corporation
▁Girl
▁трапляється
▁човен
▁Прекрасн
▁безпечним
▁спеціалізується
-9
▁тяжко
плата
MO
▁реєстру
рма
▁демократія
ook
▁Темн
▁оптичн
▁фінальн
▁відноситься
hy
▁браузер
▁просувати
▁спогади
▁успішні
▁реконструкції
▁безпечний
▁Роджер
▁підлягає
вець
**
▁весело
▁поліцейських
▁законодавством
▁розглядаються
▁Франциск
▁майбутнім
▁con
▁зосереджені
даєте
▁Video
пускати
▁планету
досліджен
▁офіційного
беріть
бель
зводять
▁АН
▁Мюнхен
▁раптом
▁здаватися
▁тверді
іша
▁погода
оном
▁83
▁членства
▁громадські
▁виступати
▁кредитних
▁переїхав
▁металу
LI
▁привернути
кладення
кул
dd
▁закликаємо
-01
нця
▁есе
▁видом
▁зовнішньо
бок
спільно
▁електронн
силь
▁зарплати
ПІ
▁гальм
одружен
єднано
▁Col
▁атмосфери
▁безсумнівно
▁справжнього
▁французького
▁обробку
▁добробут
▁імперія
▁комфортно
▁Запитайте
ргія
▁макро
кві
▁Шан
биття
▁жал
▁Форма
▁Тім
плати
діо
▁постачальники
▁легендарн
rain
писаний
▁слаб
▁представника
ld
▁Нас
▁Навч
▁альтернатив
▁нація
▁нульов
▁отриманих
▁Індекс
▁Мережа
▁гаразд
▁широким
▁Express
▁чудове
▁Соломон
▁поганого
▁Контакт
▁комерційного
▁камера
▁припускають
Pro
▁співпрацює
▁читає
▁передових
▁підходять
▁Кру
гур
бух
▁домашній
▁експрес
▁IM
▁рука
▁приніс
▁встановлена
гам
лют
▁нарко
▁атракціон
▁Huawei
▁збитків
▁терпіння
▁процвітання
▁Машина
▁Соло
▁престол
▁познайомитися
ater
люмін
денний
спір
▁діалогов
▁полон
▁громадянам
▁ліфт
▁міцні
▁Поради
▁ставок
▁поширені
▁свіжо
▁водій
Рі
▁Точн
▁президентських
▁схоже
▁сталь
вел
▁десят
спер
COM
▁витяг
▁громадянина
▁синів
▁екземпляр
▁корпорація
▁ідентифікатор
▁телесеріал
▁естетичн
▁Сила
▁створюючи
несені
лука
▁працюю
пустіть
▁Червоний
ТУ
▁Корпоративн
▁Us
gen
▁Bl
ІК
▁оперативно
▁Бак
Франциско
тія
▁Верхівнянськ
▁енергетичної
Три
▁скл
власник
▁Патріарх
▁автомобілем
▁містечку
▁правопорушення
▁Висока
▁третя
▁Blue
▁решти
▁Гроші
▁цифрової
▁лікуванні
▁популярність
роп
▁опіку
проповід
▁Калі
▁Берліні
▁епохи
▁Services
▁припустити
▁індивіда
▁навчає
▁авторитет
▁біло
▁перевірка
▁::
vid
ial
▁компенс
▁міністерства
тет
▁багатьом
▁знайшла
▁Академія
▁розпочала
ING
▁XVIII
▁сим
▁сусідів
▁одиниця
▁Гір
▁гараж
▁медаль
▁Центральна
▁труби
▁Si
ляться
▁штатів
▁прощення
▁випустила
▁Ол
ИН
ГІ
▁розділен
ічно
нди
▁вітає
міц
▁навчатися
АЗ
NE
гіл
▁третини
▁менеджера
▁надано
PG
▁робіть
▁негатив
▁Зберегти
▁музичні
▁половиною
▁становити
▁одержувач
▁відволік
▁людське
▁споживає
▁Фізичн
▁Системи
▁Time
▁Унікальн
▁коричнев
▁Групи
▁вулицях
▁передача
▁антибіотик
▁більшістю
кло
▁94
▁мрій
▁сплав
▁обіг
▁гвинтів
▁локально
▁чинного
▁фундамент
▁екіпажу
▁глобальні
▁запускає
▁етапу
▁Розв
▁1946
▁елементом
гля
▁добровільно
▁Парламент
250
▁Сир
ційний
▁користі
▁Тру
▁Використовуючи
▁двадцяти
▁обмежений
▁олімпійськ
▁продовжуватися
▁решту
▁закрито
▁плоди
▁створила
▁дослідженнями
стки
▁письменників
▁секретн
▁Out
▁викладання
оро
▁Гот
▁Куди
▁Tech
▁вжити
▁недоступн
БР
сут
▁Олімп
▁зелені
▁AM
low
▁Прав
тримувати
▁типом
▁Galaxy
▁китайських
▁людський
▁найвищим
▁номерів
▁ключовим
▁конструктор
▁продуктивності
▁проживає
▁друзям
▁сучасним
▁закінчу
▁синій
▁ліги
уючі
▁березі
овуючи
▁Лікар
▁війною
▁ока
▁Головне
▁Дав
▁подають
ef
▁активним
▁Володимира
▁банком
нья
▁1200
▁правильного
▁студій
▁Проблеми
▁атмосфері
▁втрачають
▁запропонували
▁напевно
▁притулку
▁Center
▁позитивних
▁зробило
▁рішуче
▁Корейськ
▁відмовилися
▁вищу
▁шиї
глян
▁достатні
▁сенатор
▁оператора
TR
▁(0)
▁1963
▁Ефективн
▁Dis
ведуть
▁схем
▁Мір
▁HTML
▁Дозвольте
▁найвищих
▁імунітет
▁Значення
▁зацікавлених
▁помітив
▁передумов
▁Кава
▁оптимізації
Сер
▁шансів
▁послав
▁ТЕ
ОЇ
▁AL
▁температур
▁вітаміну
▁поставили
▁1977
▁1961
▁Гон
фол
▁водян
оче
▁виставков
▁вірили
бак
▁вин
▁вказано
▁відбит
▁польов
▁елементами
джен
▁Німецька
▁Відкрит
ятнадцят
▁вбивств
▁когнітивн
▁Нагадаємо
▁захищають
▁зоопарк
▁молитва
▁переможців
▁попросити
▁потрібне
▁калібр
▁розпізнавання
▁Volvo
▁диявол
▁можливий
▁Стефан
▁пошта
▁суверенітету
▁присутній
оброб
стях
лятор
▁культурі
▁дози
▁хаос
▁військова
риг
▁виведення
▁1914
▁доступними
▁смуг
▁хімічні
▁Ков
рій
▁бен
▁розробник
▁конверт
▁нерухом
▁повні
For
▁презент
▁Work
▁розмову
▁ен
▁Machine
▁Книги
▁взимку
▁технологічні
▁Держави
▁надсилати
▁поводитися
▁сильну
▁Маючи
▁University
▁спостерігач
▁демократію
▁регіональні
▁носить
Сміх
▁Тел
сін
▁цивільної
▁ідеальний
▁проектах
▁ставку
▁Дія
бал
аційних
▁ПА
▁дешевш
хем
▁Львівськ
відповідальн
пери
▁рядка
ient
vel
▁Digital
▁вимкнути
▁прямих
▁швидке
▁переробки
▁поразки
▁лекції
▁Java
▁радикал
▁Білі
▁American
▁азот
▁загальним
▁віддати
▁вокзал
▁Мус
▁друкован
▁КОН
скрип
▁перевага
▁млин
▁кордони
камер
▁вектор
▁коров
щаслив
▁насичен
▁занепад
▁форт
▁Белл
▁Health
▁Смерть
Міжнародн
▁вуличн
▁союзник
▁СУ
бираючи
▁стоматологічн
своє
оліт
▁моделлю
▁сьогодення
▁зайняті
▁небезпечних
▁модуля
▁знаки
▁радянських
OP
▁ПАР
:19
ази
▁звичайного
▁таємно
▁чорного
▁(28
річної
▁клініки
▁зміниться
▁нуля
▁Phen
▁60-
▁Матеріал
▁1947
ВИ
заряд
▁безпечного
даль
▁Sea
▁валюту
Українська
▁харч
▁почалися
сподарськ
▁викидів
▁Нідерландах
▁найважливішим
▁претензії
▁становив
▁величезним
▁французької
▁Бюро
▁відгуки
▁визначений
▁Сучасний
▁демократичних
▁гольф
▁Департамент
▁випустив
▁регіони
▁увійшов
▁полюс
ence
the
▁сьом
▁вища
▁прикладів
▁Пророк
▁1943
▁прокат
▁марок
єрів
▁компаніям
▁Ac
▁шукаємо
толог
▁газеті
▁оснащен
зією
▁нападів
▁розважальн
▁вікні
▁Суду
торі
Велик
▁хвилину
претендент
▁John
▁Project
▁Найчастіше
▁академічних
▁новонароджен
▁етикет
▁цікавий
▁представницьк
▁переміг
▁вирішенні
▁соціалістичн
▁обирає
▁ФБР
▁вражає
color
▁британського
▁обчислювальн
▁фільмах
▁керують
▁громадянин
▁облік
▁Голов
ero
має
CR
▁Лег
▁газів
ild
▁прочитав
▁Паризьк
▁вбили
▁апетит
[10]
▁продовжить
оксид
▁воскресіння
▁Вихід
▁усвідомлює
мбо
▁Gold
повнити
▁жорстко
▁розмовляє
орд
▁риф
нін
▁рухи
▁Мік
▁фондів
▁ретельн
▁грам
ллю
off
▁підрозділи
▁включити
▁атмосфера
▁логістичн
▁полегшує
▁рахунка
▁цукров
▁бакалавра
арний
▁спікер
▁вуглецю
▁означало
▁прогресивн
▁викликало
▁салат
▁речення
▁злочину
▁платн
▁Вхід
CT
▁1949
▁відповідально
▁державну
▁колегами
фо
▁Гам
▁тортур
▁миттєво
▁розумієте
▁копій
▁Заверш
язів
▁заборону
Пол
▁сексом
ходах
▁застосовуватися
їсти
▁Гаразд
▁безпрецедентн
▁брюнет
▁концепцію
▁оприлюдн
▁хорошу
▁National
▁борються
▁суперечлив
▁диво
▁Пап
атів
▁гум
▁франк
▁мінлив
▁виготовляються
▁тести
▁вступив
▁сукні
▁щедр
▁телефоном
UT
▁формату
▁четвертий
ИХ
str
▁програмами
▁Інтерв
▁морські
щини
професій
Інвест
▁дошки
▁продовжен
▁онук
▁ID
▁будинках
▁найсильніш
▁ізраїльтян
▁Божих
▁користуються
▁Кре
▁вогні
▁(30
▁Перевірка
▁щасливими
▁Фре
троф
Інтер
▁галерея
▁професіоналів
актор
▁написані
▁їхати
арій
▁Book
▁Чемпіон
▁Уельс
▁Матері
▁Мікро
Ха
▁ранні
▁дитячий
▁подальшої
▁блокчейн
▁небагатьох
▁успішних
▁Віталій
▁Smart
▁партію
▁Бах
▁пропонувати
▁поставки
▁Старш
▁обробляти
▁Watch
▁Кремля
білі
плод
▁погляду
▁густ
▁запитали
няти
відповід
▁Китайський
▁City
▁заклади
ода
▁ендо
▁перейшов
▁родич
манд
▁установами
язан
▁pr
мігрант
▁89
▁Латинськ
▁аварійн
▁витратами
▁вторг
▁Йорк
▁міністерство
тікає
▁Японськ
▁ділянок
▁Шведськ
▁зроблю
▁Cas
▁Юридична
▁складним
▁лісів
▁гідності
іса
▁Лен
OD
▁старших
▁сигарет
▁(26
▁заводі
▁лак
▁складний
конфіденційність
▁Розклад
▁ресторані
Цей
▁знайомі
піл
▁близьк
▁MI
▁Баз
▁центральні
цет
▁сезоні
▁офіси
▁розумний
▁Користувачі
ky
▁біткоїн
▁бактерій
▁грошима
▁Решта
▁місцевому
▁ФА
▁покладатися
бру
сексуал
ища
NO
▁покрив
▁МІ
▁мінерал
▁1942
▁наполеглив
▁Кирил
фей
▁§
юсь
▁продовольч
ff
▁z
▁звіту
▁ОС
▁Весел
▁агентів
НТ
▁координатор
▁пластичн
▁валюта
▁пане
ведених
des
▁судом
▁Законом
▁металів
IX
▁Маск
FE
Наш
▁Бібліотека
▁Хмельницьк
▁кисню
▁коробки
▁швидким
▁оплату
▁мосту
▁зросте
Лю
▁партнерськ
▁силов
гул
▁співробітники
▁Сат
▁солдати
▁масового
▁реальним
▁досягають
кинув
▁вірші
▁трансфер
▁активіст
▁1966
▁Рос
▁літні
PI
-40
BI
▁Австрія
стоя
▁улюблені
▁Відомо
▁зменшен
▁сфер
▁кварталі
▁AT
▁дюйм
хот
▁Угорщини
▁повідомляють
▁допомогло
▁експлуатацію
▁відбуватися
▁вишукан
▁стабільність
▁худ
правда
▁мітки
іями
▁паперів
▁повною
▁склав
▁сучасній
▁складання
▁діяч
▁мут
▁цифра
▁тематичн
інні
▁Адже
▁гумор
▁вибор
▁поліпшен
▁сау
gu
язов
мінг
▁гармонійн
▁будівництві
▁подумайте
▁федерація
▁чіткі
▁стереотип
▁праць
▁паркування
▁славу
▁сильна
овці
▁російській
▁економічному
кг
▁Land
▁достовірн
▁називаємо
ифікація
▁Поп
▁публічного
▁рекомендують
▁тато
▁Каз
Фа
ated
▁додано
ведено
▁етапах
13)
▁переглядати
▁Technology
▁Республіці
▁подібне
▁посилань
▁визнаний
етт
DC
▁Skype
▁порно
▁відданість
▁зросли
▁виконавчий
▁Середньо
▁радості
▁німецькою
юрі
▁боргу
▁Квіт
▁конфлікти
пом
ішим
▁поверхня
ютор
▁аксесуари
▁птахи
▁сайтах
Дії
▁творчі
▁університетськ
▁температуру
▁крихітн
▁Research
▁врожаю
▁приваблює
▁найвищий
▁стовпчик
▁чергов
▁Експорт
▁особі
▁видобутку
▁Принц
▁глобальному
▁зручності
▁додають
▁91
▁повітряний
top
▁струн
2010
гри
▁замовлен
▁жертву
▁сімейного
▁Тю
ект
нею
хім
▁відображають
▁вийшли
▁відмовляється
▁подачі
▁свідків
єднана
▁композиції
▁добрих
▁крізь
▁IBM
▁означають
▁Швейцарськ
▁намистин
Ду
▁здатністю
▁прискорення
▁важким
▁туман
відео
▁прямого
▁Show
▁Золотий
продаж
▁чистим
лоу
▁вигод
звуч
лс
▁HP
ita
▁виділення
▁продає
16)
▁залишають
▁додаткової
увальні
▁Незалежно
КІ
▁Монте
сес
▁затримки
▁Переваги
▁трюк
▁символізує
▁медичне
▁копіювання
▁консолі
▁Чорт
▁робот
▁нетипов
▁комусь
▁Українського
▁мирного
▁накопичення
▁ефір
▁російськими
гей
▁Львівський
▁міжнародною
лор
▁виступив
▁постраждали
▁енергетичних
їжджає
▁колишнім
▁періоди
NT
▁−
▁практичних
▁столицею
▁подолання
▁General
▁заповідник
▁діамант
▁посилити
▁Visa
HE
▁Повна
cal
CU
▁технік
▁Law
▁агента
▁вчений
води
▁Ni
фоб
▁регулярні
▁Reg
▁зміною
▁винагород
▁Піс
▁заміж
▁терапія
▁здоровий
▁Хрест
▁дослід
Наші
ile
ідентифікован
▁Величезн
▁дивовижно
▁PJSC
▁популярних
▁подумав
▁XVII
▁усвідомлення
▁десятків
▁боги
▁очікують
▁кодом
▁службою
олов
La
▁закінчилася
▁Джин
▁Тоні
формація
▁пластиков
▁1917
ets
▁tr
▁Франко
tle
▁Кіт
▁Ром
функціональність
las
▁запропоновані
Нова
▁дорого
▁будує
Пі
▁Firefox
▁Індонезії
▁Мексики
▁захищені
▁призвела
▁служать
▁ізольован
▁одружився
▁експертизи
▁співак
▁всебічн
▁затишн
▁почнуть
▁щит
▁захоплю
▁напрямки
▁точність
que
▁використаний
▁перегляди
унт
▁принципу
▁Гранд
-21
▁ділового
ste
два
реал
продемонструвати
▁Відсутність
▁безкоштовна
▁поранених
▁Сербії
▁сканування
▁заохочувати
▁терапевтичн
рішуч
▁початківців
слан
▁змозі
▁мрію
▁ставиться
▁апарату
III
▁туп
▁рекомендуємо
▁40-
ійського
▁пальців
king
:%
▁собака
▁яєць
▁заявника
стріл
▁смаку
дит
ага
▁бог
▁Забезпечення
▁Застосування
▁астронавт
▁особливих
▁публічних
▁широкі
магістерськ
▁екстрен
▁німецький
▁історій
▁Internet
▁Свобода
▁опору
▁реальністю
▁незаконним
▁балкон
▁Зеленський
▁унікальним
▁Зроби
▁питаннях
▁поясню
▁ча
▁Середній
▁1948
700
▁дилер
▁судів
▁бойові
нн
РАН
▁Зуб
АХ
▁політично
італ
▁зарплату
▁напади
▁Electric
▁xHamster
▁Відтворити
▁багатий
▁кондитерськ
▁одразу
▁втрачати
▁прямим
ι
єднаний
▁стратегій
▁постійних
▁тлумачення
▁підрядник
▁електростанції
▁британських
▁Сезон
▁чип
▁заявивши
▁американським
▁дизайнерів
ємною
токс
МЕ
мбі
гг
▁бідні
рант
▁туру
▁Bar
▁клієнтом
▁плями
оли
▁професійно
ковим
ings
▁світлодіодн
▁одні
▁чекаю
озу
▁Джозеф
▁зіткнення
▁оцінюють
▁попросили
▁речами
▁Подальш
▁конституції
Кожен
▁Візьміть
▁Причина
▁навчилися
писаних
▁престижн
▁міс
льський
енерг
▁пряму
▁секунду
▁тлі
▁посилає
nk
▁1964
образ
▁розділи
експлуат
▁Пала
▁вивчен
IM
▁закінчився
▁Червона
▁коліс
ола
▁схильн
▁різноманітних
▁вивести
▁зібрав
▁реабіліт
Парк
▁CC
view
▁Ейнштейн
▁закупівлі
▁стерлінгів
▁творчих
▁фрукти
▁Завтра
▁зразків
▁екологічні
▁здобуття
▁Олекса
▁економічне
▁рукав
▁малювати
▁боро
▁пакування
▁Обмеження
▁відвідує
▁капсул
▁листі
▁вибрав
▁секції
▁дизайнерськ
▁воля
пок
▁Стратегічн
▁вітальн
▁£
вент
▁банківської
▁DO
▁створюється
▁Мало
[2].
▁Ti
▁Ред
▁оточення
▁картина
▁обговорен
▁екрана
сир
ціль
▁журналістам
НР
▁^
ä
▁Найважливіш
▁кваліфікації
▁материнськ
▁довжини
▁реакцій
▁додатків
▁помідор
▁методами
▁Виконавч
▁спеку
▁акредитован
▁значна
▁малювання
▁Ольга
▁чорт
▁промислового
▁чорним
ene
▁ефективними
їждж
ОП
▁геополітичн
▁вимагається
бес
DR
▁Сах
▁Сліп
▁105
▁Джен
▁платежі
дружні
▁Ірак
▁мирних
▁1950-
▁спеціалізованих
▁перевірте
▁Пав
чність
▁супровод
▁Голлівуд
▁надзвичайних
▁скористайтеся
▁Колишній
▁значень
▁весни
▁внески
▁трафік
▁чистий
▁радіоактивн
0.00
ike
зупин
кладається
▁дивився
свіч
▁готується
Кри
▁посів
▁зорян
▁ціль
падають
▁Вплив
▁Оп
▁Біла
▁Печ
UP
City
▁храму
▁механізму
паков
▁Азія
йтесь
▁пра
▁досконало
▁стандартами
▁(27
здат
▁Білого
католицьк
▁безглузд
▁лондонськ
▁сировини
▁юридичну
▁заморожен
▁окремий
▁репортер
▁причетн
▁супермаркет
▁Young
▁Медичний
▁обертається
▁вирішено
▁якісних
▁швидкої
▁твою
▁лорд
Московськ
▁енергетичного
▁пунктах
▁теперішній
сієї
▁розмова
▁рівняння
▁використана
▁Контракт
▁зміцнити
▁Je
кріплення
шн
Аль
▁пошуки
▁застосунків
▁Res
▁осі
ann
MM
▁Мир
pt
хам
▁do
▁info
Німеччина
▁найдешевш
▁ожиріння
▁особливе
ейл
▁Будівля
▁французькі
▁споріднен
▁Освіта
▁побудував
▁хворим
▁Бел
▁Ринок
▁цифрового
▁особливість
▁вільна
▁поважає
▁біології
▁програмах
▁прихильників
▁початкового
▁батькам
норм
▁милі
LL
Схід
▁навчаються
▁1959
шпи
▁волос
ЛЬ
тично
дд
▁06:
▁посадки
▁платформі
▁відокремлен
▁розрахован
▁натиснути
піль
йшовши
▁пін
▁інформаційно
дера
▁Подробиці
▁Торонто
▁Високий
хор
цензур
▁покупця
▁мішок
▁залізо
▁виступають
▁старіння
▁сином
▁посольства
еваку
▁Теле
інгер
▁PC
▁мандрівник
▁запаси
[1]
▁транзит
▁European
фір
▁ранній
▁Feb
▁Організатор
ліна
▁Блек
▁Західна
▁Кажуть
▁ліквідації
▁флорист
▁Регулярн
▁молодого
▁знаходити
▁теку
уючих
▁складати
▁логічно
oy
дану
▁шукали
▁звані
▁помре
▁почався
▁Rock
▁надійні
▁Лік
тримати
▁просте
▁відповідальні
over
TER
▁рекламних
ованою
скоп
▁365
▁свідомо
time
▁змінюють
вертають
ail
▁Єдин
▁Подія
▁Знай
▁Сін
í
▁метаболізм
▁оголосити
▁ситуацією
▁дискусій
▁медицина
▁мудрості
▁Фотографії
етика
▁тягне
КП
▁середнім
▁Правильн
bu
▁схожа
стре
рада
▁басейну
нськ
▁угодою
tin
▁Працівники
cha
▁ратифік
▁обсягу
ійських
▁виробництвом
▁терас
інгу
▁закладу
▁змінилася
хрест
брид
▁світовим
▁взаємо
▁сферу
стріт
▁Норвегія
▁дізналися
▁унікальних
▁ядерну
▁стовп
▁загальне
▁динамічно
▁Master
▁азіатськ
nes
▁договорів
▁смартфонів
▁свіжі
▁різання
▁червоні
▁наміри
дві
▁акумулятора
▁Per
хард
альному
▁тваринами
мовляти
свіж
Екс
▁SM
алізму
зир
▁виключення
HS
▁бос
for
ase
▁потенційні
▁менеджерів
жила
▁Були
▁бетон
els
▁lo
▁Брюсселі
▁страждань
▁змогла
▁медицині
▁витрачен
▁запалення
▁молода
▁заборонені
▁смуга
▁погоду
принт
чем
▁вдячність
▁виникли
▁Tra
кля
▁араб
▁заповнення
▁заповнен
ійські
▁екстра
сид
▁міська
▁виконан
▁Шрі
▁високому
▁Line
▁незамінн
▁промислові
▁працюєте
eck
елем
▁o
▁Ліван
▁крит
▁необхідної
вет
карпатськ
▁дієта
▁залишили
▁відключ
▁проходила
▁3,5
▁долю
▁Перу
АННЯ
▁медичну
▁потрапили
▁Країни
▁$1
▁довіряє
▁столом
▁Християнськ
VPN
▁художні
вирішен
▁генератор
▁показало
▁інформаційний
▁зазнає
▁інтерфейсу
▁Відмінн
байт
річним
▁чемпіонату
▁повідомляється
▁надходить
▁Дії
їхав
use
▁дзвони
▁збережен
▁поспіша
▁філософськ
▁Медіа
▁чисті
іших
▁культурного
▁коня
1000
▁діями
масової
▁Марокко
▁спирт
▁очок
▁енергійн
▁помирає
▁руйнування
▁Сучасна
▁безпілотн
▁бас
▁відзначається
▁християнства
▁паралельн
▁забувати
слі
▁святих
▁принципом
▁залишилася
▁забрати
▁зосереджена
▁диска
▁внутрішнім
▁надійно
▁Чорно
▁набуває
SD
bb
▁інформаційного
▁доброю
дола
▁Судан
▁богів
сей
sy
▁обережним
▁розпад
Тихоокеанськ
▁Зауважте
▁Спостеріга
▁підтримці
▁флеш
▁заслуговують
▁Читати
▁актуальні
67)
▁надійність
tex
▁адаптації
▁оздоблення
▁фази
SL
▁Your
▁відповідальним
▁Лар
▁водіїв
rr
▁ванна
▁цікавиться
▁Червоного
▁інвестори
▁сприял
▁старим
▁спортивні
▁чарт
▁плануєте
▁ранг
▁науковим
▁наймолодш
pro
▁християнських
вона
▁кредитування
▁Марса
▁акцентом
більше
▁сучасними
▁поділяють
▁змінить
енергетик
▁Єгову
▁Америку
▁Мексиці
▁НЕЗАЛЕЖН
▁сонячного
▁суперечить
▁загинув
▁зсув
▁Плюс
▁визнали
▁злиття
▁Французька
дю
▁Миколаїв
▁впевненим
▁індіан
▁загадков
▁руці
торія
▁виступав
▁однозначн
бас
▁свідомість
▁користувачем
uc
▁яйце
▁Ka
▁нижній
інвест
люди
▁персонажа
▁підключення
DF
LM
▁мамо
▁Dec
▁1955
▁менеджмент
▁побудовано
▁університети
▁максим
▁міри
▁Лай
▁NA
▁випущена
▁кількісн
▁Бразилія
▁Завдання
▁вечерю
▁дозвольте
▁претензій
▁різновид
▁Різдва
▁теоретично
▁Конституція
▁вен
▁пільг
▁залишався
початк
▁сорок
mes
годинн
▁Випуск
ліан
▁фотографію
жити
▁гіпо
▁пуст
▁альянс
водяться
▁Мос
рот
▁Стратегія
ye
дзвон
прем
▁миттєв
▁подальші
ise
брати
▁мусульмани
▁цікавить
▁поміч
▁Ліз
▁залишаючи
▁науці
▁Французький
▁Гри
гів
▁70-
▁експортер
аду
▁космос
▁Outlook
▁юридичним
▁опозиційн
▁білоруськ
▁позичальник
мікс
▁запізн
▁поправки
▁Йосип
▁Степан
▁00:
Тепер
▁швидкодії
▁Їхні
Лу
▁додавати
▁збільшувати
▁Блондинка
▁Вільямс
▁Казахстану
▁наступну
▁мандат
▁синтетичн
іший
▁жіночі
▁спрямованих
▁https
▁юн
▁самогубство
тас
▁Шир
▁носять
▁водних
клич
▁хлопчика
▁NO
▁1920
юн
Щаслив
▁Аравії
▁фортепіано
▁довжину
▁ліжку
▁Крістіан
▁кістки
▁Сір
▁згадує
2008
▁вичерп
км
Com
▁комерційно
▁Міжнародному
▁замовлень
овик
▁Берлін
▁Pol
▁Win
▁позаду
рум
▁240
▁Фан
▁небезпека
▁перекона
▁різним
пара
▁плач
раді
▁республіка
▁ролик
язи
▁SO
ізацією
▁тварина
▁вірою
єднують
▁впала
хвилинн
▁мега
▁плід
▁Комплекс
▁справжніх
▁боюся
▁розглядатися
▁востаннє
▁децентралізації
▁Магазин
▁хардкор
▁підготовці
▁семестр
▁Комерційн
ral
▁багатим
▁пересування
▁зеленого
▁Армія
ссі
▁доступність
▁старшим
язниця
▁судження
▁1962
▁переміщення
▁танцювальн
rit
▁рукою
▁Енергетичн
тина
ling
Comment
▁Баг
люються
▁додала
▁Валь
▁виявило
▁колоніальн
ював
▁рече
▁пропаганди
▁Op
▁альтернативи
▁Індійськ
rea
▁економічно
▁експериментів
▁червоного
ions
▁дивлячись
▁дотримуються
▁виявлені
▁кухню
▁тонко
▁власною
▁забезпечувати
▁огорож
▁сильних
▁проміжн
▁покинули
▁займався
Львів
-22
▁паразит
▁Дні
▁суден
поля
▁зріс
▁Mobile
▁ніс
▁90-
рки
nik
▁паливн
очка
▁правові
являтися
▁звик
роу
ding
▁Детальніш
терапевт
▁підприємництва
▁тридцять
▁французька
▁будівлю
▁вугільн
▁притулок
▁Вивчення
▁армію
▁коротш
▁веснян
▁зупинки
▁забезпеченні
▁двигуни
▁спира
хін
▁технологіями
Моя
▁промислової
▁повернулася
▁установка
▁переконаний
▁повідомленні
▁Pan
▁ювелірн
▁СК
тись
▁наступник
▁вірним
▁язатися
супереч
▁MO
▁встановлених
боро
ляйте
32)
▁скандал
▁ініціатива
часто
site
СЬКА
інгтон
етта
▁пастор
▁відстою
▁найдорожч
▁обмежена
▁порожнин
▁тривоги
▁модифікован
ичними
▁визначили
ОВА
▁зникає
▁лижн
▁80-
АД
Кожного
▁індук
▁Синод
▁стел
▁SEO
▁відомими
рук
▁блондин
▁суміші
▁Афганістану
hen
мивання
НИХ
▁відверто
▁Off
▁дієти
▁оброблен
▁Науково
▁Термінал
язковим
повнюють
▁утворюють
▁слот
▁Йон
▁Першим
морф
IO
кіль
▁гора
▁Залізн
▁починаємо
провадження
▁моєю
писано
▁косметичн
▁французькою
▁обсязі
▁Movie
▁Успіх
▁комунізм
▁соціал
▁визнані
▁студія
▁численними
▁фо
▁Товариство
▁окремими
Сі
▁750
рест
▁виробляється
▁запропоновано
▁1956
▁просять
▁формує
▁називати
▁Чарлі
▁Німецький
▁емоційно
▁вигоди
OW
▁документами
доступ
▁пірат
▁FUIB
▁відіграють
▁потужний
▁прийнята
▁реагує
▁мужність
▁профілактики
▁Отець
▁продають
▁Plus
▁найпоширеніш
▁патріархат
ПК
▁Незалежності
міністром
05.20
Га
▁негативних
▁МБ
▁вірив
fr
тивна
▁Тал
▁замовника
▁дотик
▁лід
▁Міськ
AND
▁корисними
вес
▁палата
▁операторів
чов
▁Чоловіч
▁глобальну
▁труднощами
▁відродження
▁зайняв
▁найдовш
▁виділити
▁спині
▁Індіан
кріплен
носить
▁професіоналізм
▁звуки
ізовані
▁порада
▁розкриває
▁Ватикан
▁народилися
▁дотриманням
▁1%
▁товариств
▁Дуб
кель
▁нормального
▁читають
▁Ніч
▁заборони
її
борг
▁організаціях
Біл
▁виробниками
Wh
▁Кук
помилк
▁довжиною
▁шматки
▁Елемент
▁Балтійськ
▁охорону
▁закриті
▁чорних
алізувати
▁виграш
▁переможе
▁EU
▁Сімейн
люк
Con
▁помічен
▁оповідання
▁Мун
▁аудитор
▁гарантій
▁Спеціальні
особливо
▁Поділ
nce
▁лиж
воло
альт
LP
значення
-24
▁форумі
▁очищен
прет
▁технологічно
+1
▁Бек
тичну
▁Кличко
▁Священн
▁релігію
▁Kyiv
▁майстра
▁страждати
▁лицар
▁Практик
▁подією
▁Знання
▁найвищі
▁медична
▁Store
▁1,2
▁перетворюється
шель
▁розмовляють
▁запал
▁забороняє
▁ускладнення
нера
▁балів
▁знала
▁Отримання
▁балансу
▁дистанційн
▁Гості
▁блоків
▁Рейн
▁1933
▁дзвін
Без
▁вчинен
▁язик
▁Буде
▁ресторану
EF
регулюва
▁рибу
▁виступи
lock
мель
вська
▁контролюють
дизайн
▁міжнародно
▁інститути
пала
▁законним
▁Software
▁Діяльність
▁Наполеон
▁значущ
▁напередодні
▁технічну
▁китайський
▁зіткнутися
▁Club
▁надсилає
▁Дубай
▁ТОП
▁Бір
▁пакету
▁Довідник
▁особливого
▁просунут
▁розвинених
▁вежі
ДР
▁сцену
мод
120
▁тривала
▁міський
рінг
▁Рус
▁Стандартн
▁правоохоронних
▁Карти
▁низької
вой
▁крос
▁передає
van
▁висококваліфік
члена
▁Річ
▁жила
▁працівниками
▁активного
▁DE
mar
:21
▁річці
▁коаліції
▁ненависті
▁стійкості
▁енергією
▁інсульт
▁залишаться
▁трафіку
▁визволення
▁панелей
цил
:25
▁Народився
▁особисте
▁побачення
▁неурядов
кову
щик
▁Спеціальн
get
▁відправляє
надій
eb
▁Останнім
▁Азербайджану
▁модулів
▁морський
▁Back
▁Дур
▁виправдання
▁ресторани
▁Прі
▁Майдан
агент
▁повсякденному
▁температурі
дадуть
▁дебати
▁сіл
ГУ
бук
▁затримання
▁стор
▁сцена
кій
▁Прям
▁подіями
▁Асамблея
▁глобальна
▁переможця
▁французьких
▁Юпітер
▁допомогла
▁Музичн
▁амбітн
икористовувалася
TRA
▁погіршення
ганд
▁куплен
▁Можлив
.4.
▁вміє
▁мон
▁Core
▁відповідність
▁акти
рал
▁Анг
▁2.0
▁Показувати
▁поганим
▁Мов
▁докторськ
▁подальших
▁шоколаду
Щ
▁дано
▁Нар
▁стелі
▁урядів
▁безлад
тягування
▁Lu
▁низькою
▁кордоні
ЕЛ
лювала
▁смуги
яного
▁галузь
▁музичних
▁найкращою
▁податкового
▁порятунку
▁навігації
▁вечеря
▁Нього
▁шкірою
порядку
▁ухвал
▁Золото
▁продуктивність
oss
▁Потужність
▁помилково
▁зіграв
▁департаменту
ars
ond
▁ризиками
▁відчув
▁Малі
▁територіальної
▁is
МП
бун
▁Форд
наук
▁названа
▁якісні
▁Пін
▁ніде
ria
пошкоджен
аційного
▁виноград
▁істоти
▁дозування
▁опублікована
▁том
▁Boeing
▁відзначають
▁кишені
▁німецьким
▁розслаблен
▁Теорія
▁технологією
▁відбутися
▁ядерного
▁пустелі
▁Бос
▁залізниці
An
▁mo
▁морально
▁розпізнати
▁Королева
▁подібний
▁користування
ips
▁сестер
▁2030
▁журі
▁космосі
▁таборі
ицький
▁купи
15)
▁тесту
▁Ів
▁більших
▁AI
▁попередньої
▁приміщеннях
—18
▁діри
▁опубліковано
▁кавов
бург
текст
▁перенос
▁Тома
зувати
▁експерименти
▁видавництв
▁Керівництво
▁Переглянути
▁етнічних
▁застосуванні
▁стажування
▁врожай
▁переглядач
▁забудьте
▁заручин
▁казали
▁оборот
now
▁згоден
▁вилікувати
▁цілісність
▁носія
▁матерії
▁ПЕР
▁монстр
▁слухання
:22
▁середню
▁Будапешт
▁імідж
als
▁Лес
▁респондентів
▁доступом
▁продається
▁підтриман
lect
▁ознакою
Підтрим
вард
▁аква
▁iPad
▁Режисер
▁китайської
▁норвезьк
▁спостерігали
▁Жоден
▁кролик
▁наголосив
▁подивимося
▁навесні
▁концептуальн
▁зразки
▁терористів
▁погодитися
▁правозахисн
▁Умови
▁Кул
part
▁перебував
▁стенд
просто
▁Aug
вач
склад
▁світовому
даг
▁опублікований
Срібн
▁СО
чкою
▁Ліги
▁навчально
▁реліз
▁ліга
▁періодичн
▁духом
▁написаний
▁боб
LT
АП
Вір
▁Studio
▁наміру
▁поглиблен
▁установок
▁найвідоміших
▁очікує
▁Ква
штейн
▁1919
▁кас
▁передові
▁перевагою
nu
▁улюблений
▁сигнали
ича
▁битві
▁виходити
єднань
▁технічним
▁публічні
▁стрічки
▁ефективне
▁Маркс
▁інтервал
▁здаються
▁Оновлення
▁Організ
▁Week
▁фігури
▁співати
▁вміння
меться
▁Records
відповідальністю
▁тестов
часті
▁Якість
▁фахівцями
Центр
▁приватної
▁продуктах
▁латин
▁купуєте
▁духовного
▁органі
ИТ
▁слухач
ріан
sign
▁Заході
BE
FT
▁Che
▁Рон
▁Додано
▁Спеціальна
▁холодної
▁рухів
гуманітарн
▁щомісячн
ізований
▁румунськ
▁EN
rad
▁автоматичного
ym
▁Черн
ручник
▁виключити
ізатор
99)
7,5
▁ванни
▁вірите
радіо
▁наукова
чому
▁Давай
▁Gra
▁навколишні
▁Мобільн
тус
▁посту
даного
▁Стамбул
▁мертвий
▁чотирма
▁інвалідів
▁українське
▁грузинськ
▁Space
▁Мойсей
▁шторм
▁кимось
gg
▁екології
▁кав
▁приватному
sky
▁зняв
ВО
▁політичним
▁населенням
ючий
ФА
глин
▁горах
цької
▁ставляться
vis
маш
▁виборчих
▁поширювати
93)
▁оборону
▁танці
▁катастрофічн
▁медик
нуло
ML
▁маркетингових
▁володіти
▁дозволять
▁терпіти
▁регістр
▁тривають
▁перебувати
▁включали
▁Alfa
▁комбінован
▁спрямований
▁затоки
▁Григор
▁відрізнятися
▁спеціальністю
▁комір
▁воєн
▁висоту
задовго
▁героїв
▁театрі
денна
inter
▁багажу
▁Сільськ
▁керуюч
any
▁республік
30)
▁воїн
уїн
▁Аф
▁сексуально
▁полів
▁Раб
▁поживн
▁Військово
ТК
▁клінічних
▁тісн
давши
оц
▁їде
WA
ПЕ
муться
люкс
яття
▁союзники
▁Фахівці
▁колекцію
▁останньому
▁третьому
▁узбережжі
▁Excel
▁Концерт
▁дизельн
ходила
▁ультразвуков
▁мешка
оста
▁геологічн
▁психічного
▁постачальником
▁родовищ
▁станцію
кварт
новий
▁обрані
Європейськ
▁живим
чання
▁Кет
Кол
▁молочної
лама
▁учасником
▁координат
дзе
АРТ
анці
▁1900
ологію
мислив
▁відходи
логії
▁обговорювали
кинула
▁Аллаха
▁зустріне
фото
битий
▁дружин
▁інформ
ЛЯ
▁спеціаліста
▁Північний
мудр
▁Кейт
▁Тимошенко
▁коефіцієнт
▁майбутньої
▁музикою
▁низьку
▁сюрприз
▁Кухня
▁МВт
▁одружитися
▁правдою
▁пірамід
▁тренувань
▁придатні
uch
▁вищого
▁індивідуальний
▁творчість
▁світлом
янки
▁найбільшого
▁серверів
▁юристів
nia
▁vi
▁темні
▁ураження
▁Systems
/4
▁Абу
▁подальшому
▁скласти
▁Бла
▁якісно
▁протоколу
ОС
▁нерівн
-23
py
офф
▁WordPress
▁Швидкість
▁відношенню
▁підтвердили
▁ціноутворення
▁вивчають
▁Green
▁ідеєю
ифікації
▁спеціальну
язком
▁бенкет
▁напрямках
▁Почесн
▁пропорційн
▁Ідеальн
являться
ерг
▁Фін
▁Денис
▁настільн
▁спис
ологічні
▁Зал
sch
▁троє
▁розумно
▁запасів
UK
ship
ізує
▁1953
▁Дик
▁етапів
▁протесту
0).
▁буває
▁продавця
орош
TF
▁Арі
клала
баш
▁Документ
зірков
НОВ
іці
fin
▁Виклик
▁українсько
▁Суб
▁масивн
▁Узбекистан
▁життю
▁жорстоко
▁Матвія
▁хворого
▁видалити
▁Різниця
▁специфікації
▁резервуар
▁незвичн
▁збереже
▁різниці
▁листування
▁щоденник
▁СНІД
▁МЕ
фашист
▁списки
▁Іль
▁поточну
▁упередження
▁нормативно
▁коней
▁систематично
▁1958
▁продаються
UL
▁малий
ятає
▁кадр
▁190
EP
▁стад
▁покращити
▁бога
▁Sl
▁галактики
ллер
▁роботодавця
▁визначених
▁горщик
▁Брат
▁ділиться
▁Азовськ
▁тривимірн
▁ввів
▁Гла
vision
числ
▁СНД
овець
змін
▁Інше
▁Best
▁відкласти
▁Глава
діль
▁Браян
▁1932
▁європейським
ійні
▁відновлюваної
▁сайтом
▁розумним
ration
▁сертифікати
аційна
▁космосу
From
:23
▁еліт
летів
▁ch
▁кори
▁серіалу
▁Була
▁Uni
▁Вавилон
▁глибокі
▁глобальне
▁заохочення
▁нововведення
▁домовилися
▁завантажити
▁серцевих
▁корисний
▁Human
▁єдину
▁середні
▁республіканськ
▁Ряд
▁Nord
▁правляч
▁МК
▁Cha
▁приєдналися
Ця
▁утримує
ott
нко
▁історично
▁складає
▁Край
44)
▁столов
▁Шість
▁допоможемо
очок
▁суть
▁корм
провод
▁Університеті
▁забагато
VE
▁туристичних
зька
▁шуму
▁відповіли
▁заощадити
▁податкові
▁сидяч
▁торговий
▁лежать
лагодити
▁зазнають
▁користувачами
▁Сатана
▁островах
▁робітнич
▁ПРИ
▁передбачення
▁ідеологічн
джує
▁зворотного
▁одними
wo
▁забезпеченням
▁шифрування
▁шукав
▁BA
▁Оль
перш
▁дрібних
▁стартап
▁законно
▁Населення
▁керівника
лактичн
▁інформує
▁1957
zh
▁родиною
▁останніми
▁ест
право
▁щоденні
qui
кіл
Me
▁життів
▁переживає
ella
писати
▁Донецької
▁Sport
▁воскрес
▁гепатит
▁демонстрації
▁застосован
▁низька
▁Улюблен
▁Вінтаж
▁єдиної
▁коректн
▁Режим
▁трансляції
▁скелі
▁Інструменти
▁Роуз
дівчин
▁табору
▁поліс
▁Єрусалимі
▁вступити
▁Найбільший
▁просторов
▁трас
▁фальшив
▁переворот
▁пожежі
!!
▁Фла
▁Барр
▁коментаря
▁перевида
▁повторно
▁дорогою
перт
▁родині
UI
▁формах
▁витрачають
▁Східна
ріум
▁інфляції
▁дотримується
▁Коротко
▁Model
▁версій
▁сподіваються
▁відбору
ссон
▁1-2
▁▫
▁важка
▁напрям
▁Гейтс
▁розгортання
▁любили
▁Донбас
Св
▁підозрюван
▁1954
▁базуються
▁посадов
уляції
▁Алан
DM
▁медичним
▁цінним
▁Дов
▁мило
▁Ver
▁знаків
▁сни
▁розпаду
▁Gi
%)
▁Молоді
▁змінила
▁Червоні
дале
ціни
дек
▁Оскар
оплачуван
▁трапляються
▁всередину
▁довгих
▁міркування
▁Весілля
▁Motor
[11]
▁московськ
▁коробка
▁серйозним
▁незалежний
▁замерз
▁акціонерів
Бер
▁культив
FF
▁акторськ
▁центральної
▁хмарн
▁наркотиками
▁громадський
слухати
▁наступної
▁зборів
▁Експерти
▁реальний
▁точності
▁Квітка
:28
▁5)
▁розірв
дир
▁знижує
нізм
▁простори
▁високими
▁обмежено
▁побічних
▁закінчили
▁Рож
▁захистом
▁рос
▁Південного
▁Щорічн
21)
технічна
▁каталогу
літератур
▁Сух
▁додавши
▁Студент
▁частки
▁Льюїс
▁збираюся
▁спричинити
▁вузлів
▁підлітки
ростають
▁акваріум
луг
▁зростанням
▁студійн
▁зазначені
оспроможності
▁громаді
ata
▁необхідною
▁Визнач
нському
▁історичного
▁парад
▁низ
▁Символ
ству
▁принесли
конференції
річних
▁відчуваємо
▁молекул
▁каб
▁відчуваєш
рська
sia
сол
▁будівельні
Лк
▁передбачають
▁сухо
▁виявила
АЦІЇ
▁Львівська
▁відкривати
▁поштовх
▁Вас
▁бійся
направлен
back
▁Вене
▁Оцін
▁дружби
▁зберегли
▁музичний
▁практичним
▁йшли
▁публікацій
▁дешеві
▁уже
▁передчасн
▁матерів
▁проходити
fer
ренд
▁стартов
Псалм
▁військовими
▁Service
▁матеріально
▁поточної
ele
▁проводили
▁Джорджа
кімнатн
▁Навчальн
▁океані
шук
▁Містер
ств
▁зонд
губ
▁живопису
▁Мексика
▁радянського
▁хром
▁культ
ö
▁прийшло
▁найпотужніш
▁репродуктивн
▁стороною
▁освічен
▁вимагали
▁площин
▁миротворч
▁Директиви
▁обговорює
▁Космічн
▁гірнич
▁кузов
▁Місцев
▁заперечення
▁нагородження
▁меморіал
ski
▁частинки
▁дебют
▁Real
▁введіть
▁національними
ros
чиня
▁Bi
▁важливіше
▁дисципліни
▁посол
▁RO
▁Кав
▁складових
▁окупованих
▁Різдвян
фіз
Будь
▁платформою
спорт
▁спеціальної
▁персоналом
▁Альп
▁зацікави
▁доби
▁приймаються
▁виробничі
gan
▁рослина
▁вакуум
▁археологічн
▁Запоріжжя
▁Зрозуміло
▁півроку
▁організовує
▁білків
▁регулюють
▁Вчора
▁сучасну
▁кісток
РС
▁стояв
терпим
▁СТАР
хаус
▁британські
val
▁відкривається
окси
різного
2009
▁обсяги
▁Кх
▁Же
▁садів
також
▁тісні
Пар
▁Новій
▁скрипт
▁Гуд
▁позбавлення
▁педагог
▁продовжувала
▁відстав
оскоп
▁Бред
-35
▁Альбом
▁діло
▁Plan
▁виготовлений
▁алкогольн
▁національній
▁королеви
▁пристрасть
▁холдинг
▁комбінації
▁МВС
▁Благодійн
▁ультра
▁гарячі
▁Program
MB
▁вузла
▁Замок
▁Третя
▁Загальний
дня
▁Ремонт
▁незалежною
▁множин
▁робочу
▁основну
▁магістр
▁штаті
піс
▁наближення
▁засновано
▁Роль
▁Данил
▁se
▁боргів
▁5%
поверхов
фун
Міс
▁супутників
ole
▁відвідувачі
▁роби
att
▁Сей
інформ
▁надасть
▁групах
▁Лілі
▁Ля
▁Sur
FM
▁AD
▁GT
африканськ
RAM
▁органам
▁VIP
▁Bio
▁Болгарія
▁комерційні
▁пляшки
▁Кімната
▁трансформації
Запорізьк
▁дорослим
▁невідкладн
▁прозорості
▁тканина
33)
▁повторення
▁Реалізація
ндустр
Вегас
FO
▁інвесторам
транспорт
:45
▁юридичного
▁шип
▁стародавні
▁Конс
▁Типи
тест
порядков
▁поїздів
монопол
ографію
▁Ліс
▁Брун
▁виключен
титу
▁спробі
▁успіхом
▁потужно
▁Союзі
FOR
▁барабан
▁законодавчо
▁Energy
▁Шаблон
▁бактерії
▁канцлер
▁етнічно
▁здобула
▁втекли
▁утиліт
▁абонент
▁Заява
▁наближається
▁Берез
▁бригад
▁Кінець
▁Мерк
▁купили
▁підрив
▁встиг
▁кардіо
▁розташоване
▁Мані
▁вживає
▁місій
торгова
▁дзеркало
▁кілометр
▁битися
▁мілі
▁вежа
ush
▁CH
вель
РТ
▁×
айл
▁розкрит
▁немовля
▁дешевше
KA
тривож
▁Кут
▁звітів
▁Структура
▁Популярні
ологи
▁врятував
▁гравітаційн
▁концентрація
▁напруги
▁представила
▁підтримували
▁низькі
▁очолює
▁таємниця
▁Квін
▁лісу
▁патрон
▁готовності
▁Forex
▁Еф
▁Хат
▁членам
▁триватиме
▁основної
ятнадцять
▁Орден
▁API
▁забарвлення
▁реформу
▁випускає
▁антен
rop
▁вищезазначен
▁незалежної
▁Центрального
▁нафто
▁колонії
▁головну
ries
молодший
язують
Ди
▁Агро
ize
▁викликали
ресурс
Молод
ифікацію
▁Держава
▁АТО
▁активами
▁професійним
▁115
bit
клітин
▁анекс
▁надіслано
gh
Пе
▁роботів
▁фронту
▁вихідних
лез
чить
бус
ml
▁старші
af
▁Sex
Нафтогаз
▁муніципалітет
▁соняшник
▁світогляд
▁поїхати
▁розгром
cam
▁Сторона
▁Біль
▁здійснив
▁Бро
▁Примітка
▁бажаючи
▁перерахован
▁рухаються
ючого
▁отримано
▁1929
▁Port
▁ТВ
:6
▁дехто
▁народних
▁хворобою
▁LG
опе
▁гарантія
▁Східного
▁дизайні
▁прокуратур
▁екрану
▁Хей
▁літери
▁підприємствами
▁формують
народ
▁йди
▁Конго
тос
▁зібрали
▁арбітраж
▁строго
▁учасникам
▁Форм
▁альтернатива
▁каль
eu
▁частоти
▁традиційним
▁вірусу
ійців
▁фруктов
▁Ісландії
▁інспекції
▁польських
▁посміх
▁організована
▁попередив
▁змушують
▁Team
▁стяг
▁запальн
▁статистика
▁Fa
ont
▁Log
вського
▁кредитор
cu
▁Загальн
▁точкою
▁Кремль
▁заліза
▁Софія
▁релігійної
олу
▁кримінальних
карб
▁Str
▁CV
▁котів
▁Гонконг
стик
▁Бон
▁Центрально
▁пакети
▁Зробити
▁використовувала
▁Гло
▁SH
ютером
▁тіні
▁Tur
сигн
виконання
▁громадянської
ґрунт
▁дошка
▁акту
▁рейсу
▁Британський
▁бомби
▁значного
▁твоїм
▁Fashion
▁вказівник
▁гармонії
▁круїз
▁німецька
▁Лінкольн
▁повагою
▁абзац
нських
▁Імпорт
▁змістовн
▁пальця
▁піку
▁практикою
▁певному
▁секунди
▁чекали
гру
▁Вайт
▁описують
▁виконавчої
▁викладачів
коч
▁контур
▁Старі
▁параметрами
▁Панель
▁трактор
▁текстів
ЦІЯ
▁обійма
▁суспільством
▁гастро
▁комет
▁прийме
▁Дніпр
▁Цілі
▁нинішньо
▁другою
▁знайдений
▁портів
cre
давалися
▁керував
овського
▁штабу
▁запущений
ega
▁піч
чці
ments
книг
press
авто
SO
▁приготувати
ОМУ
2,5
▁розвиває
▁Луцьк
▁Інструкція
▁конвенція
▁одружу
▁пообіцяв
▁рецензії
▁увімкнути
▁герой
▁хвилюйся
▁спецслужб
▁Токіо
▁дівчиною
▁Автобус
▁включений
▁плодів
▁Академічн
▁демократичні
ura
▁можлива
▁розмовляв
▁руд
біль
zer
▁фінансовими
▁дванадцять
▁Прямий
▁підуть
▁Американські
кладаються
▁погана
▁брала
▁Кодексу
ЕКС
▁Результат
зував
▁розподілен
▁Хреста
кори
▁вважаєте
▁перешкоди
рух
леп
▁Карпат
замін
▁розумних
терапії
-50
▁Чорноморськ
сма
▁фондов
фільм
▁Бостон
▁завантажен
▁давні
уйся
▁''
▁братом
ric
вело
▁двигуном
абстракт
▁Дівчата
▁потужним
▁реагують
▁Наявність
▁міграції
▁ізоляції
▁Гаряча
▁алергічн
▁здогад
▁любиш
▁Мистецтво
▁Ukr
97)
▁перевіряти
▁волонтерів
▁зустрілися
▁Char
носити
▁Обами
▁Ніко
женні
▁Pla
▁завдає
key
NET
▁програміст
ology
▁побічні
теле
▁нано
▁підрозділу
▁піднятися
▁видається
лене
▁запитує
ama
▁Now
▁єдині
стичний
▁сказавши
▁розробив
▁залишки
▁ПМ
▁жертвами
ьні
▁сіль
ЗНАЧ
▁Magazine
▁Враховуючи
▁Рецензії
▁динозавр
▁запропонувала
▁корумпован
▁інсулін
▁намагалася
▁придатності
▁провінція
▁звертається
▁гілки
▁Дорогі
▁човна
▁зворотний
▁інфраструктуру
▁гуманітарних
▁чорна
Даниїл
▁згадував
▁мітинг
кцій
▁Кло
▁привод
▁Food
▁побудова
▁перевіряє
▁доцільно
▁канонічн
▁точці
▁використовува
▁нині
▁країнам
▁забруднен
правильному
▁вічне
▁критику
▁Коста
їхали
ологічних
▁генів
han
▁маса
Російськ
Після
▁незалежного
вимірн
▁музеїв
▁викраден
2/
дл
▁однаковим
▁наказом
▁битва
▁2500
Ну
▁Ph
▁Джеймса
▁вокал
▁Sk
▁глава
▁розширює
rt
мовлення
▁Стін
▁придбав
▁Барак
▁Глибок
▁Пентагон
▁багатих
▁муніципальн
▁хороших
▁відстеження
▁навичками
▁загублен
▁Таблиця
▁відправки
▁застосуванням
▁Чан
▁червоним
▁примірник
▁договори
▁сукня
▁ділові
▁Cor
▁Західній
онт
▁настрої
▁встановлюється
єднатися
▁жест
▁запобігає
Май
▁Лор
▁негативний
▁Легко
▁вбивають
МИ
▁домашнім
Велика
▁доказом
ційних
▁ідеями
Північ
▁біблійні
▁виробляються
▁ящик
cent
▁стіну
▁промови
Book
101
арна
▁підключен
▁постачає
▁пози
▁Кларк
▁південному
▁недолік
▁варен
▁Допоможіть
▁Хорватії
▁Комуністичн
▁поводження
▁Основною
▁ногами
▁скоєн
▁електромагнітн
▁мученик
▁мексиканськ
▁висловили
справжньому
▁Flash
▁змінюватися
ode
▁Колись
▁Пісня
▁пробіг
ологічний
▁спортивний
▁обіцянки
▁Наука
андер
▁трикутник
▁1936
УМ
▁перерв
▁90%
▁задоволенням
▁публіку
▁шален
▁1930-
▁LI
:24
▁Get
▁Big
▁папері
▁бідним
▁40%
▁Поган
rum
▁розваги
гати
▁Станіслав
▁брехні
▁поведінкою
▁солідарності
▁бразильськ
▁Кожне
▁китайського
▁міграційн
▁Культура
▁читали
▁потрапляють
▁трибунал
▁мур
▁функціонально
ury
ерсон
▁плакати
▁звичайна
▁Чар
▁Лінія
▁сприймає
▁Sch
▁поява
▁кваліфікаційн
▁грудн
▁Реєстр
СО
▁Cam
▁їздити
вернути
▁хобі
▁власній
▁зменшують
▁буря
▁танець
tre
▁літній
алл
майдан
▁(4)
▁політичними
▁виконана
▁Bur
▁мандрівників
▁Близького
▁Проекти
одно
▁10:00
▁(50
▁документі
ου
▁Mercedes
▁завгодно
▁обробляє
▁широке
▁гаряча
▁Молдова
▁справжньою
▁скоротити
▁погоджуєтеся
▁звідси
▁Людськ
▁супроводжується
▁впали
▁Десять
▁майстерності
▁спорів
▁присвячені
▁Оберіть
▁подальше
▁певною
63)
▁данськ
▁масових
Чер
▁енергетичні
▁раси
▁вертикально
елло
Читай
Тер
▁Права
вантаження
vent
▁Звук
▁переходить
▁торгово
спіл
▁Студ
▁ініціативу
друг
let
▁горд
ратив
▁красиво
▁Nu
▁черевики
▁передаються
▁вітро
▁зареєстровані
язковою
Економічн
lit
▁начальника
кладений
помаранчев
▁Explorer
▁Tesla
▁волокна
▁корупцію
▁прізвище
▁французьким
▁Полтавськ
▁преміум
▁uah
▁одноразов
▁визнана
▁Менеджер
▁цілями
▁заснованих
▁порушують
▁українцям
▁пораду
▁папери
▁прибувають
продукти
▁дзвінок
водили
▁ефективною
▁et
▁акціонерн
▁коштувати
фро
▁тінь
▁ключів
ody
DO
▁фаза
▁рай
▁давніх
▁палат
▁Лідер
▁залишен
▁військами
▁жіночого
105
▁зареєстрований
▁парламентських
Фе
▁аргументи
▁привид
ific
ney
▁ідеолог
cur
▁малюк
▁лінз
▁практичного
▁руйнує
▁футболіст
ember
▁Порівняйте
▁задовольняє
▁нержавіюч
▁територією
▁європейська
▁книжку
▁підказки
▁ураган
близнюк
news
▁сподівався
▁шкірі
▁малюнок
▁теракт
▁Year
▁керівники
▁SS
▁піднімається
▁Далек
▁Мад
▁посольство
▁схож
▁Дер
рб
запрошен
▁112
▁сертифікатів
▁подавати
▁Пак
▁загальному
▁Вступ
таун
▁Дис
▁фізіологічн
▁80%
▁завершує
фія
▁одягнен
плення
▁po
▁1934
варт
▁клініка
▁складність
▁серійн
▁публічної
▁Def
▁змусил
▁виконанням
тінг
▁PM
▁Тол
▁зможу
▁академік
▁несанкціонован
▁кнопкою
▁старійшин
▁трейлер
▁оргазм
▁Молдови
▁виграли
▁Подвійн
▁Соціальна
▁делегат
▁Меблі
▁Ніл
▁турніру
▁посеред
▁Дік
▁рятувальн
▁Рен
▁фокусується
▁відкритими
▁Mini
▁розпал
▁кінь
▁Договір
ara
▁кадров
▁чує
▁SD
будувати
▁науку
всі
▁рису
▁1937
▁кинув
▁націй
▁проведена
▁культурою
▁рівність
▁аспектах
▁відсотков
▁30%
мітка
▁вірусів
▁Сві
lon
▁місцями
▁боків
▁бокс
▁маз
▁поклик
▁вбиті
ляти
ats
▁капелюх
▁князів
ü
Використовується
нутрішнє
▁Тимофія
▁УГКЦ
▁Швидко
▁Карибськ
▁приладів
▁Джессі
▁призначених
▁Весільн
▁битв
▁первісн
▁експонат
▁Грузія
▁зелених
▁залежати
▁викликані
▁Night
▁денний
чев
To
▁грою
▁Давида
▁1938
Ал
stra
▁Сніг
▁заявок
▁закріплен
▁миття
атором
оксин
▁Stra
▁курити
▁переважн
▁степ
▁можливого
хоча
▁лот
▁турботи
▁фінськ
▁Водо
▁кислота
СЬКИЙ
▁менших
▁редактора
▁витримати
▁Чорна
▁арбітражн
▁сусідньо
цькі
▁культурний
▁декількома
▁найвищого
▁завершена
▁Toyota
▁Прогноз
▁електроніки
▁дискусія
▁Пласт
▁максимальний
▁державах
ауер
▁Меркель
▁регіональної
▁128
▁формулювання
CM
биває
стратег
▁житлового
▁Брод
▁бідність
▁званий
▁домену
▁інженерія
▁Військові
мід
▁довідник
▁зміцн
RU
110
▁Служ
▁тисячу
▁спільноті
box
▁Угорщина
▁Лавр
iber
▁віруюч
▁чистого
▁важкої
вірус
▁випробуван
▁Місцеві
▁віддав
▁електронна
▁Святої
▁приймач
▁звернен
▁готовим
▁фонди
робивши
▁платить
▁ХХ
28)
dom
▁Північн
▁Художн
заснов
▁Розташован
▁Development
▁Барселоні
▁мальовнич
▁ненависть
▁найуспішніш
▁побудували
▁каменю
▁людська
▁білизн
▁Nokia
▁наслідувати
▁поверсі
▁втруча
▁десерт
міль
▁Люби
▁надійності
▁доступною
▁масштабі
ифікацій
▁неминуче
▁книгою
▁Дем
▁розробника
▁лихо
▁Іст
йзер
▁клубів
▁матеріалами
▁викликав
▁досягнуто
▁(32
▁француз
▁Ju
▁Спорт
IV
▁структурі
▁приватним
▁Жир
▁зосереджу
▁мак
▁чинити
▁органах
плід
sm
▁Джулі
Гра
▁чоловікові
▁1.2
▁насильницьк
▁гріха
▁стандартних
спів
алізацію
▁копія
коло
▁КУ
▁Зверніть
▁пішохідн
▁революцію
▁розпочато
▁крісло
▁помітити
▁алмаз
▁звичаї
шков
▁Франк
▁виконуючи
▁тричі
▁Sha
▁певними
▁переконайтеся
їл
▁гідність
▁Vol
▁Макрон
ТІВ
▁страва
▁Єдиний
бей
▁негайн
▁даючи
GP
лячи
▁успішними
▁Ріо
▁дозвілля
▁старше
▁захоплює
▁прогнози
▁необхідного
Активн
▁Потрібно
▁планом
▁пакт
▁світову
Сп
▁пропустити
EO
▁поїздом
метров
Буд
охо
уючий
▁заможн
▁представником
▁запрошує
▁діла
▁Вікна
▁Пані
▁збільшенням
▁образи
▁ФК
▁здорових
▁корисною
сман
суспільн
▁газон
▁пором
▁кілограм
▁Гройсман
▁коротких
▁отримували
▁рекомендація
▁стратегічні
▁досконалі
▁свідком
▁споживати
▁Чехія
▁мертві
▁стверджувати
▁Capital
▁кінотеатр
▁патоген
▁Class
▁мусять
lot
▁успішної
▁трильйон
▁цифровий
▁перс
▁Бейб
▁постача
▁змінився
Джерсі
▁Дель
3/
служб
▁повідомленням
▁Період
▁навчався
▁Еко
▁фабрика
▁досягати
нструк
▁Цивільн
▁триматися
▁Ass
▁приватно
ходжу
▁максимального
▁зразка
tel
▁британським
▁тарифів
▁Змін
▁хліба
▁модулі
▁еко
▁шахрайств
▁6000
▁Кеннеді
▁внутрішню
▁окрузі
▁функцією
▁фізичний
▁партією
▁Успішн
▁сучасне
▁підходів
▁Одне
▁речник
▁Роботи
▁статистично
▁Марка
▁Sim
▁видален
▁особливими
▁живете
▁перебували
▁закритий
тримуйте
▁вважатися
▁торгового
шся
▁кабель
▁рядків
▁створенням
▁незалежними
ишся
▁сильного
Найкращий
▁Джейн
▁Pay
▁Габ
▁порожні
▁масу
▁Спільне
сос
▁унікально
▁морем
ique
▁розтяг
▁лідерство
траль
▁підйому
тримав
▁стіні
▁штам
▁сприймати
▁Луганської
▁Нижн
/10
▁доповнен
▁текстильн
хал
▁Good
à
▁Варшаві
▁Маркетинг
▁непередбачуван
▁розробляють
▁європейському
▁Посольство
▁підприємницьк
▁еластичн
AI
▁Solar
▁Відкритий
▁Конференції
▁вільними
▁сукупн
▁Mag
▁навчанні
▁Харкова
▁↑
▁ванн
▁передається
▁зареєстрованих
2002
▁прочитан
▁експертами
▁Методи
▁Гілл
▁сади
bus
▁резидент
▁основ
▁Сид
лиш
CL
▁Lab
oz
▁Митн
▁збірки
▁звільня
▁Пед
електро
ull
десят
▁справами
▁блоки
▁Men
бах
▁уражен
▁Стен
▁του
▁яскравим
▁Центральній
▁портфель
▁Королівство
▁засмучен
▁комісій
▁вивчав
▁поезії
▁цікава
▁обраних
▁бачила
дак
▁Моделі
ггі
▁Пристрій
Час
Soft
▁розробок
▁сміх
▁розглядали
▁танків
▁спільноту
▁едем
рейд
сподарської
▁вантажівок
▁вбито
▁пацієнтам
▁найман
▁подає
▁1952
нічний
AU
▁UNI
TT
▁Будівельн
▁автомобільних
▁колишні
▁визначаються
італійськ
jo
olo
▁бренди
▁теперішн
▁традиційний
▁працівникам
СД
АБ
▁Нікола
▁загостр
▁депресію
▁засуджений
▁комерційний
▁обговорили
▁становили
▁Транспортн
▁кодування
▁полум
▁аудиторію
▁конкурувати
▁підтримуємо
▁Med
▁провідний
arm
пам
▁заслуги
чать
ense
▁запитують
▁Міжнародним
Рим
▁Ним
звичайно
▁рекламні
▁наглядом
▁жіночий
▁зустрівся
▁фермерів
▁OP
▁Надзвичайн
▁здобут
▁Виробник
▁Прийма
▁Брюс
▁кредитні
Зелен
кевич
цип
▁MH
++
▁Flo
▁патріарх
▁Гора
▁Limited
▁Боротьба
▁конкретний
▁оцінювання
▁пристосован
▁півострова
▁невеликою
▁придатний
▁ведуч
▁порівняльн
▁минулих
ipp
▁скажи
▁розширюва
▁Мішель
▁рівних
ham
▁література
▁звикли
▁власністю
ТИЧ
▁оновити
▁записувати
▁гендер
▁пріоритетом
крап
▁обіцян
▁поділу
▁Королівський
▁споживачам
▁подив
sis
▁вимагав
асоці
▁вільне
кладена
край
▁подорожує
▁красиві
22)
▁перспектива
▁Ката
▁Hi
▁транспортним
▁Тіло
kin
▁Wa
▁менший
▁(+
лло
▁Factory
▁XHamster
▁Майбутнє
▁розмноження
▁спостерігав
▁Голодомор
▁правильну
▁вважалося
▁Остаточн
▁здібностей
▁звільнений
▁вологість
▁довгим
▁максимальну
▁зцілення
конденс
▁японські
▁радар
полягала
ілля
▁Сенат
▁місцевість
▁міток
▁центральний
▁102
▁міські
Стар
▁відвідувач
▁інструментами
mit
▁діапазону
▁АК
▁закордонн
▁ad
▁холестерину
▁проспект
▁альбомів
▁стилів
▁1800
▁склала
джет
▁університетах
фарб
▁відділів
▁Георг
▁крах
▁зоря
▁камені
▁міністром
▁інженерних
▁Jan
▁труд
▁блогу
▁підписано
▁kde
▁інвалідн
▁Стара
біж
▁Лібер
▁галузев
▁найцікавіш
▁свідоцтв
▁Варшавськ
▁таблетки
▁прибутково
▁залишалася
▁царства
▁російському
▁купон
▁соціальними
Вона
▁склали
▁Max
▁Опубліковано
▁дрібні
▁ГБ
▁te
▁вітаємо
▁екстракт
▁циліндр
алісти
▁Бой
резидент
▁1935
sen
▁депутати
▁Enterprise
cs
▁вимогу
▁дорожч
▁розміщувати
▁XV
▁вітчизняних
куб
▁індивідуальних
▁Гонконгу
▁офіційною
▁накази
▁складна
▁засноване
найважч
госп
▁небезпек
▁стрільби
▁доповн
Податков
Закон
VC
▁цирк
ерія
▁Bra
сцен
▁болгарськ
▁Концепція
▁меморандум
▁прагнути
▁ранньому
▁рівноваги
▁духовних
▁виплачу
▁бабуся
▁консульств
▁захопили
▁Casino
▁англомовн
▁дорогах
▁суворі
▁відмовилася
▁відбив
▁черзі
▁блогер
дане
▁слабкі
▁Макк
бой
пускає
pos
▁гостям
▁холодні
▁сумніви
▁яблук
сім
əsə
▁ВСЕ
▁польського
▁художній
АУ
▁фунт
▁робоча
▁діабету
▁EC
▁пальці
▁пропонуються
98)
неться
▁вершини
▁подяку
▁Каліфорнійськ
▁профспілк
▁Volkswagen
▁Божественн
▁Допомага
▁допомагаючи
▁машинобудування
▁обґрунтування
▁очолив
▁пристроями
▁спонтанн
▁королем
▁підбадьор
▁ДЕЛИ
▁виграла
▁почуттів
▁потоків
▁підготовлені
▁ускладнень
▁визначив
▁багаторазов
▁доставляють
дюймов
▁хірургії
▁виміряти
▁почнеться
▁контексту
йського
Th
▁панування
▁формувати
▁Лок
▁марш
▁полярн
▁індивідуальні
men
бирайте
▁прийдуть
▁кімнатах
▁EP
▁мокр
▁популярними
зький
▁Цз
1/
ілюстр
▁частота
▁публікує
Українськ
▁збори
страх
▁патентів
▁повній
телів
Ніхто
:27
сенс
зували
▁Таб
26)
▁переглянут
▁астрономічн
ement
▁твоїх
▁Ама
▁Шах
▁поділяє
КРИ
▁УЄФА
▁податкової
▁розрахунку
▁низьких
▁діагностичн
▁Редактор
▁Оренда
ообіг
[12]
▁Guide
▁організовані
▁кільця
▁Grand
▁квот
▁погодн
включен
▁Художник
▁Корисн
▁банкнот
▁штучного
▁мудрі
▁vs
▁стоп
▁постійної
спеціальн
▁бетонн
▁мистецтві
▁Леон
▁найвідоміш
▁парламентом
▁розроблено
ЦІЇ
Най
▁перебіг
▁класичні
▁акція
▁етно
▁відправив
▁чорної
▁письменника
▁космічний
▁включено
▁With
uz
▁маєтку
▁незалежним
▁ro
▁уроків
▁Міллер
▁Єдине
▁Каль
▁початкової
▁звинувачен
▁пакетів
▁ЯК
▁снігу
дис
▁qu
тих
▁дивує
â
▁Німеччиною
▁Німеччину
▁Стюарт
▁компетенції
▁конкретну
▁посвідчення
▁прибережн
▁стосунках
▁Послуги
▁Тимчасов
▁Московський
▁регулювати
▁партнерстві
▁висунут
▁клінік
▁Студія
▁отруєння
▁шанован
▁Атлантичн
вон
hr
▁Дивитися
▁показала
ФОРМ
▁обличчям
▁розділені
▁надходять
eep
▁близький
▁Меню
▁єврейських
▁поверхів
serv
льського
▁сертифіката
▁Вартов
улятор
▁Виробники
структур
▁експерта
▁акторів
▁Баба
▁заробляти
6,5
цьких
віш
▁ґрунті
верни
▁Note
▁третє
ячі
▁християнство
▁відсутній
▁позначає
▁бензин
▁Гіп
▁EA
бери
▁протести
фунд
36)
▁фізичними
ini
▁Янг
▁психологічно
Lesbian
▁офшорн
▁Професор
▁бажань
▁водоспад
▁прокоментував
▁пшениці
▁телебаченні
▁уподобання
▁ідентифікувати
▁хворий
▁відшкодування
▁заарештований
▁печиво
▁полотні
▁демонструють
[13]
▁експозиції
▁пригнічен
▁відвідував
▁претендентів
▁вулиць
▁парников
▁Соціальні
▁Елл
▁пропонуючи
▁скажімо
▁сесія
base
▁настанов
900
▁Данія
▁званих
▁послух
▁Пр
файл
▁відбір
▁нервової
▁1.1
▁віддають
92)
▁графств
▁[1]
-00
▁Press
▁лампи
▁тренера
повітря
▁1930
ever
▁черв
▁хімік
-03
▁кущ
мба
▁Департаменту
▁Xiaomi
▁оцінювати
▁розповіла
▁вечері
▁директив
▁прискорити
▁життєздатн
▁заявляє
▁договором
▁відповідальний
▁пенсії
▁погане
▁Медична
▁Цікаві
▁діалект
▁пізньо
▁криптовалюти
Коро
▁поліцію
▁роботодавців
▁фут
▁злочинності
▁найстаріших
▁білка
▁анал
▁свіжим
▁СБУ
▁Псалом
▁журналістики
День
▁букети
▁розкоп
▁раптово
ятки
стичні
▁банківські
юватися
ano
27)
Тому
▁недоліків
▁військовим
побутов
▁Ab
▁гормональн
/8
▁Класи
23)
ku
▁варті
життє
▁Королівства
▁безкоштовну
▁вищезгадан
▁конкретним
▁неподалік
▁номінації
▁переїхала
▁привабливим
▁спричиняє
▁церквою
▁порошок
▁Travel
▁сильне
▁Франс
▁класифікації
▁греко
▁послідовників
▁фонтан
▁Колумбії
▁ввічлив
▁вакцини
▁ключем
▁релігійним
▁ядерні
▁дихальн
▁Who
▁явищ
▁управлінням
▁Власн
▁подібного
▁порожній
▁Особливості
єднуватися
▁матчу
шкір
▁прихильн
овська
▁союзниками
▁запустила
▁Марсі
▁гірк
▁сприйнят
еєм
позитив
▁передач
▁4,5
▁експерименту
фактор
▁зайнятий
▁MD
▁650
▁Рот
філ
СП
техніка
▁Реклама
▁резолюцію
▁темряві
обор
▁ефективна
▁Основний
▁ЩО
▁Ризик
▁видатних
▁благородн
▁Адріан
▁усміх
▁несправн
▁кільце
Солодк
▁любителів
▁опціон
2005
▁моторн
▁студента
токсик
▁економити
▁лит
▁плавати
▁сік
ular
▁хмари
▁Альянсу
ключити
▁сліпо
Сучасн
▁Диск
чених
▁континентальн
▁Acc
▁позначен
піш
лям
▁місіонер
УС
▁конференцію
▁готують
телефон
▁професором
▁електронний
▁Герман
кіс
▁Зміст
опа
▁християнської
▁кафедра
ρ
▁Chrome
▁Porsche
▁Server
▁заощадження
▁неупереджен
▁пропозицією
▁акредитації
▁побоювання
▁таємнич
▁інспектор
▁відповідав
▁приховати
▁Литовськ
▁знуща
▁нагороджений
▁відмінностей
▁Товст
▁указ
▁залишалися
▁тривалості
▁обмежується
▁Тон
▁надійний
амід
каль
▁консерв
▁блиск
▁меншою
EG
▁глю
▁аксесуарів
▁Літо
▁Міністерств
▁депозитів
▁гібрид
▁британці
▁отриманий
▁почуває
якш
НОЇ
▁ранков
▁вантажівки
▁вільною
▁Інф
▁літрів
сур
▁Кай
▁мус
iti
rm
▁демо
▁Мудр
ІР
▁закладах
▁гімн
▁Порн
▁соціальній
ліч
станція
▁кидає
▁спостерігає
▁Літак
▁стійкі
▁тероризм
▁баб
▁безкоштовним
▁пишаємося
▁перевищують
▁Оксана
▁Вселенськ
КК
▁виконавців
▁стріляти
Сам
▁добрими
▁Har
▁раціонально
▁зацікавленим
УД
▁фундаментальних
▁Тере
ving
▁San
oma
▁Культурн
▁портативн
▁урядових
даної
ников
▁прогнозування
INE
ating
▁ліси
▁перенесен
▁улюбленим
▁дозволяється
▁розгорнут
▁Попередні
чак
113
14).
▁забуває
▁збірка
▁почуттям
▁радянської
▁провідними
БС
Якби
▁вихован
▁західні
▁обласної
казати
world
▁Netflix
▁Малайзії
▁бюлетень
▁гонорар
▁логістики
▁служили
▁спадщину
▁цивілізован
▁юридичний
▁європейську
▁Виконання
▁(18+)
▁Голокост
▁Капітан
▁ПДВ
▁відпустку
kgm
▁здатися
▁сховищ
▁Відстань
▁підвищують
▁рятує
▁приватність
▁Школи
▁LA
▁Агент
хер
даним
▁перебудов
yl
▁валов
▁специфічні
вадж
захоплен
▁Руд
▁втрачено
▁me
дома
Or
▁лимон
▁наглядов
яток
▁лазер
▁Park
▁Йордан
▁холодно
ves
▁View
Вер
σ
▁Факультет
▁диктатур
▁еволюційн
▁коротким
▁трагедії
▁широку
терапію
▁JavaScript
▁чорнил
▁професійна
▁запитом
▁натомість
▁Micro
▁обличчі
soft
▁бігу
▁вузол
▁Report
▁стероїд
▁впевненості
»[
▁потворн
▁жовтень
▁повернув
▁ліцензій
▁поточним
▁англійській
▁зареєструватися
▁наказу
▁винятково
▁розміщу
НОГО
▁емігр
▁Крей
▁Вибач
▁спонукал
дри
▁сісти
▁обережно
ring
▁банківського
▁Пакистану
▁маршруту
▁психіатр
▁OF
▁Гарвардськ
▁MP
▁годувати
▁рота
▁реалізує
▁ПРАВ
Бар
Дивовижн
▁WhatsApp
▁Мухаммед
▁Опитування
▁Сподіваємося
▁батареї
▁ентузіазм
▁одужання
▁оптимістичн
▁популярна
▁чверть
▁орбіти
▁переговорах
▁проголосували
▁справжньої
▁налагоджен
▁обговорюють
▁Пляж
▁лінією
▁лейбл
▁розуміли
▁ДИ
▁верховн
urs
▁турбін
▁вітамінів
▁альтернативних
▁нерухомість
▁посилює
▁музичного
▁коди
▁короткостроков
БЕ
▁ТОВ
▁Val
▁підприємствах
▁обшук
▁послідовності
▁індикатор
▁комунальних
OU
▁провідні
▁Закрити
▁ветеран
bil
▁мінімальний
креслен
▁Ньютон
▁запущено
▁сортів
▁перекладен
Кор
▁гарне
РЕС
▁Гум
▁втрачені
'''
▁Результатом
▁прикраси
язками
ІЛЬ
фур
▁сильною
раф
▁містера
▁радянські
▁Foundation
▁Дійсно
▁архітектура
▁мініатюр
▁подвійне
▁унікальне
▁мікрохвильов
▁Тисячі
▁Казино
▁охорона
▁Автономн
▁безпечне
▁вулицю
IB
▁сексуальних
▁святкувати
▁Підвищення
▁Округ
▁вірність
бирання
▁розміщені
▁кластер
▁Китайські
▁сумки
ранж
▁Last
стрій
▁розділів
▁ґрунтується
▁випущен
▁референдуму
73)
▁Всесвіті
▁інтересам
Ло
GS
системи
▁світлов
▁1951
▁пишу
▁процентн
кривав
▁ієрарх
▁вечірки
НП
пто
▁іноземним
▁Роу
▁Енді
KS
▁індивідуального
▁північному
▁простого
▁Пле
▁убитий
ятирічн
▁гіг
▁священиків
▁компаніях
осом
▁Брай
-02
▁новатор
▁ютера
дисциплінарн
▁Hol
▁відомої
▁адміністративні
Анджелеса
▁східних
писана
ізуюч
ν
▁Презентація
▁алкоголем
▁висновків
▁успішний
▁інтуїтивн
▁існували
▁підзвітн
▁стверджували
▁Волосся
▁дебатів
service
▁Природа
▁Згодом
▁корисна
▁рекламі
▁нещодавн
▁корпоративні
класу
обслугов
▁щур
▁хлор
секс
▁фізіо
бравши
▁Джонні
▁забезпечив
-100
Мій
ротягом
Shop
▁передані
Ста
▁карткою
Людина
▁Mor
▁Journal
▁Par
▁літр
▁протестів
▁професора
▁сприймають
досконале
▁медалі
▁імператора
▁дзвінки
▁Хол
▁230
yp
биті
▁нормальним
mark
▁світлових
▁Карт
▁герої
▁приводом
кінс
▁сек
Cl
▁демократи
▁подали
орієнтован
▁Радою
▁важкими
▁введений
енцій
▁лісі
▁Голови
▁Мет
▁успіхи
▁програв
▁кінцевого
▁Ключ
κ
▁Британією
▁Литва
▁бездоганн
▁безкоштовне
▁федерації
▁використав
▁депресія
▁Маямі
▁конкуренція
▁приватна
▁рівномірн
▁Відповіді
▁інтимн
ятай
▁літературі
ігри
▁політичне
▁Технічні
▁неможливим
Безпечн
▁годинника
ates
▁Нігер
▁голів
5,5
біс
слиз
▁страхових
▁мавп
▁африканських
▁Русі
▁початковий
▁програмних
▁підписаний
▁приплив
▁всяк
▁громадськість
тейн
▁початкових
▁гумов
▁ділянка
▁експо
▁небезпечним
▁пральн
кард
▁очевидним
ходило
▁редакці
▁періодом
▁неурядових
▁Манчестер
▁Сур
▁полем
▁громадянином
80)
▁думками
Петербурзі
▁Жіночий
▁дружбу
▁кольорами
▁мембран
▁оригінальних
▁агресію
▁восени
▁пристойн
▁звістку
[14]
▁сприя
ora
▁охоплюва
▁заблокован
Атлант
▁компенсацію
▁незручно
▁PhD
▁перспективу
▁Over
▁Менш
▁оцінюється
▁хитр
▁банер
▁контракти
▁Індійський
▁Бін
▁видіння
ятаєш
▁технологічного
▁Запуск
RY
▁Лонг
▁марно
▁описані
▁олій
▁IQ
▁комерційної
▁новину
дінг
▁епох
▁економічній
▁Архіви
нтер
▁провідним
▁біле
48)
▁легка
▁Cap
▁ключовими
▁політичній
▁моралі
▁104
бування
▁жвав
▁ери
▁споруди
християн
▁забезпечується
▁прокурора
▁смажен
▁пропоную
▁природної
▁грамів
▁навколишн
▁Відновлення
▁Елізабет
▁атмосферн
▁гардероб
▁шедевр
▁інфекція
▁пробудження
▁сухопутн
▁анонімно
▁ролей
▁авіакомпанія
▁золоті
▁Газета
▁погроз
дуть
▁позик
▁сербськ
▁літературно
▁дихати
▁придатним
▁міцність
▁Road
ніша
face
▁Берліна
▁опери
▁конференцій
▁економікою
▁критичні
мінація
▁обійти
▁Експерт
▁Адама
gl
▁робітники
▁робітник
▁відвіда
▁промові
▁Рекомендован
▁центрах
▁опти
▁Футбол
▁виступів
торії
▁Біг
▁Дитячий
▁кримських
▁встановлен
▁280
▁практикувати
▁блондинка
▁Бельгія
▁інституті
▁обізнан
▁фальшиві
▁рутин
60)
UC
▁покрити
ЄЕС
▁English
▁Адміністратор
▁Бюджет
▁Відносини
▁анаболічн
▁перевищувати
▁плетіння
▁подвійного
▁цілодобов
▁Ukrainian
▁амінокислот
▁Asian
▁зустріну
▁свердловин
▁стеження
▁піддаються
▁Royal
▁звертаються
▁популяції
porn
▁італійський
▁земній
▁плащ
▁Дейв
▁видобуток
▁зубн
▁Пропозиція
▁анексії
▁виконували
▁Вед
▁дипломатичні
▁Звантаження
тиліз
дув
▁подані
▁представл
▁спокою
▁прояви
Банк
▁Таїланду
▁Залізничн
Вол
▁схожим
▁установах
їзн
риб
▁мільярдер
pc
▁Національному
▁Келлі
▁зберігатися
матеріал
▁лесбі
▁аналізувати
АТИ
▁3-4
тян
▁менеджери
сподарські
▁спостерігачів
▁вібр
▁заміна
▁старшого
▁ліхтар
▁найбагатш
Оплески
▁Використовуйте
▁Температура
▁Френсіс
▁заарештували
▁ступенем
▁тисячоліття
▁інструкція
▁Австрійськ
▁боржник
▁ефективну
▁поспіль
▁готівки
▁реалізують
▁Direct
olution
▁залишати
▁американському
▁Вайлд
▁ЦРУ
▁адвокати
▁гомосексуальн
▁Стиль
▁прожив
▁приїжджають
Ісая
ФЕ
▁заводів
▁мудро
▁Труб
▁Серце
▁Справжні
▁біологічних
▁пори
несений
▁приємні
▁спробує
▁художніх
▁маршрути
▁супутника
чати
нон
▁товарами
сак
поліс
▁відкид
▁PRO
обладн
▁дешево
▁запропонованих
піон
TY
▁симптом
нське
▁Куба
нині
комуніст
▁шахра
▁потрапля
▁Мате
▁перейшли
▁понеділка
▁прослуховування
▁знищил
▁Церкві
▁критеріям
▁мобільності
▁гинуть
▁106
▁Океан
▁переходи
▁Зручн
▁приватності
work
▁Колумбія
▁Сок
▁торговців
▁постанови
PT
160
БІ
борд
▁збільшують
▁торгової
▁електричні
ютерної
Практичн
рейн
▁заявило
▁випускник
стел
▁складові
▁подіях
▁вибирає
▁заборона
формат
тюр
Бориспіль
▁пляжу
▁Імператор
▁канад
▁вироблення
▁маску
▁докторант
▁Альянс
PR
рев
▁операціях
▁Артем
▁гарант
▁Зовнішн
▁щотижнев
▁кабельн
▁процесами
90)
mus
тивних
мак
DP
▁піхоти
▁збирають
▁Найпопулярніш
▁відновлюван
▁підтримали
▁стипендії
▁функціонувати
▁Операція
▁Тварин
▁‘
▁Афганістан
▁застрахован
▁вищою
▁Азійськ
▁Тернопільськ
ковський
▁Вільні
▁Заснован
▁King
Бут
▁індивідів
▁денного
▁БІ
▁Кредит
▁перерва
▁здійснюються
ЕНТ
▁переконані
▁веселі
терти
▁раптов
▁Студентськ
▁точний
▁стаціонарн
▁Десят
▁175
офон
ative
XX
▁Професійний
▁геноцид
itch
▁сиру
▁овець
▁вітров
зам
cer
овича
воєнн
▁фри
пластик
▁режимів
ятого
▁акул
▁Румунія
▁вагітних
▁гнізд
▁найпростіш
▁схуднути
▁угруповання
▁людську
▁відзначив
▁заголовок
▁слайд
▁звертатися
▁Технік
▁пластмас
▁однорідн
▁верхнього
▁поганих
▁Олімпійські
▁знімки
▁Масаж
▁мінус
▁Секретар
▁активної
▁Святі
▁національно
LD
серд
▁відмову
▁центральних
0,0
▁Залишити
2004
________________
▁економічним
▁діях
▁сигналів
▁органічних
▁Альб
▁Нос
▁Поштов
▁закликаю
▁точного
lia
▁подорожують
річному
▁Провідн
▁привітати
001
▁дешевші
▁рус
▁Документи
▁кеш
▁Hu
ping
давала
ille
▁трудових
▁Донецька
канал
▁завдан
▁невідповідн
▁розумів
▁герб
xi
▁службовців
▁Jul
▁страт
▁радою
▁повітрям
▁клуби
▁ключа
▁антиоксидант
▁Венесуели
▁бібліотеці
▁свиней
▁фізична
▁народжується
▁дивлюся
▁Dream
▁визначенні
▁какао
▁приземли
▁висловлює
▁Деніел
▁вчинок
▁максимальна
▁включена
▁появу
▁укладення
▁легкого
реклам
▁бета
ванню
▁ставши
▁відзначає
▁Дублін
▁ногу
house
▁купе
▁Великодн
▁відомою
/5
Гол
▁винним
-2018
▁обґрунтов
▁коліна
▁матеріалом
▁новорічн
HD
▁дисків
▁сумнівів
▁шини
▁UC
▁Public
▁Промо
▁UN
▁найближчі
▁Стокгольм
▁зламати
▁Net
▁спрощен
▁XXX
▁мороз
▁створюються
функціональності
▁ходив
▁зловжива
▁ідеальне
▁Renault
▁Копенгаген
▁спадкоєм
▁хребт
▁Dragon
▁демографічн
▁жорсткий
▁королева
▁пристроях
▁техніці
▁існувало
▁нотатки
▁продовжимо
▁підкреслюють
▁компонування
▁маневр
▁Армії
▁відправкою
▁хоробр
▁приховані
▁факторами
▁співзасновник
▁руйну
▁Свята
▁критичних
▁прилегл
▁використанню
▁Директива
▁Old
▁Oct
▁орендувати
▁State
▁видань
▁русі
▁викликала
фран
дачею
шник
▁контрактів
▁редакційн
▁почнемо
▁Плат
▁жіночої
▁надіслан
кухар
39)
▁важкого
▁ключі
монтаж
▁генеральним
▁здобути
GI
▁Тараса
▁центральним
25)
▁Угорськ
▁процесора
▁баг
▁рецепти
▁терміново
▁Брон
▁вимогами
язаної
▁усвідом
▁Поза
▁:)
Національн
Історія
▁задач
▁мінералів
▁надаєте
шах
▁трубка
▁християнські
▁пластикових
стка
▁спереча
гнати
▁ЗНАЙ
▁Люксембург
▁електроенергію
▁кошмар
▁непрочитан
▁Забезпечити
▁збитки
▁продукція
▁Звідси
▁японський
▁Аргентини
▁усвідомлюють
▁оливков
▁організований
▁Амазон
▁United
▁троянда
▁бойовиків
єднуючи
▁скеля
▁запустив
▁Станція
▁вдих
▁армійськ
▁Валентин
▁заздр
▁демократичного
▁сходження
Чарівн
вз
▁сексуального
Гал
▁вбивати
▁Плата
▁гору
▁говори
▁стародавніх
провайдер
▁купа
▁низького
▁спеціалізовані
▁олігарх
▁Постав
▁1,3
▁гвинт
rc
технік
▁Сексі
▁краєвид
помаза
▁базою
.[1
▁Біло
▁Секрет
Палестин
▁впізна
▁Довір
▁Норман
erson
(5
▁Технологічн
▁бельгійськ
▁перейменован
▁інклюзивн
▁Збереження
▁Ситуація
▁примирення
▁розповідають
▁фізичну
▁Кандидат
▁створить
▁Street
▁постійну
▁визнала
▁Брюссель
▁Series
▁включала
▁електричних
▁китайці
▁довгу
▁слабкості
▁досконалості
▁просив
▁Подорожі
▁Трохи
▁креативн
▁сар
▁ударів
▁точним
▁альтернативні
less
хат
увальний
▁Сума
▁Аллен
▁відмінність
▁витратити
▁віднести
▁апаратів
del
USD
▁роману
нетт
слив
▁втілення
▁моїми
▁Східний
▁помірно
▁валюті
▁Валері
▁Are
▁позначено
▁Hack
▁нагорода
▁туристи
▁дадуть
єктивно
регіон
▁єврейського
▁Еш
▁взаємодію
▁Відродження
▁Працює
▁ФІФА
▁дивізіон
▁дізнається
▁кампаній
▁кофеїн
▁цілеспрямован
▁щотижня
▁делегації
▁розслідувань
▁бурхлив
▁дивіться
▁Замовник
▁нагадати
▁важку
▁зникне
▁завершили
▁святим
▁Небесн
▁Кевін
▁предків
▁патріотичн
▁введено
▁іграшка
▁стриж
▁зберігаючи
▁вигнан
▁неділя
▁говорите
іграш
▁Косово
▁вітаміни
▁природними
УТ
96)
▁вибухов
2006
▁факс
▁видаля
ГЕ
▁сцен
▁вимірює
▁кота
▁західної
▁вітри
▁плитки
▁безпосередні
▁рясн
▁масові
язаного
▁конференц
▁ветеранів
▁поширеним
▁тероризмом
ane
▁стійкий
▁Контактн
▁єднати
▁вмістити
ender
▁обіду
▁зареєстровано
hu
▁банками
▁Віктора
▁успішною
▁Емма
·
▁розробники
солод
клавіатур
▁America
▁невеликими
▁цілісн
▁найсучасніш
▁вагітна
▁дивовижні
▁закупівлю
▁присутня
▁інстинкт
▁переслідувати
▁приватне
▁Розмови
▁жахливі
ider
▁What
reg
]]
▁Word
▁офіційної
▁пережити
радник
▁тиран
ятаєте
▁клік
язк
▁дозволила
▁Вілсон
▁Іди
▁проходив
▁структурован
навмисн
язувати
▁заборонити
уніформ
▁спортивного
▁процесах
:31
▁одиночн
pr
▁конкретно
▁Клієнти
▁Сіті
▁майстерня
▁Формат
▁ванної
▁федерального
Анджелес
▁визнано
▁реєстраційн
▁Закінч
▁вищезазначених
▁кандидати
▁рекомендує
▁меду
▁перелом
▁Пек
▁чистої
▁потоп
▁College
▁Абсолютн
▁Консультація
▁Співпраця
▁застряг
▁купівля
▁нумерації
▁церемонія
▁глибини
Contact
▁фараон
▁Обсяг
▁Вадим
▁бомбардування
▁вогнем
язнених
▁Альтернативн
▁зосереджується
▁чарівні
▁Херсон
▁ґрунтов
▁слабкість
розмір
▁весна
40)
▁Мобільний
▁тканину
▁званого
пристрасн
різання
▁різноманітності
▁Катерин
▁вагом
▁виставок
▁цікавляться
▁потоков
▁досягається
▁учня
круг
гет
▁дипломатичних
▁Hard
▁відвідувачам
▁Марко
▁#1
▁заслуг
47)
▁Крістофер
▁капот
відник
▁прикладних
▁Майдану
▁тренувальн
пускаючи
▁перестає
стен
▁СП
▁спільним
▁жодним
ХІ
▁благ
▁запитає
▁брус
євр
нч
▁максимальної
яння
▁найскладніш
▁Громадянськ
▁величезних
▁корпорацій
▁парадигм
▁розбіжності
▁фотоапарат
▁фізичне
▁інфрачервон
▁дестабіліз
▁найвищу
▁ослаблен
▁проміжок
▁чверті
▁Дослідницьк
▁стилем
▁неохайн
▁Втрата
ος
▁домінуюч
2007
▁Motors
▁нагадав
▁перевезень
▁віддані
▁XIV
▁піску
▁закликали
▁особливостями
▁КВ
▁гормонів
▁Arm
лд
▁кран
суш
▁кваліфікованих
реліз
52)
ska
▁безробітн
▁легальн
▁морським
vy
▁програмним
▁прокуратури
45)
кович
▁роликові
▁Eco
ism
pan
Лейк
▁покриває
▁Девіс
лювач
Двоє
іспанськ
▁законопроекту
▁гемо
ятьма
▁Spa
▁Рол
▁Заснований
Український
ємні
▁навчають
▁сховища
▁Вірменії
▁Зеландія
▁абсурд
▁анестез
▁банкрутства
▁відчайдушн
▁добавки
▁прецедент
▁рівновагу
▁традицію
▁заробляє
▁ногах
▁ліцензія
[15]
▁Ісаї
▁Леонід
▁діляться
▁торговим
▁втечі
▁карб
▁урочист
пласт
програвач
ставляє
▁сходи
▁приємним
▁вирощувати
▁монастиря
▁водню
гат
▁Очі
▁Image
▁сімейні
▁Богдан
gra
▁агенти
▁Держ
стиль
▁парків
▁континенту
готів
▁реалізовані
▁Потрібн
▁вампір
▁Андрія
ейр
▁платні
▁піддається
88)
▁Російською
▁Рут
▁вважала
Анджелесі
▁Єдина
▁успіхів
▁сценарії
▁Кодекс
▁кримськ
▁окремим
▁чут
PM
▁сильнішим
лент
▁обмежує
▁важкою
▁спробував
Нехай
лейтенант
▁Альфред
▁досконалим
▁міркувань
▁оголошень
▁північнокорей
▁солідарність
▁корпоративної
▁очікували
▁броньован
практична
▁організаціям
▁назовні
▁мастурб
▁човни
▁Заміна
lv
▁сигналу
Червон
▁відсутністю
▁презентація
▁трави
▁свідками
▁чесним
▁вирощу
▁давали
Hardcore
▁лаз
хіт
uff
меш
▁палацу
set
▁головної
тут
▁Slot
Найкращ
▁Спроба
кривати
▁буття
▁унікальною
прямо
▁ворогом
пустить
фікатор
▁Віра
▁спам
▁Леві
▁отримаємо
▁повторити
▁Балкан
▁Вес
▁файлов
▁123
▁відновлюваних
▁Сви
▁патрул
▁Gar
57)
єдналися
▁належне
везення
шкільн
▁вуглекисл
▁презерватив
▁божевілля
▁глибокий
▁запобіжн
▁зауваження
▁сценарію
▁вивчали
▁найдавніш
▁кращу
▁похмур
▁вирішить
▁нещастя
▁прилади
▁підготовч
▁писала
▁дочку
▁ввела
▁зворотному
▁Ефект
▁винен
▁арешту
▁Колумб
▁пластику
▁льодовик
▁звітності
ward
все
▁1931
▁потребами
▁інтенсивності
PU
чник
▁народної
▁екологічного
▁випускники
чками
▁куля
річні
▁Вільний
ray
▁бігти
Un
▁Раф
▁Біля
▁земельних
▁годування
продукт
tail
фельд
офіл
ible
▁Софі
▁Коб
Trade
▁тестостерону
▁лінгвіст
▁запасі
:29
▁Львівської
▁отримавши
▁th
▁обвинувачен
▁Ліга
▁Друге
oli
▁ритуал
▁подається
▁розглядають
▁періодично
▁телеканалу
▁відмова
▁схему
▁ДТЕК
▁Порівняння
▁високоякісних
▁очолював
▁російське
▁тридцяти
▁вишивки
▁нитки
▁важке
▁утримують
▁відповідальних
▁англійський
▁потоки
▁особливістю
▁вирости
▁адаптер
▁практикуюч
▁Дарвін
▁переїзд
▁Тренер
▁Зростання
▁банан
▁Буль
▁спійма
▁Президентом
▁Кругл
Фор
▁послідовність
▁Луки
37)
room
▁викрадення
▁журналіста
▁робочим
▁розрізнен
▁Брю
▁захворюваннями
сбург
ГРА
▁дорожні
СТР
▁виборами
▁Гітлера
▁роздрібних
▁освітній
▁поступов
▁ПРЕ
▁ресурсу
▁консерватор
стань
▁клієнту
▁масштабах
▁макс
▁застосовують
падати
hat
▁спас
▁зарплата
▁Фей
▁надихає
▁Константинополь
▁Adobe
▁Порушення
▁Фредерік
▁академічні
▁зверніться
▁конкуренцію
▁околицях
▁централізован
43)
▁Соціалістичн
▁Справжня
▁Договору
▁Друзі
▁парфум
▁нагадують
eng
▁одружений
▁антитіл
▁затворів
34)
▁записав
▁врешті
▁падають
▁Крістін
шоп
▁підозріл
▁петлі
▁Смішн
▁мотивації
bel
▁історичної
ранд
▁попередньому
▁поточн
▁припадає
▁господарстві
▁місцева
▁бажаного
▁глибше
лист
▁Знак
стол
▁Футбольн
▁2021
▁уявн
▁лиш
▁+380
▁позитивного
▁імуно
▁винагороди
▁дистанційного
Турецьк
BL
▁Imp
▁особистим
▁фрази
НИК
▁ветеринарн
Арсенал
▁масло
діляють
▁спотворен
Відкрита
ТРА
електрик
▁прокату
▁постачальниками
70)
▁Delivery
▁Квебек
▁Константин
▁Шекспір
▁митрополит
▁крісла
▁орбіту
▁представництво
▁срібло
▁дійшли
▁носіння
▁Дивись
▁сподіва
▁віддає
▁Патрік
▁терміном
▁теплі
▁інженери
▁впаде
▁несправедливо
▁масштабу
▁Почати
▁Анал
цизм
▁носіїв
▁привід
▁пропускн
▁проголошення
▁інтересами
ПЕК
▁віджет
▁Арсен
▁радіус
▁відповіддю
▁перерви
▁працюватиме
▁іноземного
▁Планування
▁профілі
▁103
▁блокувати
▁Аматор
▁важливості
▁ефективніш
▁диску
▁107
▁будують
зайнят
▁приводить
▁краї
▁Рез
ттер
▁колективно
▁Award
▁1912
▁додаванням
tis
▁перетворює
▁вдячн
▁штатах
ello
▁побачен
▁ЛГБТ
▁апеляційн
▁Electronic
▁привілеї
▁побачить
місцезнаходження
▁Вітамін
▁мультимедійн
▁думкою
▁китайська
асоційован
▁неможливе
▁сфера
Євреї
▁кінорежисер
націоналіст
▁сподівання
▁Францією
▁незалежна
▁радісн
▁партнерам
▁утворюється
▁плечі
Волинськ
▁вірно
▁викиди
▁Á
▁Drive
▁гелі
▁геолог
▁Франклін
▁долині
cle
▁Queen
носиться
▁Fox
▁проголошен
▁ладу
▁Вітаю
▁Страх
▁Блу
▁родичі
▁литовськ
ces
▁проводилися
▁постачати
▁офіцери
cho
▁виявляються
▁розсуд
pol
тто
▁додатка
▁обрав
▁змушен
▁108
▁охоплен
▁фондом
▁Ємен
▁американськими
▁Хуан
▁Стародавньо
eek
Рівер
▁привабливі
▁операційних
~
▁удостоєн
▁візерунки
▁двадцятого
▁музиці
▁сподобається
▁створених
▁темряви
▁існував
▁Хлопці
▁завершені
▁композицій
▁ескіз
▁освітою
▁таблиця
▁кібербезпеки
▁Сибір
▁гуманітарної
▁генерувати
▁Дамаск
▁Сатани
▁NASA
▁довіряють
▁орендн
▁Сергія
▁мікрофон
▁побічн
▁вилучено
нелл
після
▁собору
▁втратою
▁талантів
▁класичний
▁Страхування
kh
▁сімейних
▁рушник
83)
▁зумовлен
▁формуванні
▁конгресу
▁Мітка
▁Карпатах
pon
▁якісний
▁оснащений
▁візов
▁Інноваційн
▁бек
▁Ly
▁принципово
▁браузера
лась
▁Леді
▁встановленим
▁четвертого
▁старої
ціал
Китай
▁принципами
▁забирай
ованому
SU
криваючи
TL
▁Наказ
▁кращими
чків
Нам
stan
▁масла
▁Дональда
▁Тиждень
▁архієпископ
▁різноманіття
▁Photo
▁Лабораторія
▁таємницю
▁школою
▁спільна
▁ліцензування
▁Пункт
▁Освітн
▁італійського
▁електростанцій
▁значне
▁дивимось
▁Антоніо
▁псевдонім
▁включав
▁Алжир
індустріальн
▁скажуть
▁собаку
ien
▁Профіль
▁суперечка
аїн
суль
▁дорожнього
▁Пізн
▁яєчн
Син
91)
▁воліють
▁порти
ez
▁чиста
▁змінитися
КІВ
имось
▁перероблен
язковими
▁розумієш
▁Сенату
▁іракськ
▁Вечір
▁висот
▁проведенні
правлення
▁джерелами
▁покращен
▁Скв
▁реставр
▁винахідник
▁320
▁Мотор
▁дослідницької
▁керівником
доброзичлив
▁Ердоган
▁Засновник
▁УКРАЇНИ
▁Хорватія
▁влучень
▁побачать
▁ярмарок
▁здобули
▁переможець
▁шосе
▁Сатурн
▁боролися
▁переслідує
▁земної
▁Перевірити
▁упакован
▁вимогою
АЛІ
керован
▁біблійних
▁масажу
▁Почина
Мат
HT
▁виступили
▁вносити
▁рекордн
▁Собор
▁Дін
▁маршрутів
палювання
▁Мід
язаним
▁простяг
▁ВІД
▁заперечує
▁папа
▁хак
Phil
▁третина
▁болі
▁пери
будування
▁Чудово
вінг
▁Слухай
▁державною
▁сприйма
▁натискання
психічн
▁викликано
▁валютного
▁муж
cro
▁ступені
▁Метт
▁потенційним
1.1
▁Золота
▁стрічка
▁клан
▁Гел
▁Bluetooth
▁Угорщині
▁відображати
▁знадобитися
▁зґвалтування
▁метрополітен
▁представили
▁підтвердила
▁смертельно
▁несумісн
▁технологічний
▁проаналізувати
▁боявся
▁вціліл
▁Disney
письменн
▁аутизм
▁Українці
▁Озеро
▁зовнішня
▁ОАЕ
▁слабш
▁широт
▁інструктор
har
▁виготовляється
▁питанні
▁гравцем
▁Спеціальний
▁Тибет
▁жирів
▁майстерність
дверн
▁Pet
▁приїхав
▁функціональні
Твор
▁1905
▁найкрасивіш
▁Аллах
філі
▁подорожував
▁Посол
▁метало
▁персонажі
iff
rew
▁ініціативою
▁May
▁стандартні
▁режисера
▁пріоритети
▁прохід
▁вигоду
вчіть
▁Набір
▁рідкісних
79)
tus
▁митних
рівнев
fo
▁More
▁кореспондент
▁кровотеч
▁одязі
▁палестинськ
▁реагування
▁стільниці
▁існувала
▁додаткове
▁китайським
▁Вимоги
▁Тегеран
▁біженця
▁вражений
pdf
▁нирок
▁авіакомпаній
▁проходили
▁німці
▁думці
▁Ікона
▁Нігерії
▁Північного
▁уточнення
▁слава
▁Брати
дійшла
▁змінилися
▁твору
▁East
▁кухар
▁SCP
▁витягнут
Мор
▁Мура
▁краєвиди
▁дизайнера
▁виходячи
▁канон
▁Пояс
приват
▁Фіг
▁підвищений
▁радіаційн
lam
Ген
їзм
cul
▁політичною
▁довели
▁механічно
літнього
▁столи
▁професійними
▁безперервно
▁каміння
▁покладається
повідач
▁ефективніше
▁Обов
▁проведений
літають
▁ангелів
▁відмінним
▁Персонал
дження
дньому
▁фахівця
язування
▁Обмін
кімнатна
▁підприємством
▁екз
BR
▁Понеділок
▁вказівок
▁законодавчих
▁заражен
▁подвійний
▁профілактичн
▁розповіли
▁шотландськ
▁інтерпретації
□
▁звинуватив
▁японських
▁інструкцій
▁здивований
▁Схема
▁зацікавлений
▁кисл
▁співавтор
EU
▁користувачеві
▁продовжив
▁розмовляли
▁обізнаності
▁крихк
▁пароля
▁шеф
▁Детальн
▁поліцією
▁просоч
▁спить
graph
▁накопичен
КОН
▁аудиторськ
▁Морган
отерапія
▁висотою
ідвідайте
▁Фед
ram
▁збережені
▁нескінченно
78)
▁цінує
▁запобіг
▁обмот
▁Анальн
▁довірен
одор
▁Чудов
Сім
Видатн
ough
▁народного
▁посольств
▁мінімальним
▁альянсу
▁потребувати
▁підписала
▁третіми
▁вірі
янка
▁виставлен
▁грандіозн
▁Верхівненськ
▁високоякісні
▁коригування
▁служінні
▁поранені
▁нюанс
▁агрегат
▁арсенал
▁дівчинка
▁оригінальним
▁експлуатаційн
▁толерантності
▁класичної
▁Coll
▁їсть
хвиль
▁скасову
платформ
▁буріння
▁мобільним
▁підняв
▁розташовува
▁АВ
▁човнів
▁їли
ami
Спортивн
▁Епі
▁Дід
▁пережили
▁тигр
▁держа
роджені
▁вірних
▁цінуємо
▁костюми
ika
mu
▁заголовка
▁розпочався
▁особиста
▁уповільн
▁гніву
▁вдарив
▁[[
TION
єнко
Le
▁Pal
▁головній
▁Ске
▁цифровим
▁череп
▁Добра
▁оновлений
Гц
▁Хаус
▁перебувал
▁Офіцер
▁Резолюція
▁Франкфурт
▁Фінляндія
▁артилерійськ
▁вплинули
▁поміркован
▁приділяти
▁цивілізація
▁Сербія
▁зберегла
▁Божому
▁Добрий
▁досліджують
▁появою
▁зіткнулися
▁перетворюють
▁націоналістичн
▁модифікація
головному
▁Модуль
:26
▁зайнятість
квартира
▁борги
▁Карпатськ
▁стінах
▁поліп
gar
▁Bell
][
▁109
▁надійного
▁дописи
▁моряків
▁поширена
▁Старо
Печерськ
єтнамськ
ness
▁сімейний
▁колін
▁База
НГ
▁винуват
▁Картина
Нор
▁берегов
▁Доступний
▁викопн
▁набув
▁короткого
▁єврейської
▁померлих
▁університетами
▁яблука
▁Нині
▁Ранні
▁серцях
▁транзиту
▁Екологічн
68)
▁журнали
▁бактеріальн
▁геометричн
▁заснували
▁публічний
▁спустошен
▁маршрутизатор
▁приєдналася
▁відсутня
▁зйомки
▁популярною
▁завдають
▁теорій
▁Євангеліє
▁учень
▁Вісім
▁охоче
▁введена
▁Середземн
▁задній
▁Говард
▁Берег
▁номінальн
phone
▁запитайте
▁просили
▁Формування
▁тютюну
▁настрою
цов
машин
▁чудо
▁політичному
▁заявою
▁піднявся
tv
стане
▁1922
▁Персональн
▁зібрано
▁генетик
74)
76)
▁винахід
ДПР
▁операціями
▁Баку
▁кіт
пише
менталь
▁Курси
▁Месс
▁фанати
▁виключає
▁Цін
фронт
▁Катерина
▁комік
▁взаємодія
божевільн
▁менеджером
тільки
▁EX
▁жереб
▁відповіла
▁небезпеці
▁очікувалося
▁іммігрантів
▁Кімнати
▁оцінок
▁перукар
▁транскордонн
▁водопостачання
резерв
▁протипоказан
▁Варіант
▁Влада
▁Мертв
▁Венеції
▁возз
▁досвідчених
▁дощу
ico
американською
дуже
▁мирний
▁Польська
▁знизить
▁доповідь
▁Ефективність
▁громадянських
▁принесла
▁Скоро
▁Макар
▁покликання
▁клінічної
метрія
▁покер
▁Національним
Альфа
▁Риб
▁підтримав
дикої
▁арбітражу
▁Крістоф
Авто
ємна
▁Тул
▁капітальн
леб
▁1925
MAN
ude
енберг
▁Платон
▁дорогим
▁встановлюють
▁підроблен
▁народами
електрон
▁антибіотиків
▁жертвою
▁210
▁Супутник
▁винищувач
▁рецензент
▁алкоголізм
▁вийшло
▁вирівнювання
▁гарячої
▁жорстким
▁найвищої
▁невеликої
▁обробляють
▁третьою
▁глибину
▁духовний
▁Кувейт
▁зайняла
▁найвища
▁повертатися
▁Дешеві
▁наслідками
рахунков
▁легких
▁природне
▁Позитивн
▁задовільн
▁кукурудзи
▁сформували
голомш
▁шкірян
▁Саймон
/6
▁відомостей
▁порох
▁класичних
▁AV
▁запитань
▁протилежні
▁спортом
▁колод
▁дивилися
▁відкидає
▁обсягом
▁художники
▁SSL
Марк
▁виставку
сіон
▁греб
▁Піт
мбр
▁предки
▁учням
кишков
▁нерегулярн
▁кредитної
▁прикрашен
ізована
▁сильними
▁діяли
▁контролюється
язується
кладених
▁глобальній
▁металевих
▁Сай
▁регульован
ani
▁МИ
▁дочкою
▁Картер
▁лайно
▁обряд
▁нижні
▁яхт
41)
▁КРИВОД
ручного
▁соціальним
▁виявилася
вальний
▁державне
▁діяв
▁найкоротш
▁підприємця
▁Естонія
▁Застосувати
▁Знайдено
▁Словенії
▁ділянці
▁жорстокі
▁категорію
▁маленькому
▁незабутні
▁опосередковано
▁порівнювати
▁існуючим
▁Type
▁народжуються
▁Резерв
▁уникнення
▁розпочали
▁польської
▁DELI
▁Film
▁Institute
▁історичним
▁писали
▁пиття
▁поклоня
▁інгредієнти
▁видобування
▁посух
▁нью
нащадк
АЄ
швидкі
Кра
▁секретарем
▁AMD
▁спільнотою
▁Зелений
▁режимом
банд
▁Обер
▁зібралися
▁25%
20).
▁роботах
▁молекули
▁зеленим
▁Opera
▁американ
▁формується
▁Атлантик
веди
▁займав
▁дель
▁переселен
nie
▁жіночих
:05
kon
▁пластикові
▁спеціальним
▁Отриман
len
▁Stream
▁амбіції
▁байдуже
▁дванадцяти
▁молитві
▁познайомився
▁золотий
▁колишньої
▁японська
▁добавок
▁HTTP
▁ядерна
▁видавнич
▁лекцій
▁тріщин
▁електричний
▁впорядкован
▁переможцем
Відповідальність
▁Банківськ
▁Основи
▁кардинальн
▁втоми
▁затвори
▁найняти
▁Чон
▁Готові
Нью
▁сьогоднішній
▁лікарень
▁виступали
▁міждисциплінарн
▁громадськістю
▁550
▁1911
BM
▁радикально
▁1923
▁поважн
▁психологія
some
▁напою
▁Дам
▁нормам
unk
▁радянський
▁типовий
▁Куби
▁119
▁чемпіонів
▁1915
▁Окс
▁Найбільше
ЛУ
▁рушій
Новий
▁наступна
▁Біллі
інформаційн
▁баскетбол
▁How
▁еліти
▁видачі
▁By
ворт
цей
▁GmbH
▁Бангкок
▁Португалія
▁Скористайтеся
▁Югославії
▁зазначила
▁комерційним
▁найнебезпечніш
▁перевищення
▁фіолетов
▁поранений
▁Купівля
▁Середземномор
▁генерації
▁творчий
▁приватну
▁Церков
▁Лісабон
▁симпатичн
▁небезпечний
▁переосмис
▁змусив
▁каньйон
▁сусіди
test
▁заохочують
▁водах
▁захоплені
▁танцювати
▁точніше
▁набрати
▁передбачені
▁написала
▁простіше
▁гордість
Приват
▁Dead
▁захопив
▁філії
▁економії
▁Намагайся
ИМ
▁стадіях
▁морська
▁Hand
▁звичайної
технології
19).
▁негативним
▁Легка
▁Річка
53)
▁машиною
▁активними
Спец
▁приватними
55)
транспортн
Up
ture
▁Жук
▁датою
▁окремого
голь
▁співробітниками
версія
host
▁Кох
▁прикрашені
▁західного
▁повідомлено
▁Чернігівськ
▁правоохоронн
PRO
▁плакат
ппер
▁темпи
▁вищим
▁збройні
▁турист
▁оснащені
користувацьк
▁FLORIS
▁Будинки
▁апельсин
▁вересень
▁колекцій
▁призначають
▁соціальне
▁січень
▁розробкою
▁Тетяна
▁аеродром
▁відхилення
▁подяки
▁пошкоджень
▁житловий
▁квітами
▁запрошують
▁Непал
▁сотня
▁Їжа
▁Витрати
▁незгод
▁кальцію
▁піщан
▁родюч
▁Указ
▁списків
hot
▁британської
▁Rover
▁стандартний
берга
▁творчого
▁фактур
▁шука
▁SIM
▁аналітики
▁легітимн
▁поклав
▁критичним
▁Город
▁повсякденного
▁перемагає
служба
▁марку
▁всупереч
Важк
▁південний
комбін
▁дорогий
▁агентством
▁Fire
▁законних
▁правового
▁оральн
▁приймаєте
▁дизайнери
▁шкідливих
▁переслідуван
▁віруючих
▁пластик
хон
▁привілей
▁створювали
ister
▁зміцнює
▁Анастасія
▁глибоке
▁домашньої
▁потрібний
▁практичний
▁спеціалізації
▁теоретичні
▁іноземця
▁Едуард
▁комплімент
▁молитов
▁непридатн
▁Ентоні
▁гарячим
▁штрих
▁відправили
▁регенер
▁зникають
▁Район
▁Товариства
▁домінування
▁фінансується
▁тютюн
респонде
хром
▁расизм
▁заплатив
▁Бонус
▁кооператив
▁красивим
▁складовою
▁тривалі
▁формула
▁зрозумілим
▁Стоун
▁продавців
▁простором
ith
.6.
ato
11).
єднає
сторонні
▁1600
▁Corp
ada
OK
▁учнями
політ
▁цінностями
▁підступн
file
▁довгого
нсон
▁Вигляд
▁кип
увальна
▁десятка
Біблі
▁Мілл
▁важч
▁тютюнов
▁Рев
▁Бри
1,5
▁фінансовим
▁річку
корупційн
▁Бангладеш
▁СУЧАСН
▁брехня
▁вентилятор
▁гарячий
▁звільнили
▁кнопка
▁найвищою
▁найцінніш
▁однойменн
▁сувенір
▁функціональних
▁солодощі
▁снаряд
▁очолит
▁тяжкі
▁диктатор
▁Гарячі
▁запевнення
▁обмінюватися
▁спеціальна
▁End
▁терору
▁забули
▁довга
▁доктрини
▁KDE
head
▁зарубіжн
▁Розгляд
▁помітні
▁Шлюб
▁граніт
▁доведено
▁сечов
компанія
Скрип
▁Синій
▁стару
▁France
▁Берлінськ
▁Парламентськ
▁сприйнятлив
ейдж
▁кажете
▁Поля
ПР
▁рекомендую
▁культурним
▁готових
▁генетично
Гро
▁розриву
бирали
▁Потяг
▁льодовиков
▁ідеального
▁ТР
▁мешканці
▁приведе
▁підозрюваних
вальд
▁Cloud
▁механік
▁повален
▁щільно
▁календаря
▁дискомфорт
▁окружн
Справедлив
▁Джалузі
▁Оголошення
▁Працював
▁сподобалося
▁судноплавство
▁Підліток
group
▁Женевськ
▁антрополог
УВАННЯ
▁Острови
▁балістичн
▁(044)
▁літературу
▁Хімічн
▁боровся
▁(5)
▁грудень
▁поселень
▁набором
▁низки
▁ризикувати
▁японці
▁вантажн
VO
▁Норд
▁вищими
▁якогось
▁1.0
Франція
▁чутки
▁кажеш
▁однакову
овністю
▁ступенів
▁ЧИ
тун
▁Жак
▁пріоритетів
▁1928
назва
▁активації
▁кварталу
баль
▁військо
▁справедливий
▁відрив
xxx
засновник
лучає
▁Expo
▁відірв
▁вітають
▁Гін
▁комунікаційн
ДС
▁братами
форт
▁Кров
▁осені
▁Єрусалима
трій
▁Софії
▁змаганнях
Сага
▁візуально
ліц
▁людськими
гортання
подібна
▁вагітні
ō
▁Education
▁Спеціалізован
▁Швидкий
▁беручи
▁гідравлічн
▁домашнє
▁крейсер
▁обіцяв
▁продовольства
▁Огайо
▁дивізії
▁завоювання
▁притаманн
▁відпустки
▁очікував
▁покажу
▁винайден
▁вибрали
▁польоти
▁опіки
▁маляр
▁мусимо
▁продуман
▁гнучкість
▁ліцензован
▁вказувати
▁незмінним
▁сидів
▁квітка
ІМ
▁Розширення
▁Христом
▁повтори
▁притягнут
▁зустрічатися
▁рідше
▁Поттер
▁виконає
брук
енергозбереження
▁аматорський
▁Dan
ранньої
▁коренев
anta
▁інциденту
▁аварій
допустим
▁стояч
Tech
▁покинут
▁плетен
▁знімати
▁універсал
▁розділення
▁температурою
▁слабко
▁Тель
▁грубо
▁складними
▁виконавця
▁Їй
▁якесь
▁ожив
▁Проектування
▁корпусу
load
WS
▁Грант
▁традиційного
ймання
▁офіційна
▁поживних
▁моральні
▁валютних
лідер
▁WI
ТВ
103
▁роликов
▁Жіноча
▁Мельбурн
▁Сніданок
▁величезною
▁приватизації
▁інвентар
▁конфіск
▁протистояння
▁позашляхов
▁Додаток
▁сутність
▁вирішальним
▁відбувалися
▁Депутат
▁агресор
▁вдасться
▁переповнен
▁намалювати
▁передбачених
▁пульс
▁колесо
▁заборонений
▁глобаліз
▁визво
Маленьк
▁реалізується
▁Ворон
▁визначальн
▁Multi
ясуйте
▁стійка
▁випустили
▁академічної
▁підтримуються
▁освітньої
▁сусідами
баз
ivers
▁спін
▁філософія
▁середовищем
▁заміну
Див
▁обіцянка
▁повторювати
▁виглядав
▁приносити
▁перенести
▁Низьк
школа
alt
▁документах
вівши
▁відповідне
▁обома
▁сумно
▁внутрішньому
▁доступності
▁Голд
▁самогубства
▁ринкової
▁1913
▁Доступні
▁Act
▁116
технічне
▁турбувати
▁критерії
шлях
▁Шел
▁демократично
▁садов
▁залізничного
▁частинами
бестселер
▁встановила
▁династії
▁ділянку
▁емпіричн
▁мінімізувати
▁недоторкан
▁щомісяця
▁Йозеф
▁коробку
▁швидка
▁ширина
▁підірвати
▁Божою
▁Поточний
▁скринька
ьон
▁молодшим
▁сподівалися
▁лісо
▁Києво
▁вибачення
▁терміналу
▁виконував
членами
▁діста
▁рабства
▁нападник
▁чекав
ova
▁Клінічн
▁видатним
▁SPA
чутлив
▁Створен
▁скажіть
▁1920-
▁ванній
▁кабінету
▁підтримуючи
▁натовпу
▁поїздка
▁англо
▁Спеціалісти
▁Лат
▁слідують
▁Необхідн
▁Тен
річчю
▁шарів
▁стається
▁тримав
▁сумління
LU
▁конкур
▁трубки
▁Вільна
49)
▁Діана
▁захисні
тивним
▁упереджен
▁беремо
Рад
стил
▁унікальними
▁обставинах
▁Сакс
▁4.0
89)
бував
▁Reuters
▁Ізраїлем
▁Неважливо
▁видовищн
▁дитинство
▁комісією
▁пікселів
▁твердих
▁уніфікован
▁ювілей
▁Творець
▁оцінці
▁погашення
▁відправлені
▁Фабрика
▁порушити
▁еталон
▁LCD
▁цікаве
▁професійне
▁Андерсон
▁запевн
▁занурю
▁короткочасн
▁потужностей
▁анімаційн
▁виховувати
▁Політична
▁Gene
▁Припини
▁Маз
▁віддалених
▁запозичен
▁смертності
▁позиціон
▁Наталі
менеджер
айр
фабрик
▁Світлана
маркет
язався
▁детальні
▁вилучати
▁ходять
▁монах
Ваш
▁ґрунтовн
▁виступу
▁викликом
▁Call
▁старанн
ette
▁бавовн
roid
▁умовою
▁речовинами
тиснути
позиція
▁Горд
71)
▁знайдуть
▁VII
▁Слухайте
▁Надія
▁60%
▁Sol
▁Захар
фільтр
▁адвокатом
▁18:00
▁нагоду
споживач
▁вечірка
робот
ji
▁Марш
консалтинг
▁Лорен
▁безпечними
▁бюлетені
▁величезної
▁вогнепальн
▁еволюцію
▁заробляють
▁коротке
▁прізвисько
▁трагедія
▁розробила
▁запросив
▁належали
▁керамічн
▁скелет
▁іспанською
▁невинних
▁гоночн
▁Римлян
▁вільну
▁інфраструктура
▁інвалідністю
▁Птах
▁артрит
изацію
▁давньо
▁Передача
▁подруж
▁призвів
▁випускати
▁спеціальними
▁підтримував
▁Проси
▁Бач
▁музичної
▁Цікави
▁Рах
▁суспільного
▁місцеву
ЦИ
▁погоджен
▁Рас
▁поїздок
▁проведене
маркетинг
▁1921
Фармак
zo
ПРО
▁незаконного
▁проксі
▁перевищи
66)
ставимо
▁клей
▁коледжів
▁складну
▁транзитн
▁Харківський
▁1,6
▁контейнери
▁Буття
▁шаблонів
▁запускати
▁холоду
▁хорошими
▁зусиллями
▁експортн
датність
язка
пліч
▁зборі
Retrieved
▁Попередження
▁Статистика
▁вплинула
▁кількостях
▁отруйн
▁стратегічне
▁транзакцій
▁боляче
▁розмножу
▁детектор
▁брошур
▁здивовані
[18]
▁оголошені
▁дельфін
▁красою
▁переглядача
▁підемо
▁ззовні
▁електровоз
▁передній
▁працездатність
▁користується
хрещен
▁Іллінойс
▁заспокоїти
▁кишечника
▁Відповідн
put
стям
▁пальм
▁резервації
філь
▁можливими
AY
▁каменів
грав
▁Стал
▁Старого
▁Японський
▁Східно
айд
▁транспортом
Гілл
▁1910
нцями
▁лопат
▁VR
▁утворюються
▁протиправн
єднаної
▁Закінчив
▁долари
▁померло
ФУ
▁стандартом
▁читаю
ізовано
▁художником
▁цінують
▁3.0
▁митного
▁Генерал
▁показником
▁Sale
оніст
радж
▁Емілі
стоун
▁118
▁активісти
▁Поширен
▁дією
▁співає
карпат
▁замінив
▁MasterCard
▁Security
▁Барселони
▁Платформа
▁Симптоми
▁Швидше
▁перейшла
▁путівник
▁репутації
▁Аравія
▁віртуальні
▁делегація
▁патології
▁хорватськ
▁Buy
▁Довідка
▁торгівлею
▁наодинці
▁іспанської
Вінсент
▁примітивн
▁сейф
▁рулон
▁фракції
▁Пластиков
▁довге
▁пізнання
▁заважає
▁невеликій
▁глобалізації
▁XIII
летіти
▁Княз
▁анкет
▁електроенергети
▁перестав
▁зіркою
▁аналогічно
▁близькими
Star
▁вибірки
sco
▁Wall
▁144
▁племінн
▁незмінно
▁виглядом
▁Сервер
▁Спільний
▁порівнює
▁Обід
▁змінені
▁скаргу
▁автобусів
Мер
side
ony
▁гостро
ВЕР
▁Вілла
▁Приєднання
Щоб
▁кита
кош
▁Створений
▁270
▁Корол
▁здійснюватися
46)
▁цинк
Відкрит
▁школяр
▁безпечної
▁Банд
59)
▁визнавати
▁БО
▁показниками
мовляють
▁вимкнено
`
▁антикварн
▁Переможець
▁Церкву
▁обкладинки
▁обсерваторії
▁офіційну
▁покінчити
▁Відвідати
▁ознамен
▁Ірландськ
▁окупаційн
▁амбіцій
тичною
▁шістнадцят
▁обмежують
▁італійська
▁пекло
▁любляч
▁Абдул
▁провину
▁названі
▁переконань
▁Card
▁Всередині
▁втілен
▁Key
▁бібліотеку
▁розширюється
▁доступне
▁тримали
▁Opt
▁занурення
▁шахрайства
▁Бель
захисн
ЛАС
bar
▁критеріїв
Газпром
▁габарит
Президент
▁формами
▁залишивши
▁серцевого
▁наземних
rie
but
▁інгредієнт
▁Babe
▁Північну
▁Контр
▁розмірах
▁промову
▁зрілі
▁знайомий
▁музично
▁ефірі
▁біла
▁рейд
ницький
▁потребам
map
▁додатковими
▁Газпром
▁фальшивих
▁Bro
▁імунної
▁спеціалістами
▁носа
▁Представник
▁тоталітарн
craft
справедливу
▁Blonde
▁Honda
▁Альцгеймера
▁Пуерто
▁добровольців
▁резюме
▁свідчити
▁ускладнює
▁Edition
▁акаунт
▁готівкою
▁крижан
▁Мойсея
▁спляч
▁третю
▁обслуговувати
▁усвідомлювати
▁свині
▁стимулювання
▁стояли
Поліцейськ
▁фінансувати
▁Джеррі
▁вершник
▁відставати
▁механіки
▁козак
▁корекції
media
▁зменшив
▁термінах
▁Пакування
▁Туніс
харт
▁усуне
▁майнов
▁прибирання
▁прикрасити
▁болем
8,5
виробник
ЕЛЬ
▁крипто
нюк
працевлаштування
▁стероїди
▁ідеальну
▁Сіл
▁інтенсивність
gram
▁складне
▁живими
▁Робін
▁саміту
неформальн
▁Ice
робок
ОВИ
▁біолог
▁емігрант
зис
▁творчо
▁девіз
пряму
▁радить
▁виявився
live
64)
▁війн
▁профілактик
▁отриманні
▁явищем
▁Professional
▁Видавництво
▁Громадяни
▁Штатах
▁дізнаються
▁калькулятор
▁останньою
▁рахунком
▁скупчення
▁японської
▁друже
▁статистику
▁Заповіт
▁льотн
▁Бюсті
▁24/7
▁Flower
▁хрещення
▁Монако
▁припинила
▁спадщина
▁Baby
тестувальників
▁стриман
Австрал
▁модифікації
▁відігравати
▁закінчуються
▁пішки
▁Цикл
▁Тихого
▁продавець
ЛЛ
▁втомлен
▁методології
диск
▁Віце
▁розшук
/15
кордон
рецептор
▁Марина
▁рекомендувати
▁знижується
демократична
▁видаляє
ency
▁опорн
▁обіймав
Енерго
▁геноциду
▁comp
▁відповідному
▁Військовий
▁музикантів
▁долини
▁підняли
▁матки
▁судах
▁вигадан
▁Хам
▁поєднати
▁полковник
поміж
Сильн
▁розмірами
▁щорічні
▁відсік
ознавства
▁освітлен
▁допустити
▁Завод
▁особистому
▁нігті
▁розладів
▁власниками
▁регулює
мілі
TU
130
▁флагманськ
±
▁Ванкувер
▁Еквадор
▁Макдональд
▁бенефіціар
▁діагностува
▁клацання
▁корупція
▁кримськотатар
▁ліквідувати
▁представництва
▁прогулянки
▁швидку
▁Перемоги
▁глибоким
▁довготривал
▁кращою
▁зйомок
▁усуває
▁Влітку
▁іграшок
▁ринком
▁певна
▁креслення
▁йоги
[17]
▁кровоносн
▁електричної
▁Firm
▁приходу
▁англійського
ІЛ
▁Портрет
▁прямокутн
▁Сирію
▁VIII
▁маєток
▁взаємодіяти
зькі
▁Керрі
▁Перехід
рект
140
▁придбали
▁Джер
ьєр
▁ісламу
▁Mu
мпері
▁рецептів
емія
▁1926
▁процедурою
▁Крит
СТАН
▁надлишков
▁кульки
▁вдосконален
▁сільських
▁Лідери
МАН
▁вивченні
▁Vintage
енерго
▁кадри
▁850
▁агентом
▁пишуть
практ
ales
▁інноваційного
▁Низький
▁лівій
▁звинувачують
ili
ХА
етті
▁холодна
▁поселен
▁сигарети
cast
ona
▁присутнім
СЬКОЇ
бито
▁називаю
▁Молодий
▁бригади
соціаліст
▁Філіппіни
▁принципах
▁Подвійний
▁Індивід
▁Yahoo
▁Брюнетта
▁ВООЗ
▁Ліцензія
▁вплинуло
▁дверима
▁оригінального
▁оточують
▁тривогу
▁вентиляції
▁положенні
▁потрапила
▁бабусі
▁Автомобілі
▁національне
▁асоціацій
лацніть
▁інвестування
▁рівнин
▁честі
▁фабрики
▁відчутн
▁Suite
▁SpaceX
▁згодою
▁Іншим
▁носій
▁звинувачень
▁відкрився
▁Год
▁труп
▁піднімає
▁Next
▁гілка
▁Молодіжн
▁приєднується
▁Пальм
▁необхідністю
▁особистими
▁виконаний
core
▁спільними
Багато
секретар
▁реальної
ский
(1)
ICA
▁Гордон
▁Село
▁тривав
▁набувають
▁спален
▁поїздку
вони
▁вирішуєте
▁деяким
bet
▁Західний
▁Дизайнер
▁витік
▁Лісов
Net
▁призов
▁чую
lash
обладнання
факто
вільнення
ізують
▁видані
▁Китайськ
▁Нікол
▁зима
▁Boy
▁видах
▁Латвія
▁Словаччини
▁Увімкнути
▁артефакт
▁внутрішня
▁віртуальної
▁допомагали
▁знищені
▁молодших
▁отримало
▁рекреаційн
▁червоних
▁мертвим
▁серйозна
▁Заступник
▁пішло
▁White
▁упаковки
▁PHP
▁Анонім
▁подала
▁Функція
▁рабів
▁цілого
▁регіональному
▁Підйом
▁заборонена
▁Особи
▁Піл
▁мішки
▁міцності
▁буфер
▁повстанців
▁скульптури
▁інвестує
індустрія
▁обширн
▁воріт
▁Лівії
▁дипломатії
▁двір
смертн
▁професійному
ПГ
▁придатність
будованих
чоловік
▁Advanced
ологічна
▁націлен
▁солідн
▁Догляд
туйте
▁Робот
▁Band
▁Барселона
▁змусили
ницька
104
▁Cu
▁Sam
▁найкрасивіших
▁0,2
▁вулканічн
МК
▁165
▁вуглецев
▁рядки
▁Темп
цифрову
▁консенсус
▁арк
▁British
▁Твіттері
▁академічний
▁благодать
▁декларація
▁дядько
▁експедиції
▁зовнішню
▁консорціум
лаштовує
виключн
▁поховання
▁дружній
▁італійських
▁Увага
▁входили
▁Турецька
▁Фен
▁15%
shop
▁Медичні
▁Реформа
▁Морріс
well
▁інвестиціями
▁стародавнього
раховується
▁унікального
▁чуємо
▁зупинитися
▁Кад
▁визнається
Тільки
▁небезпечними
102
▁Кембридж
ативний
ima
ava
▁еколог
Мон
▁молот
▁дискримін
▁1927
rac
▁граб
сервер
ICE
частотн
▁продовженням
точно
▁Гус
▁поштових
oon
▁шпалери
▁платите
▁1300
▁Nav
▁West
350
▁2025
▁Вміст
▁почало
тейл
▁публікувати
▁кандидатом
▁поширений
▁Титул
▁Введення
микання
▁душов
▁асистент
▁Entertainment
▁Норвезьк
▁Обличчя
▁автономії
▁готелях
▁задовольняти
▁кваліфікацію
▁молитву
▁публічним
▁рефлекс
▁традицією
▁узагальнен
▁швидких
▁невеликого
▁пристроєм
▁професія
▁відкинути
▁піхотн
▁італійської
▁Турнір
▁носили
Дієго
▁мармур
▁Традиційно
вольт
Мал
▁гарну
▁поділяється
▁казков
ньйон
▁палець
avi
▁видобув
▁продала
▁ходу
службовців
магістр
ріх
▁перекладається
роджених
жовт
▁розбити
ФК
▁Kit
Лан
фос
Play
▁поділяються
лейн
▁роботами
Один
▁Вільне
▁Риба
coin
▁поїхав
▁елементарн
ola
▁категоріях
▁Ной
trol
фест
▁доброму
елемент
56)
▁Джефф
▁Metal
▁135
▁знімає
▁листопад
▁ухвален
ATA
Оборон
▁історико
▁вважалися
▁залоз
▁застосовува
▁паралельно
▁урочисто
Євро
▁Ручн
▁Збільшення
▁Москвою
▁ненавиджу
▁пишається
▁релігією
▁таблицю
▁інтеграція
▁Мільйони
▁відзначили
▁екзамен
▁завершений
▁засуджує
▁серйозний
▁теорією
▁кістков
▁підпорядкован
▁ботанічн
▁барвист
▁Статут
▁безцінн
lum
▁носив
▁проповідувати
▁обчислень
▁Чернівці
▁лояльності
▁Джонатан
▁Олів
▁регулюється
Cola
▁молодими
▁Full
СВІТ
кід
▁секція
▁розкривати
112
▁Важливість
▁прозоро
▁господарств
▁західному
▁вишит
Тех
▁національною
life
▁шахов
News
EI
ller
▁економічною
спеціал
▁8000
▁3500
▁альтернативою
▁структурою
▁оптимізм
▁Йога
LAN
right
▁забезпечуємо
▁рабство
▁датован
▁доставляти
магніт
▁Farm
▁Губ
▁соку
sse
▁найпоширеніших
▁діячів
▁інструментальн
ПРА
▁традиційної
HI
▁Анатолій
▁Діапазон
▁архітектуру
▁комунікація
▁обчислити
▁особлива
▁рецидив
▁розповіді
▁сподобався
▁Скасувати
▁стратегічний
▁Гарячий
▁волокон
▁зрозуміє
▁Holding
▁звичок
▁прискорює
▁Marvel
▁припинив
▁заплутан
▁географії
▁патологічн
▁почуватися
▁Духовн
Теоретичн
▁прогалин
▁Аматорський
▁охоронн
▁Грен
▁провини
106
▁маркер
балтійськ
▁смачно
IZ
▁збережено
економічних
ІІІ
▁читаємо
▁стимулює
▁вечірку
▁віршів
альбом
▁раком
▁Велике
масштабн
▁Шон
▁Ball
єтнаму
▁італійські
▁ванну
крім
топлення
версії
▁SW
вірогідн
▁перекласти
▁Домашній
▁свободою
stro
давнього
ційним
▁Дорога
nov
▁Ага
▁Дорослі
гідро
▁пізні
▁380
▁[2]
▁журналах
▁редактором
▁Фотограф
▁природнич
▁Женеві
▁Начальник
▁Революція
▁банкрутство
▁дозволяючи
▁допомагав
▁запросити
▁менструальн
▁нижча
▁побажання
▁худоби
▁Партії
▁звільнив
▁відбувалося
▁споживають
▁Святе
▁капіталістичн
▁бомбардувальник
▁синонім
▁зробите
▁Туристичн
▁супроводжують
▁диких
▁енергетика
▁рентгенівськ
▁секторах
▁північної
▁показані
▁планувалося
▁обсягів
▁щоразу
класифікован
HC
▁посередині
▁Цит
▁перемог
▁Цим
▁Каст
▁посудин
▁візка
▁дозволи
Польща
▁похилого
▁християнами
▁австр
▁строг
▁науках
▁наступній
ACE
Сан
допомог
▁шкірн
▁підтверджено
▁0,1
▁інтегрувати
FR
▁двосторонні
▁волонтерськ
▁торговельних
▁Оксфорд
▁військовій
технологій
▁воїнів
▁сльози
магайся
гріш
▁Змішані
lip
СЬКИХ
берігати
▁вирішальне
λ
▁шістдесят
▁Computer
▁FLOWER
▁Festival
▁Horizon
▁Льодов
▁Письмо
▁допомозі
▁дочірні
▁найважливіше
▁потряс
▁підтримуван
▁функціонує
▁цвинтар
▁бачиш
▁зайвих
▁готівку
▁навіщо
▁Відразу
▁Маршалл
▁сонячним
▁CRM
▁суміжн
▁Московського
▁недалеко
▁вишивка
▁далекі
АЛЕ
рівнюють
▁точністю
▁анальн
▁дошці
▁Пропонує
▁компетентним
▁Кіл
▁спостерігаються
▁запрошуємо
▁розповідь
▁Кост
▁благополуччя
▁скель
▁глобально
▁щоденного
▁Спас
▁безпосередн
▁Верхн
силайте
▁прикрас
▁лінзи
pm
▁куряч
▁посіл
▁постраждалих
▁кратер
▁Studios
▁виступаючи
▁гравцями
▁перевіряють
illa
▁Code
▁Кембриджськ
анна
▁властив
несла
▁Перрі
▁телевізійних
▁нейронн
▁Економі
▁горизонтально
65)
▁короткометражн
▁Торгівля
▁двоюрідн
▁подвійним
▁публіки
▁півострові
▁пізнати
▁розпорядженні
▁артеріальн
▁Колекція
▁справлятися
▁зсередини
▁Плутон
▁надіслав
▁подібними
▁Наукова
стандарт
▁червень
▁продуктивні
▁взаємопов
▁проголосив
▁Mc
▁Розуміння
▁молився
▁експертизу
▁краща
▁гонки
▁інформативн
▁Set
мото
ційне
▁Норт
▁шкодить
lie
▁виконуватися
mobil
прийняття
ставляється
▁зменшувати
▁Творч
▁Рег
▁Атланти
▁Важливим
▁називатися
109
▁Таун
▁2.1
▁точне
▁Міт
72)
здатність
▁Домен
▁117
▁подано
▁дикі
ключається
▁адаптован
▁Житло
▁престиж
дослідний
▁Філіппін
▁Communication
▁Daily
▁Nissan
▁Лоуренс
▁комедії
▁найважливіші
▁найвищому
▁найяскравіш
▁профспілок
▁сантиметр
▁справедливим
▁суперечать
▁теоретичних
▁відмовляються
▁метаболічн
▁сидять
▁скинути
▁відносяться
▁організував
▁Секретаріат
▁греки
▁Resort
▁гостьов
▁принцеса
▁вітання
▁злегка
▁торгувати
▁розширив
Benz
▁національності
▁розробляти
▁1,4
▁займалися
▁обіцянку
▁випущені
▁невідомі
▁попереднім
▁читаєте
▁наживо
▁прибуває
▁вірні
▁залежні
▁Картка
Життя
▁борт
▁ділянках
Поки
повнювати
▁вправами
▁Видання
▁Player
▁всеукраїнськ
▁ризикован
ARD
▁схемою
▁інгредієнтів
85)
▁видає
▁Грег
▁процесуальн
▁православ
революцій
▁споживача
▁мільйонами
▁геном
▁позича
▁нудно
▁тренером
мінюючи
▁старе
▁повідомлен
▁європейській
▁боксер
▁починаєте
▁Декларація
▁Мічиган
▁Півночі
▁бронювання
▁високошвидкісн
▁декларацію
▁становило
▁хлопцем
▁медичному
▁орнамент
▁плісняв
▁Сюжет
▁згадувалося
▁зайняли
Outdoor
▁North
▁заробітку
▁Чорні
▁Дубаї
▁консульськ
▁сходу
▁пакувальн
▁Євангелія
ізоляційн
▁кішки
▁Агентства
▁Сербськ
▁випити
▁олію
▁корінь
par
▁НАШ
▁житловому
▁Куки
▁грип
▁попереджає
▁Long
▁Кенії
▁терор
▁Сторін
фет
обмін
▁найпопулярнішим
▁маска
▁дієту
відсотков
Оскар
▁Валерій
link
▁Довга
180
▁фотографіями
цтва
▁наділен
print
▁Частота
▁клієнтськ
▁Друж
▁пасажири
аїс
ятниці
▁презентацій
▁спільному
модель
▁зимових
▁ранок
▁дійсності
▁купол
субсид
▁капіталізму
▁гостинн
pre
ENT
▁аерокосмічн
▁чуттєв
▁Британію
▁Рузвельт
▁Татьяна
▁королівства
▁тріумф
▁чотирнадцят
▁хорошого
▁євреям
▁ООО
▁Обробка
▁ядерною
▁Special
▁консультування
▁Молитва
▁порівнянн
▁ледве
▁прикріплен
▁пісок
▁житлово
▁завершила
▁залізниця
▁вібрації
▁вантажних
▁безмежн
▁піднімати
▁проклят
▁матеріальних
▁написали
cus
struct
82)
▁мух
єднується
IVE
▁Філіпп
▁одиницю
▁відвідуєте
▁соціологічн
▁Disc
Євр
ədə
▁насильством
▁снігов
reat
длер
льоту
фігур
public
▁попередніми
▁саль
▁Алл
Комп
58)
▁Лінг
FL
▁сільському
▁жителями
los
строй
гітар
sko
▁ягід
Одкровення
▁Бразильськ
▁Купальня
▁Онтаріо
▁батарей
▁грецької
▁законодавстві
▁майстрів
▁маленьку
▁нижчим
▁опублікувала
▁пігмент
▁римлян
▁додаткова
▁Користь
▁біржа
▁минулий
▁Рецепт
▁заповіт
▁експозиція
▁незначні
▁регулярних
▁виконали
▁мужності
▁Випускники
▁Сусід
▁Аматорська
▁минулим
▁любила
▁віскі
▁корал
▁Сторінки
▁ветеринар
▁американця
▁Test
▁громадському
▁CMS
▁коливання
▁наукову
рп
▁аудиторія
▁XP
тріс
ASE
▁теологічн
Вар
rent
Бізнес
інфікован
Союз
▁акумуляторів
▁Лис
▁мотор
▁зиму
▁145
▁Актор
▁виникати
▁єпископів
77)
▁Політики
▁Лож
▁10-15
▁премій
▁пояснюють
▁Тату
▁Військова
▁Надалі
водив
ілья
▁повторне
max
▁емоційний
▁алфавіт
▁рельєф
▁Виробнич
▁Дженніфер
▁Навпаки
▁Очищення
▁Рецензія
▁Святкування
▁звинувачує
▁маленького
▁поглинання
▁стабільний
▁виявлений
▁книжок
▁одержим
▁тимчасові
▁забезпечили
▁Тедді
▁вчителем
▁совісті
▁повернуся
▁роздумів
▁South
▁сердечн
▁LTD
▁авторитарн
▁Самуїл
▁Свободи
▁Тайвань
▁Mid
▁іспанська
▁загострення
▁маленьким
▁невеликим
▁шукаючи
▁намальован
▁вступила
▁помітним
▁джаз
▁оптимізувати
/2018
▁стовбуров
▁творчої
▁підтверджується
▁Мексиканськ
▁злочинців
▁комірки
▁долати
▁встановлюються
▁Прихован
▁Весна
Мак
▁Раз
▁1,7
Буття
▁справедливого
cher
▁Ставки
▁оповід
▁незвичайні
▁перець
▁середовищ
▁передбачається
▁сном
▁12:00
▁прямує
ДЕР
▁метеор
▁мільйонер
▁гомо
▁закінчила
▁актуальними
▁Корон
▁носії
подібним
▁Міц
▁припиняє
sport
▁лояльн
▁Адміністративн
▁незрозуміл
▁повнометражн
▁Албанії
▁Вимірювання
▁Підприємство
▁говорячи
▁загрожують
▁портфеля
▁логіки
▁біржі
▁домашня
▁Canada
▁зняття
▁обрання
▁діаметром
▁Транскарпатськ
▁Airbus
▁припинили
▁визначена
протистоя
▁Теодор
▁психологічні
▁відходу
▁пошкоджені
▁фізичним
▁назвала
▁дозрівання
▁перемогла
▁Гур
▁Високі
read
трав
▁харчової
▁Market
▁маски
▁кризов
▁Продовжу
BU
▁партизан
наслідок
▁контейнерів
▁рекомендував
▁тотальн
▁Теги
▁розділений
індустрії
▁Бонд
▁оборонної
▁70%
▁чашки
готовлен
▁покладаються
▁категорично
▁поводяться
▁Блакитн
▁відновлю
iya
фізик
▁кримінальної
▁Mail
значно
ельф
ij
▁Божевільн
▁пророцтва
роджений
▁Русь
▁Camp
▁Менше
▁підвал
глоб
▁негайного
▁педіатр
240
ł
▁ФУІБ
▁Хелловін
▁безкоштовних
▁глибині
▁ембріон
▁закінчилося
▁людству
▁невловим
▁неправильним
▁претендува
▁півгодини
▁сонячний
▁цивілізацій
▁чоловічої
▪
▁Ultra
▁ОУН
▁коробці
▁Полтава
▁вертоліт
▁Нептун
▁найглибш
▁захищено
▁одруження
▁Аргентина
▁представляли
▁зловити
Англійськ
▁Phone
▁поверхнею
▁звільнені
▁слідчих
▁мусите
▁взяті
▁доменн
▁напрямком
▁списком
▁дзвінків
▁отвір
▁Руслан
▁MSc
▁CNN
▁формули
▁недовір
▁ціле
don
▁гуля
▁встати
▁невизначеності
жертв
▁Mark
▁різною
▁післявоєнн
▁історичному
▁сечі
▁Манд
▁Подібно
rator
овсім
▁фінансовому
▁імплантат
▁прагнули
▁відновлює
злочин
▁підготували
подібно
▁127
tain
▁експлуатує
▁Стародавні
▁творця
майстер
84).
late
▁фармацевтичних
card
▁модернізован
▁рекомендува
81)
▁підсилен
▁знайдена
▁Дал
▁апаратн
▁глибш
Особ
LY
ISA
▁економічними
▁Правов
action
▁XI
▁Deutsch
▁американській
▁розпізна
,5%
▁маленькими
▁Грати
▁Офіційно
РГ
▁привабливо
▁планував
ліценз
▁First
▁Транспондер
▁дружба
▁запросили
▁захищений
▁насолоджуються
▁пляшок
▁чоботи
ε
▁переміщати
▁спостережень
▁статистичних
▁терпляч
▁Твоє
▁відповідали
▁Вчіться
▁дбати
▁Диявол
▁зернових
▁Standard
▁варіації
▁Джастін
▁Белград
▁Фізик
бирав
▁замінює
▁штучно
▁консенсусу
▁Адміністрації
▁розглядав
▁лабораторних
ятають
▁Адамс
Кредит
▁Благо
документ
поп
пункт
▁турне
▁адаптивн
▁виплатити
▁Західного
▁Вибори
▁східної
61)
▁Остр
соціал
mag
▁приймаємо
слуг
▁гінеколог
▁точну
▁суспільству
сіан
ючою
▁радників
▁смол
▁бунт
▁Різ
▁оратор
▁соціалізму
▁стародавньо
hip
▁заарештов
▁ідентифікаційн
▁Бенедикт
▁Говорячи
▁Налаштувати
▁Тбілісі
▁клініці
▁князя
▁конструкцію
▁лічильник
▁розраховувати
▁сподобалася
▁існуючого
ech
▁Solutions
▁Вчитель
▁Календар
▁духовну
▁статистикою
▁драбин
▁Гаїті
▁процвітаюч
▁композиція
▁номінован
[16]
▁закрита
▁захоплений
▁Субота
Фінансов
▁Production
▁верхньої
▁різняться
▁Under
▁червона
▁отримуючи
▁погану
▁Фішер
▁кафедральн
▁виділяється
▁привернул
▁Beach
▁обслуговують
▁Корею
▁регіональний
ростає
язалися
метан
▁Лазар
bank
▁створю
кладаючи
▁складною
▁магія
▁Даніель
▁якісного
125
▁Довго
▁Pack
кидання
▁симптомами
▁будується
Bank
9,99
▁1/2
Web
▁1906
▁ножі
▁плаче
▁дорожче
▁Кафедральн
▁різної
господар
кликаючи
▁навчив
▁річок
elle
▁сільській
▁Tor
різь
▁улюбленого
▁грішник
▁заборонив
діліть
призначен
▁відкривають
ремонт
▁венеціанськ
▁хребет
▁Колорадо
▁Черкаси
▁Шенгенськ
▁авіаквитк
▁заснувати
▁метелик
▁позбавити
▁порятунок
▁спекотн
▁Тренування
▁Цілком
▁березень
▁FSX
▁Творця
▁прибутки
▁Причиною
тримуючись
scape
▁вмирають
▁духовним
▁ліквідован
▁пологів
достатню
▁американську
▁виходом
▁психологічних
▁ягоди
▁Coca
▁маркування
▁цінувати
▁захисників
▁консалтингов
▁філософію
▁This
▁зображено
▁змонтован
▁електронній
▁Down
matic
▁сприймається
▁Одеської
ологією
▁міністерств
терапія
▁Жит
▁організаторів
меншення
▁невролог
▁Самар
▁Побудован
▁німців
нанд
▁слухають
lay
інженер
▁боїв
зацікавлен
РД
українська
▁пенсій
▁Делі
▁натисканням
▁видаляють
▁ретро
▁129
une
постачання
▁Way
язь
гань
▁Загальне
турбу
ization
▁стук
night
▁Кафе
▁шап
aj
▁білок
acc
weather
▁Engineering
▁Ісландія
▁Меморандум
▁величезне
▁віртуальних
▁науковців
▁ненавидять
▁стратегічним
▁успішне
▁фольклор
▁Хвороба
▁вимагаючи
▁майстри
▁перемикач
▁Коротка
▁зіграти
▁ігнорує
▁субсидій
▁відтворити
▁приємний
партійн
▁динаміки
▁визнаних
▁Наукові
▁критиків
▁Османськ
▁Нетипов
▁нафтогазов
▁стільці
▁сірий
▁безвізов
▁незалежну
▁Австро
єднаним
▁стиснення
▁09:00
▁легень
▁достроков
▁коштуватиме
▁Піца
▁Міф
▁Реальність
▁субота
▁вступають
▁наркоман
▁європейців
▁Ніщо
▁Писа
▁Джейк
▁Ход
▁Завантаження
▁Sub
▁питає
▁Лук
▁обираєте
▁одночасн
▁платформах
▁трубок
▁поширюватися
▁будуємо
вального
▁російсько
▁Граф
▁0,3
cture
Tube
▁продовжу
▁Титан
сексуальної
▁гіпс
полярн
станцій
▁ліва
▁зберігаємо
▁метеорит
▁зволож
▁близькості
логія
щук
▁Пуст
▁7000
▁північний
▁третину
▁завдав
▁1400
психолог
▁дорожньо
▁оком
51)
▁маніпулю
союз
▁облич
▁Airways
▁Корпорація
▁Масштаб
▁Федерацією
▁виготовляти
▁водонепроникн
▁доторкнутися
▁законодавчі
▁засідань
▁помножити
▁деформації
▁заряджання
▁орбіті
▁оціночн
▁алюмінію
▁наполягає
▁нейтрон
▁серйозну
▁Дільдо
▁Розкішн
▁студію
▁Корпус
▁зауважує
▁Таллінн
▁жінці
▁відкрите
▁Штаб
▁зіткнувся
▁відвідували
▁привабливість
▁слабким
▁завтрашньо
раховані
▁скидання
▁травень
беруть
▁нормальні
▁Хвор
▁Run
▁профілів
▁Саб
▁бронзов
труб
▁програє
▁психологічної
▁консул
▁малює
mod
▁911
▁римован
економічного
юстон
▁атакувати
зазвичай
казино
структор
клін
▁даю
▁Янукович
▁рідних
сінг
Бей
ФЛ
баб
▁зареєструвати
▁Arts
oom
делі
їжджають
▁створюємо
Служб
бирається
▁тлумач
▁Future
▁Вікіпедії
▁Португальськ
▁боєприпасів
▁взаєморозуміння
▁дозволяло
▁кубометрів
▁нідерландськ
▁поведінці
▁прекрасна
▁піклується
▁єгиптян
▁Японію
▁побачила
▁Ганс
▁макіяж
▁переїхати
▁таємниць
▁канікул
▁окрема
▁покупок
▁вкраден
▁друкарськ
▁USAID
▁невідома
▁вчаться
▁радіомовлення
▁гине
▁отримував
▁Теплов
▁букетів
▁зносин
▁військове
▁вологості
EMA
ОРО
▁називався
▁погоджу
▁Cal
▁овочев
морські
▁місцевою
глянь
гард
▁черепах
▁Ресурс
GN
▁інноваційний
▁перейма
uri
▁змінена
▁1924
▁СОТ
▁висунув
▁сприятиме
ІСТЬ
▁Tom
яттю
Європа
▁незаконні
▁близьким
якшення
▁Bag
▁мовних
Агро
Соціальн
123
ДО
▁трансферт
▁оборонних
▁пилов
▁мікроскоп
▁стартапів
▁франшизи
▁порожнім
триматися
▁споживачі
становка
▁народові
▁дюймів
vit
▁помічає
правових
▁Асоці
▁південного
▁кардинал
▁Букет
▁Займ
▁Індонезія
▁Бухарест
▁Працюючи
▁екскурсій
▁заворушення
▁зрозуміла
▁насолоджується
▁чоловічого
▁Поняття
▁адмірал
▁ліцензією
▁податковий
▁пристрасті
▁чітким
▁ПВХ
▁виверження
▁неоднозначн
▁фортеці
▁Джордан
▁глибина
▁присвятити
▁позитивну
▁заручників
[19]
▁похований
▁молодої
▁електричного
▁щоденних
▁Фінансові
▁здатних
▁повноправн
▁вирішені
▁промисловий
▁Чорнобильськ
▁Сотні
▁Отримав
▁художнього
▁Посл
▁відділень
▁залишків
повнюється
▁спар
▁документацію
▁гімнаст
VER
фуз
схвальн
фарм
▁Барбі
▁роздяг
▁обмеженою
▁макроекономічн
▁французи
▁Моз
▁2022
працював
комунікаційн
▁здатним
▁колонія
▁Плати
Art
▁стероїдів
проникн
▁масово
OO
RES
▁відзнак
▁залишила
▁пожежн
▁донорів
▁Japanese
▁аутсорсинг
▁афганськ
▁властивостями
▁гарячих
▁діагностика
▁зашифрован
▁подібну
▁інтегральн
Homemade
▁Rights
▁армією
▁делікатн
▁пляшка
▁Злочин
▁коротка
▁Неможливо
офіційне
▁зварювання
▁відстежувати
▁SUV
▁безвісти
▁Чорногорії
▁публікація
▁штани
▁приховує
▁Слот
▁Спільноти
▁мовчання
▁Економічна
▁Прапор
▁Сомалі
▁крават
▁ідіот
▁припиняється
▁перебільшен
форум
▁академічного
▁людським
▁викликана
▁невдоволення
▁Скі
▁застуд
▁вакцинації
▁Сирія
▁дусі
RN
▁датується
▁слухав
▁масове
▁Турк
/0
▁обирати
▁Георгій
oth
▁гранат
▁інфекційних
▁соки
▁банкір
▁розумного
▁привітання
їдете
▁мріяти
▁страти
ИНГ
▁забав
▁Портал
▁тепліш
▁Клар
gin
Ніч
▁форс
▁відчувала
▁соціолог
▁горе
гауз
Йоркськ
сепаратист
▁застосовує
▁Тернопіль
▁провінцій
ближч
прошу
▁рентабельн
▁Архітектура
▁Внутрішня
▁Польщу
▁Революції
▁дозволів
▁каталозі
▁найкращому
▁неправильний
▁призначив
▁судноплавства
▁цуценя
▁Дуглас
▁Навколо
▁затримали
▁оточує
▁обмеженим
▁покупець
▁зачаття
▁півтора
▁підняття
▁субсидії
▁Біблійн
▁перевозити
ченні
▁поранено
єкції
▁євроатлантичн
▁підходом
▁бінарн
24).
▁Торговельн
врятован
▁синагог
▁глух
▁Bit
▁Своє
▁викладати
▁Насіння
▁набрав
▁Угоду
▁статистичні
Дівчин
▁смішно
глянув
▁зловмисн
▁соціалізм
▁Переважн
▁Тесла
▁капіталізм
▁вухо
▁гетьман
▁вигнання
ГИ
KI
▁безпечною
▁минуло
▁Вибрати
▁бензинов
EK
▁Face
▁звинуваченням
▁знайдемо
▁реальна
▁мес
центричн
▁хабар
▁Погляд
▁видавати
Host
регульован
▁виправдати
▁взято
захист
інтен
Дніпро
КОМ
Деякі
RL
▁хвилюють
▁2050
▁твоєї
▁Товари
▁зірку
▁ствол
▁ліцензійн
▁ознаками
офіс
кажімо
▁паров
підприємці
▁Guardian
▁Нещодавні
▁громіздк
▁конфронтації
▁напруга
▁павільйон
▁сонячна
▁шматочк
▁кращих
▁компресор
▁дивізія
▁Охорона
▁кулінарн
▁оцінив
▁Steam
▁Прийнят
▁єдиному
▁скрізь
▁виросла
▁навчав
▁викликаний
▁безпечна
▁дисконт
▁зросло
▁готівков
▁антивірус
▁стандартизації
▁граничн
▁вирішу
led
▁порадою
▁Вокер
далось
▁гасло
цар
▁озброєнь
▁Вікторії
DN
▁закрили
▁Сцена
▁знижку
ливають
реструктуризації
▁зліва
▁підписки
▁завантажувати
▁Рис
НЯ
▁релігійного
▁образлив
▁Словацьк
▁моральних
іншому
▁радо
ПЕР
вибор
▁PCB
зит
▁стандартним
▁відображен
▁пропозиціями
▁Лютер
▁структурних
▁простати
▁1916
SCO
▁She
планетн
▁розповсюджен
▁спільнот
▁Гурт
▁глибокого
▁орендар
down
▁вітаю
омбудсмен
▁Помаранчев
▁Литві
▁Механізм
▁лабораторій
▁прекрасний
▁схуднення
▁французьку
▁Адольф
▁Довгий
▁мажор
▁кінцем
▁підлозі
▁розвинули
гігієнічн
▁обробці
▁суворим
▁шолом
▁залучати
▁конституція
▁підлогу
▁Францію
▁радіостанції
2003
▁реплік
▁звідти
▁дно
▁мелан
▁Зеленського
▁LED
BN
Тор
▁нафта
▁пересічн
▁висвітлюва
▁чол
відомі
▁підпункт
▁звинувачувати
▁згадав
▁присутніх
▁лесбійськ
▁дружнім
▁Федор
▁двосторонніх
ДЕН
▁практичної
▁викрада
▁пенсіонерів
▁Гарріс
▁ведеться
▁заробив
▁технікою
▁транспортної
▁закликають
▁рахувати
журнал
▁Дощ
▁ставати
бласт
Гор
cz
▁Бомб
▁Фред
turn
▁Величн
▁Харківської
▁сплачу
тимчасового
▁Почуття
▁кондиціонер
▁прикрашають
▁прогулянка
▁публіці
▁сміятися
▁Маріуполь
▁прибуткові
▁Kids
▁домашню
▁консультація
▁домовитися
▁Місяці
▁джинс
▁дешевий
▁помилкою
▁Оригінальний
▁сформував
▁обрана
▁вимагало
▁прозорість
▁Чесно
▁сітки
▁зникла
▁класичного
board
▁Курорт
▁гарантію
▁легке
▁вченого
raw
▁Празі
▁Віденськ
▁рідною
▁куратор
▁порід
▁сканер
ставляю
▁чутливість
▁Берг
▁Системн
▁дощов
шаров
чал
▁1.3
▁заселен
давалася
▁релігійну
▁господаря
Шахтар
/18
▁Південному
▁Доказ
РИСТ
AX
▁індивідуальним
9.00
▁приписують
▁вугле
▁Pen
▁PayPal
▁Xvideos
▁Короткий
▁Москву
▁Туреччиною
▁відрізнити
▁гвардії
▁зруйнувати
▁кольорах
▁маленької
▁чоловічий
▁бойкот
▁захваті
▁кокаїн
▁тюремн
▁йогурт
▁Флорида
▁порошку
fashion
▁Недолік
▁позитивне
▁вимушен
▁Близький
▁простежити
▁ниток
▁дворян
▁розрізняти
▁дискретн
▁солодкий
▁Рассел
▁Спільнота
girl
Академ
▁варвар
▁місією
▁ідеології
▁британська
▁підлітка
▁слухнян
▁селах
▁виснаження
▁Pink
▁стек
▁астрономії
▁конкретному
CON
chen
▁астролог
med
ДП
▁жорсткого
▁чисте
▁Запропонован
▁співпрацюємо
▁тромб
▁Морський
▁голосов
▁підписана
108
Луїс
▁квадратний
▁Реальн
▁ймовірності
живання
▁перешкоджає
▁стандартного
тренінг
▁техно
▁поводиться
переробн
App
▁вирощують
▁плануємо
▁перестане
▁забуду
▁водії
▁торгів
▁плідн
Свобод
É
Єзекіїл
застосунки
▁Євробачення
▁Серйозн
▁дорослого
▁невгамовн
▁орієнтації
▁Відтоді
▁Емірати
▁крапель
▁японського
▁творчим
▁Ультра
▁Четвертий
▁навчитеся
▁гілок
▁обчислює
▁невідомий
▁захоче
▁Татуювання
▁адаптуватися
▁підійти
▁настає
смок
▁полиці
▁XII
▁сумніватися
▁безжальн
▁маслян
▁знизився
▁воск
▁безсмертн
▁зустрічався
▁Точка
▁супроводжувати
▁спортивної
▁променів
▁Українське
СЬ
▁Салон
▁19:00
▁Діл
▁бюджетних
▁керується
▁Візит
▁обговорювалися
▁планували
▁перешкодити
▁переможн
▁земле
▁злих
Волонтер
менеджмент
vol
несена
▁Понт
▁романтик
▁Force
никати
▁перевищил
▁супутн
метеорологічн
NN
3,4
▁Казан
робляючи
▁розірван
▁зупинка
давався
▁оголен
▁Юди
тягнув
▁передового
медицин
▁щасливо
▁діаспор
▁стільников
▁Детройт
▁Манафорт
▁Співдружності
▁кондиціонування
▁пакунка
▁яскравий
▁ВІДЕО
▁Ідентифікатор
▁ночей
▁оголошений
▁прокидається
▁недбал
▁вуглеводн
▁борошно
функціональний
▁психічних
▁Маленький
▁багата
▁Твої
▁Гілларі
▁зібрала
▁дифуз
▁Експрес
▁цифровому
Динамо
▁започаткован
▁смуж
▁еротичн
▁погодилася
▁Shell
▁двосторонньо
▁сольн
▁мусив
▁суфікс
▁аванс
▁Вак
▁Deep
▁вигук
▁Нот
▁солодкі
▁виглядали
▁Камп
янин
▁Барт
thing
▁Sports
▁Фокс
волен
офіці
▁стверджується
Арт
Гру
великий
▁верхні
▁Рекоменд
▁відключення
зокрема
коледж
анадто
універсально
▁шукаю
▁прикриття
▁істинним
метал
конкурент
▁Hub
льоті
▁дворі
кілька
Місто
розділ
▁привели
▁РІЗ
▁загибелі
▁звинуватили
▁письма
▁пляшку
▁спілкуванні
▁увійшла
▁фосфор
▁Мюллер
▁страждав
▁Шотландія
▁варіюється
▁липень
▁Хартії
▁випробувати
▁причастя
▁стежить
▁Семінар
шліть
▁хоромад
бирач
▁одружилися
▁показаний
▁Простий
▁взаємозв
▁стримування
▁Палестини
▁лізинг
▁сполучення
▁річницю
▁місіс
▁поперечн
▁Регіональний
▁одружені
▁Перетворення
▁воювали
▁Групов
▁МСП
▁Stone
▁потрійн
▁КОР
▁відкритої
▁присвячу
▁Стенлі
позич
▁звернулися
▁відкриттів
ju
ступаючи
▁славиться
веденні
місяць
Авів
▁основне
▁Таймс
▁верхніх
▁готуються
▁вказується
▁Pop
НДІ
▁вимерл
▁болісн
Нові
режисер
▁дієтичн
морських
▁сплатити
▁імплант
▁західній
▁граючи
▁перспективних
ball
▁Фон
▁жертвам
▁виконавчим
▁вважався
▁будували
елігійн
▁МСОП
▁Маргарет
▁Помпео
▁грецьких
▁картопля
▁колекціонер
▁породжує
▁обдурити
▁Квадрат
▁колектор
▁агенція
▁молодості
▁шланг
▁опадів
▁поправок
▁стрімк
▁найлегш
KE
▁стихійн
▁Control
▁столицю
▁Покращен
▁подякував
▁змішування
▁Волтер
system
▁ґрат
▁домовленості
▁натрію
▁Рекомендується
▁чарівно
▁дискурс
▁скорочено
▁голуб
▁Йорданії
etk
▁гарантування
гідні
▁оберіть
▁Розвива
▁нічного
▁спеціальності
ятаємо
▁Пірс
▁приймається
КОВ
сайд
дорф
▁вето
▁Чеськ
технічні
метрії
НІСТЬ
▁звичка
МІН
▁Грем
▁долина
Систем
агог
▁привітав
▁Cur
▁цікавлять
▁Cup
нкурентоспроможн
▁Окт
Стріл
▁подальшим
▁Скан
▁Франц
▁відрізняє
▁утворює
Ман
≈
▁Позначте
▁Спосіб
▁апеляції
▁вуглеводів
▁заощаджень
▁концентрацію
▁локомотив
▁прийнятті
▁скаржитися
▁агресія
▁ескадр
▁надлишок
▁обурення
▁перетворень
▁поповнення
▁принцеси
▁опонент
▁аварію
▁визначила
▁незворотн
▁Оператор
▁фальсифік
▁сплату
▁спілки
▁італійською
▁Нельсон
▁Аудіо
робіть
▁Ідеї
▁штурм
▁понять
▁знімок
▁Консервативн
▁Писання
▁подивився
▁Класичний
▁сексуальне
▁щільність
▁Черкаськ
▁Marketing
▁Асада
▁презентацію
▁Відправлення
▁уразлив
марин
▁кругов
між
▁нормальний
▁говорила
▁Господній
▁Form
▁Зворотн
▁центральну
▁(2014)
▁Семен
▁складався
▁Верхній
▁рядку
▁розквіт
cing
tica
▁перемогою
MR
Йо
▁1700
▁відновив
▁1100
via
▁Уникай
▁хаб
▁пастку
▁варта
▁чисельн
▁Купер
▁спеціалізу
▁вузько
▁утворили
▁Mega
пущений
▁наданні
галерея
Можливо
GC
▁портов
▁пожежної
rom
▁літальн
▁дивним
▁місцеве
робоч
▁культурну
▁Організаційн
▁Гарт
нович
▁Раян
▁Шанхай
травматичн
▁Переможці
▁елегантно
▁каталізатор
▁Creative
▁Єпископ
▁Законодавч
▁Несподіван
▁УКРАЇНСЬК
▁глибоку
▁заслужив
▁оцінили
▁подвійні
▁практичну
▁яскравих
▁індонезійськ
▁снайпер
▁блозі
▁природна
▁Дзвони
▁Моніторинг
▁їхньою
▁Privat
▁каскад
▁нематеріальн
▁одних
▁схован
▁представляв
▁винайшов
▁XML
▁республіканці
▁зрілий
▁висловлен
▁Днепр
▁приділяється
▁ратифікації
▁наведені
▁осінь
▁Каїр
▁промислово
▁проголошує
▁Гайд
▁арені
▁проводила
▁достовірність
▁Apps
▁пожертвувати
▁магії
▁матеріальні
rill
▁навчалися
▁плей
▁дзеркальн
▁відкриваються
▁конф
▁Зима
▁Світлодіод
▁постановив
▁Проведення
економічної
▁256
▁зарплат
▁Бойко
▁духовної
450
Філ
▁лиха
▁Природно
▁рідні
▁приблизн
▁закінчитися
рідж
▁Незвичайн
doc
ych
▁економік
▁Андрей
▁ресторанах
▁плавно
ійшло
▁легендою
Культур
▁художньо
▁Бойов
cord
▁Don
▁автомобільної
▁Коментар
▁використан
▁Кир
▁Скр
кел
▁гнучкі
кукурудз
▁лімф
середземноморськ
▁співрозмовник
▁трубопровід
▁Mozilla
▁Македонія
▁влаштован
▁жорстких
▁зауважив
▁комісію
▁нижчі
▁німецьку
▁пакунки
▁пишаюсь
▁прибутковим
▁професію
▁повернуться
репортаж
▁випадком
▁Чумацьк
▁мемуар
▁Операційн
▁латвійськ
▁шлюз
▁завідувач
▁Бахрейн
▁теплий
▁безпечних
▁Повага
▁втручатися
▁плоду
▁цілим
▁Родина
▁гарантією
▁аморальн
▁Виготовлен
▁кубічн
▁властивість
▁перешкоджати
▁розміщується
▁***
▁Lead
▁Територія
▁воліє
▁легені
▁темний
▁ABC
▁Кастро
▁польські
FTA
ession
▁пояснюється
▁Латинській
▁Павел
▁Донецькій
▁Азербайджанськ
tract
Product
▁1909
▁готуватися
діяльність
ident
акції
навіть
▁Сирійськ
road
▁Термо
▁стовбур
біблі
▁проживал
▁окремої
▁ковзан
▁множинн
▁гарантують
залізн
▁обіцяю
▁Мадагаскар
▁кулемет
▁найзручніш
▁Financial
▁Italy
▁Women
▁Киргизстан
▁Польщею
▁гаманець
▁досконалий
▁дізнаємося
▁нижчий
▁репутація
▁тимчасовий
▁Speed
▁дисплеї
▁дренаж
▁караоке
▁використали
▁симфонічн
▁мобільному
▁Багдад
▁анімації
▁DVB
▁сучасною
▁Молдавськ
▁викладав
▁взаємодіє
▁чуття
▁відходами
▁клавіатури
▁майя
▁Money
▁Американці
▁розповідати
▁соціології
▁Great
▁закликала
▁стимулювати
▁перемикання
▁розумніш
▁буддизм
▁сльоз
▁Fair
луп
▁аналітичні
real
▁підготовлено
▁придбала
ючої
▁типові
▁ворогами
ручає
erence
▁Centre
▁відновлювати
▁солодко
▁повітряним
▁1908
▁ректор
▁Paris
▁збереженні
▁плин
рер
▁паризьк
▁Характерн
▁перебуваєте
ЛІД
ota
дейл
▁заборонил
▁вражаючим
▁активувати
▁імпортер
▁Мартин
▁наставник
Директив
▁Перевір
▁комунікативн
ı
▁Ferries
▁Регламент
▁відбудуться
▁загрожувати
▁замкнен
▁затриманих
▁кисень
▁конфігурації
▁кухнею
▁налаштувань
▁напругу
▁нижньої
▁пишатися
▁прагнув
▁розрахунки
▁скоротилася
▁чітке
▁існуючої
▁Дісней
▁Михайла
▁благодаті
▁егідою
▁МЗС
▁емблем
▁Золоті
▁Латвійськ
▁Штучн
Енергія
▁символізують
▁божевільний
▁збільшить
▁власна
▁вирішена
▁сплять
єднала
▁знизу
▁1903
▁Fiat
Математичн
▁досяжн
▁Паул
▁оптимізація
▁синхро
dro
▁9001
▁Кел
▁Базов
▁Valve
▁смертність
ONE
▁уяви
▁елітн
▁графіт
▁психічно
▁Куч
▁замінюють
▁USS
продовж
▁описується
MY
▁Включає
Країн
Оновлено
met
▁Пакет
▁Шост
▁тонкі
▁східного
LR
▁поєднувати
job
▁доводять
▁Ref
▁кольорі
Реал
▁Pass
▁Розширен
▁Встановлен
▁третин
увальних
▁гарним
▁знижка
‰
▁Australia
▁Африку
▁Відпочинок
▁Македонії
▁буржуазн
▁водосховищ
▁каменем
▁симпозіум
▁тюльпан
▁цвях
▁чоловічі
▁інтеграцію
▁Місткість
▁деталях
▁розвивалася
▁завітайте
▁невелике
▁охороною
▁Products
▁Snap
▁роздуми
▁скасував
▁Бруклін
▁дружніх
▁міхур
▁англійських
▁обоє
▁Еротичн
▁Починається
▁Xbox
▁Воррен
▁імперськ
▁облаштування
▁Чен
▁Андрі
▁лівого
▁опозиція
▁продавці
▁відвідала
▁зомбі
▁лук
▁помсти
▁виглядала
1.2
MAX
▁бюрократ
▁Чорному
▁Джейсон
▁драма
▁сканд
▁поглиблення
▁сходить
ЛЮ
info
▁Жур
дискримінаційн
Народн
▁Касс
ключення
▁Парад
▁синові
Навіть
▁розміщує
американський
▁Лорд
послуг
▁визнаємо
▁Палати
Східної
посадков
КГ
▁кооперативн
▁Гарві
▁Політехнічн
Суспільство
▁Engine
▁Гамільтон
▁Костянтин
▁адміністрацією
▁азербайджанськ
▁будинком
▁оцінкою
▁резолюція
▁уподобань
▁хорошою
▁збагачення
▁координаційн
▁Кореєю
▁ковбас
▁таблеток
▁Болгарськ
▁розширюють
▁хромосом
податкову
євангелі
▁Маршрут
▁Команди
▁зображує
▁естонськ
▁минулі
▁ABB
▁Тверд
▁можливу
▁збігається
▁повторюється
▁перетворили
▁Джиммі
▁Water
▁воювати
▁Мойс
▁Своїм
▁прибульців
▁чекаючи
Американськ
▁стадія
ida
брат
▁минулої
▁Sound
▁паролів
▁флю
▁плануванні
▁Республіканськ
▁глобальною
лович
▁звільняє
▁середнє
▁рідної
▁наказує
▁Action
▁забезпечені
▁Смак
▁Fly
▁критичного
▁поставила
ital
▁польський
▁Сьо
▁міді
data
парламент
▁Бун
▁Перськ
▁Світла
водимо
▁Монро
▁займати
▁Часті
Джон
è
▁Yandex
▁резонанс
▁Варшави
▁Висновки
▁Схоже
▁еволюція
▁пройшло
▁тимчасове
▁інтерпретувати
▁конвенцій
▁призначити
▁біжить
▁Постанова
▁усиновлен
▁неможливість
▁домівки
▁виїхати
▁Хронік
▁Жозе
▁Фенікс
▁безсоння
▁Двері
▁Аргентині
▁модернізацію
▁Науковий
▁суспільних
▁Glo
▁внеску
▁модернізація
▁Heart
▁НАБУ
▁розміщуються
▁поглинає
▁спроможності
▁передплат
All
▁горіння
▁TED
▁означ
▁компенсувати
▁Персі
оспроможність
▁материк
▁калор
▁гонка
▁Site
▁закінчилися
▁Jun
▁Застосов
▁овоч
▁17:00
▁чують
▁професійною
▁спадков
▁морального
східному
▁Прошу
▁Білоруськ
▁надлишк
▁банкомат
▁лікують
▁соціальному
▁капітул
бренд
жжя
ЕГ
Аеро
▁підписані
технічних
▁Страхов
КОЛ
▁збільшив
gov
справедливе
тихоокеанськ
▁глибоких
▁законодавці
▁запущена
▁музична
▁ідентифікує
▁висловлювати
▁гектар
▁попереднє
▁утилізації
▁досліджували
▁стійкого
▁Боснії
▁Моцарт
▁поновлення
▁співачка
▁Кампанія
▁універсальний
▁вчимося
▁плутати
▁початків
▁полотно
▁просуванні
▁побутових
▁Гравці
▁Гаваї
▁Первісн
▁Шкільн
місія
розслідува
▁якісну
▁річниці
▁Виготовлення
▁данин
▁описаний
▁Відомості
ЕСТ
▁Внутрішній
▁демократичної
екран
▁Шанс
▁бійців
▁пуп
▁ставилися
▁переведен
ume
ANT
давайте
▁вечірні
▁Deutsche
RIS
▁Ніколас
▁Бад
▁змушу
MU
▁онколог
▁Tro
▁славн
▁Фур
Brunette
▁Earth
▁Family
▁Premium
▁Декларації
▁МОЖЛИВО
▁Монастир
▁Процедура
▁гарячого
▁дозволяти
▁знаряддя
▁зрозумілі
▁комерції
▁очолюван
▁популяризації
▁серпень
▁торговця
▁юрисдикцію
▁грецького
▁етнічні
▁попросила
▁комбінація
▁ложки
[...]
